<pad>
<unk>
<bos>
<eos>
లో
ను
కు
లు
గా
ఈ
తో
ని
ం
ారు@@
ు
కి
ంది@@
న
కూడా
పై
ంగా
లు@@
మరియు
ం@@
ఆ
ను@@
ఒక
ాన్ని
ానికి
ల
ము@@
న@@
గా@@
ు@@
నే
నుంచి
స్
ని@@
అని
ః
ా@@
ము
స్@@
నా@@
నే@@
తన
కు@@
ా
కోసం
చేశారు@@
లేదు@@
ల@@
ాడు@@
అ@@
చాలా
ఆయన
వి@@
ఁ
ఇది
క@@
ది@@
లను
లో@@
ఉంది@@
ే
కా@@
లోని
ఉన్న
మైన
రా@@
నా
వారు
మీరు
యొక్క
అయితే
నుండి
సినిమా
మీ
చేయ@@
ందుకు
ఓ
వ@@
సినిమా@@
చేసిన
ల్లో
రూ@@
ది
ాలని
డానికి
కే
కానీ
మే@@
కి@@
రెండు
వారి
ాయి@@
ద్వారా
తర్వాత
వరకు
లకు
ప్రభుత్వం
ట్లు
క
మంది
పై@@
త@@
ఆమె
అది
లేదా
రు@@
ప్పుడు
తో@@
మా@@
ే@@
తెలిపారు@@
ఉంటుంది@@
పాటు
గురించి
ాలు
పార్టీ
కొన్ని
ఏ
తమ
రెడ్డి
లా
ఉండ@@
అనే
ఆ@@
ఇప్పుడు
రి@@
వ
చెప్ప@@
ఁ@@
అన్ని
మంత్రి
ించారు@@
చేసి
ి@@
మా
ఇక
అన్నారు@@
య@@
ుడు
స్తుంది@@
లోకి
మని
న్
నీ@@
ఇ@@
దు@@
మీద
ఉన్న@@
మీ@@
నీ
స్తోంది@@
చెందిన
కొత్త
రాష్ట్ర
మంచి
మరో
న్@@
దీంతో
చేసింది@@
ప్రస్తుత@@
జిల్లా
మాత్రం
మధ్య
తుంది@@
కాదు@@
ారని
ఉన్నాయి@@
చెప్పారు@@
తెలంగాణ
వల్ల
స@@
కుండా
ఏ@@
ప్రతి
వచ్చు@@
మన
ి
మే
మ@@
మాత్రమే
ండి@@
ముందు
సమయంలో
ఇప్పటి@@
డం
లతో
డు@@
వారికి
సు@@
తోంది@@
ాలి@@
వు@@
డు
పెద్ద
వా@@
ంది
రెడ్డి@@
ఎలా
డి@@
్లో
వచ్చిన
విషయం
యా@@
పోలీసులు
మూడు
కరోనా
ప@@
లా@@
పని
తే
శ్రీ
ఇతర
సీఎం
వి
వంటి
యు@@
ఇవ్వ@@
కాంగ్రెస్
పార్టీ@@
అవకాశం
కో@@
ఈ@@
ః@@
వద్ద
ర్@@
లేదని
అంటూ
తి@@
అంటే
త
్@@
సి@@
ఏర్పాటు
్
సందర్భంగా
రోజు
కలిసి
ర@@
ట@@
దాని
అదే
వే@@
కేసు@@
అనేక
నిర్వహించ@@
పూర్తి
గత
మన@@
ఇలా
లే@@
అందు@@
ందని
లలో
శ్రీ@@
ప్రభుత్వ
లోనే
తెలుగు
అలాగే
విడుదల
మొత్తం
చేసే
లేని
శాతం
భారీ
జరిగిన
గ@@
తరువాత
తన@@
ప్రధాన
కే@@
మి@@
విధంగా
చే@@
చేస్తున్నారు@@
నని
తాను
జగన్
శాఖ
అధికారులు
కాని
ారు
ప్రజల@@
యి@@
చిత్రం
ప్రత్యేక
కేంద్ర
గానే
ఎక్కువ@@
చిన్న
పెద్ద@@
తీసుకు@@
బీజేపీ
తెలు@@
ఎక్కువ
ముఖ్య@@
మరింత
వచ్చే
మొదటి
వేల
కంటే
పో@@
తెలిసిందే@@
తాజాగా
అత@@
చేయడం
స్తున్నారు@@
ించి
తే@@
పి@@
కేసీఆర్
కేవలం
ులు
పేర్కొన్న@@
సీ@@
జరిగింది@@
లేకుండా
చేస్తున్న@@
మీడియా@@
మారి@@
కోట్ల
విషయంలో
పేరు@@
పేరు
పు
తా@@
వివిధ
చేయాలని
బాగా
ప్రజలు
ంచారు@@
వెంటనే
పు@@
టి@@
వ్యక్తం
ముఖ్యమంత్రి
ఆయన@@
ప్రశ్న@@
సంబంధించిన
గల
వచ్చింది@@
ఉన్నారు@@
భారత
మును
పాత్ర@@
ఇక్కడ
దా@@
ఓ@@
ఇంకా
ంలో
అయితే@@
యు
పవన్
ుగా
చూడ@@
నూ
వారు@@
ఎ@@
కలిగి
సోషల్
లక్షల
స్తారు@@
నేపథ్యంలో
ఎంత
అక్కడ
ఆమె@@
చ@@
కొని
ంబు@@
ప్రభుత్వ@@
స్టార్
మాజీ
పలు
వచ్చి
ఎంతో
సం@@
వాటిని
ద@@
అవసరం
ఇందులో
లేక
త్@@
కీ
బి@@
చంద్రబాబు
వెల్లడించ@@
వెళ్ల@@
ముందు@@
ట్టు
తెలంగాణ@@
టీ@@
ుడు@@
తిరిగి
చర్యలు
ప్ర@@
చే
కె@@
ఆర్థిక
ప్పటికీ
వారిని
సంస్థ
క్@@
తెలుసు@@
ఎలాంటి
మహా@@
చెప్పు@@
అతని
స్తూ
ఉంటాయి@@
అయిన
కుని
అభివృద్ధి
రావు
దని
పాల్గొన్న@@
కాబట్టి
కుంది@@
మనం
విమర్శ@@
దాదాపు
జ@@
మ్@@
రోజు@@
మో@@
గ
పని@@
రాష్ట్రంలో
ములు
చేయడానికి
పెట్ట@@
ఏం
రా
ప్రతి@@
పరిస్థితి
వ్యక్తి
యే
ఉందని
ప్రకారం
అవు@@
ఎన్నికల
మాట్లాడ@@
గారు
ఇంటి@@
మేరకు
రాజకీయ
అనంతరం
హైదరాబాద్
యే@@
ఎమ్మెల్యే
కారణంగా
విద్యార్థుల@@
ాలను
ఉంటే
టి
ఇదే
తి
నాలుగు
తాయి@@
అత్యంత
ఎందుకు
ఏడాది
ంబు
లి@@
బ@@
అలా
కుమార్
హ@@
పొంద@@
వ్యాఖ్య@@
స్తాయి@@
ించిన
ధర@@
సిద్ధ@@
ఇటీవల
నమోదు
తెలుగు@@
అందించ@@
ఐ@@
నున్నారు@@
ంగా@@
హైదరాబాద్@@
అందుకే
ఇలాంటి
హీరో@@
చిత్ర@@
గో@@
ఆఫ్
దీని
మ్
రోజుల
చేస్తున్న
వీటి@@
చు@@
నెల
సంగతి
పూర్తిగా
న్న
డ్
డ్@@
సర్వ@@
్ని
డ@@
రాజు
వలన
జాతీయ
తనకు
గతంలో
నో@@
లేదు
ించ@@
స్తే
సంస్థ@@
తక్కువ
ఎన్నికల్లో
మైన@@
తప్ప@@
బయట@@
రో@@
వచ్చిన@@
వారి@@
ఒక్క
జి@@
ప్రారంభించ@@
పోయింది@@
మళ్లీ
కొనుగోలు
భాగంగా
చేస్తూ
కాకుండా
ప్రకటించ@@
కేసు
అసలు
చేశాడు@@
చేసి@@
కీలక
సార్లు
కోర@@
కానీ@@
వాడు@@
మరి
డా@@
ాల్సిన
దేశంలో
ాడు
రు
ుఁడు
ఫోన్
తారు@@
నో
టీడీపీ
ుని
రీ@@
వైపు
జిల్లాలో
టానికి
భారత్
నుంది@@
ఇచ్చిన
అభిమానుల@@
యా
అంది@@
తెలియ@@
ాలు@@
రావు@@
మీడియా
కొంత
ఆర్@@
సా@@
పరీక్ష@@
రాత్రి
చేసుకో@@
లే
దృష్టి@@
హీరో
స్థాయిలో
చెబుతున్న@@
ఉపయోగించ@@
ప్రత్యేక@@
తీవ్ర
య
విషయాల@@
అంత@@
దే@@
ో
కార్యక్రమంలో
కథ@@
మాట్లాడుతూ
లపై
ప్రేమ@@
కేంద్రం
మునకు
తొలి
దీనికి
గ్రామ@@
అను@@
ఉండే
డిమాండ్
తీసుకోవ@@
తు@@
తల@@
చేశా@@
రాజు@@
ప్రధాని
కనిపిస్@@
ర్
కొందరు
నిర్ణయం
పెళ్లి
ఉన్నా@@
నట్లు
ాను@@
ప్రపంచ@@
చేసుకున్న@@
సింగ్
గల@@
కాదు
బాబు
లాంటి
లోనూ
ఇద్దరు
రాష్ట్ర@@
పెరిగి@@
అనేది
మున
సూచించ@@
బ్రహ్మ@@
అన@@
వీ@@
సమయం
అయినా
దానికి
కింద
వ్యాప్తంగా
ట
ఉదయం
వై@@
ప్రజల
దేశ
ఏపీ
మధ్య@@
ముగా
సంబంధించి
సమాచారం
నాయకులు
రైతు@@
శ@@
కృష్ణ@@
రిలీజ్
ించు@@
సమాచారం@@
అమలు
అంటున్న@@
కాలంలో
ఉ@@
అధ్యక్షుడు
కోవడం
చేయాలి@@
ండి
డి
పా@@
ూ
బో@@
ఎన్నో
వా
వరకూ
చేరు@@
శక్తి
చేస్తుంది@@
దేశ@@
తెలిపి@@
కొత్త@@
రెండో
పోటీ
పనులు
ఉపయోగ@@
గు@@
పడ్డారు@@
వివరించ@@
ఇండియా
చికిత్స
బల@@
ల్
ఒక@@
నేతలు
గుర్తించ@@
సమావేశ@@
ప్రపంచ
వీడియో@@
ప్రచారం
ంటే
జాగ్రత్త@@
సి
మహిళ@@
రి
చి@@
కా
రే@@
రాజ@@
కుటుంబ
ాల
చేసే@@
ధర
కంపెనీ
ంచి
కాలం
అడుగు@@
సైతం
గంటల
ప్@@
జరుగు@@
కోట్లు
అయ్య@@
పాత్ర
చేయడం@@
తాము
ఉండాలి@@
విషయాన్ని
ద్@@
స్పష్టం
కలిగి@@
ప్రముఖ
కార్యక్రమాల@@
ఎస్@@
పరిస్థితుల@@
ల్@@
చేర@@
అవి
ో@@
ించింది@@
చేపట్ట@@
టం
కో
పిల్లల@@
మె@@
ఎం@@
కున్న
య్య@@
పల్లి
ఎన్@@
తయారు
సాధారణ@@
ఇచ్చారు@@
క్రమంలో
దగ్గర
తమ@@
ాలంటే
ట్@@
గొప్ప
ఎమ్మెల్యే@@
మై@@
అన్న@@
కోవాలని
విజయం
ట్
వైసీపీ
అధికారుల@@
వీడియో
ులు@@
ఏక@@
దానిని
తీవ్ర@@
తీసుకున్న@@
సారి
కేంద్ర@@
మాట్లాడుతూ@@
మార@@
డం@@
సాధారణ
ఘటన@@
చేస్తే
శారు@@
తోనే
అంద@@
అన్న
నన్ను
కారణం
వెళ్లి
ందరికీ
మై
ంత
మూవీ
ప్రేక్షకుల@@
మందు@@
తూ
వేయ@@
ఆరోపి@@
తుందని
పరి@@
కథ
డాక్టర్
పట్ల
విచారణ
పడి@@
స్తున్నాయి@@
తీసుకో@@
స్థానిక
కల@@
జ్@@
జరగ@@
ఉంటే@@
ఆరోగ్య
వచ్చే@@
పెట్టి
అధిక
జీ@@
ఇంట్లో
స్తుందని
ఒకటి
చూసి
జారీ
తండ్రి
చేస్తున్నా@@
రో
సూపర్
వ్యతిరేక@@
కేంద్రం@@
సంఖ్య
అంత
అంతా
భావ@@
దర్శకుడు
ఉంది
కీ@@
తల్లి
దే
రైతుల@@
డీ@@
టీ
నూ@@
కొండ@@
తోపాటు
టీఆర్ఎస్
పెరుగు@@
సభ్యులు
మాట
దీని@@
అలాంటి
సినిమాల@@
డబ్బు@@
సమస్యల@@
సోమవారం
ప్రజా@@
ాల్సి
ించే
మరోసారి
సాధించ@@
ఉండే@@
ఉత్పత్తి
శివ@@
న్న@@
అండ్
స్వామి
క్
కుంటే
హీరోయిన్
ుల
అవసరం@@
ింది@@
అందరూ
అర్థం
ంత@@
యో@@
పోలీసుల@@
అభిప్రాయ@@
దగ్గర@@
ములు@@
దాన్ని
అమెరికా
చిన్న@@
ఎందుకంటే
అని@@
శుక్రవారం
బా@@
య్యాయి@@
ణ@@
ఒకే
విజయ@@
మారు@@
శ్@@
కోవాలి@@
ఏదో
మ
అయిన@@
పోయారు@@
చేత
బీ@@
కనిపించ@@
రామ@@
న్నీ
తప్పు@@
తగ్గి@@
సహా
వాటి@@
కునే
భార్య
కూడ
ఉద్యోగుల@@
రామ్
ముగ
బీజేపీ@@
ారని@@
వున్న@@
ఎన్టీఆర్
నిర్మించ@@
కోవడానికి
పడుతుంది@@
గురువారం
సో@@
ాం@@
ష@@
ఇవి
దేవ@@
సమస్యలు
వాడు
సీనియర్
నీరు
పెంచు@@
ఏళ్ల
అవుతుంది@@
వీరి@@
సుమారు
కొ@@
చేసేందుకు
వైరల్
రోజులు
ధర్మ@@
సంవత్సరం
ఒ@@
దాని@@
లె@@
కార్యదర్శి
వైరస్
చేస్తా@@
ఐదు
భూ@@
బాధ@@
తీ@@
ఇంటి
నటించిన
బట్టి
ింప@@
ించి@@
చెయ్య@@
వ్యక్తి@@
చేసిన@@
దు
చివరి
వస్తుంది@@
శాఖ@@
ప్రభావం
అందుబాటులో
త్
ఎన్నిక@@
ఇచ్చి@@
భార్య@@
ఇందు@@
ర
జరుగుతు@@
కాల@@
మంగళవారం
కారు
గారి
భూమి@@
సమస్య
బడింది@@
రకాల
వెళ్ళ@@
నేత
నున్న
వేసి
గ్@@
బుధవారం
స్వ@@
నిలిచి@@
జా@@
జన@@
షూటింగ్
ప్రకటన@@
చేసు@@
ప్రాంతంలో
వ్యవస్థ@@
వైద్య
బాల@@
ఇబ్బందుల@@
ఢిల్లీ
త్వరలో
ఆదివారం
రీ
పరుగు@@
యీ
రాజ్
స్వామి@@
కుంటూ
చేస్తారు@@
పోలీస్
డైరెక్టర్
పోటీ@@
డె@@
నిర్ణయ@@
చెప్పిన
స్థాయి
రోజుల్లో
మందికి
గౌరవ@@
వాటి
యందు
ఫిర్యాదు
దృష్టి
పడ@@
ఎక్కడ@@
మ్మ@@
ూ@@
స్థానంలో
రె@@
ప్పుడు@@
బాబు@@
చేయవచ్చు@@
పూజ@@
వద్ద@@
గంటల@@
వివాహ@@
కనీసం
ప్రాంతాల@@
స్తామని
నె@@
కారు@@
కపోతే
మ్యాచ్@@
జరిగి@@
వ్యక్తుల@@
ఉంటా@@
రూప@@
ంతా
కమిటీ
కోర్టు
నీవు
హిట్
నాడు
పంప@@
మరోవైపు
సినీ
చిత్ర
శనివారం
క్రితం
వు
ఉన్నాయ@@
చ
ఎంపీ
ాయని
మార్పు@@
స్తున్న
దీనిని
బాలీవుడ్
మని@@
ిస్తూ
ఆందోళన
పేర్కొ@@
ఆయా
ిస్తారు@@
కంపెనీ@@
భ@@
మాట@@
విద్యుత్
నీటి
యో
ఇప్పటి
రాహుల్
నది@@
బ్ర@@
లెక్క@@
వీర@@
ఆనంద@@
ప్రధాన@@
అసెంబ్లీ
ముందే
గి@@
కున్నారు@@
చంద్ర@@
రెండు@@
వాళ్లు
ముల
ప్రాంతాల్లో
సమస్య@@
ఆంధ్రప్రదేశ్
పట్టు@@
తున్న
ఖర్చు
తను
ఎవరి@@
పడి
వారం
అంశాల@@
స్తున్న@@
దీనిపై
ఇం@@
దాడి
కాస్త
మంది@@
దర్శకత్వం@@
విద్య@@
మహిళా
ల్లో@@
ఈరోజు
మహేష్
ఆత్మ@@
వ్వ@@
సాగు@@
కోర్టు@@
దేశం
ఎంపిక
అద్భుతమైన
ీ@@
ఆడ@@
యె@@
చర్చ@@
అందరి@@
త్రి@@
ఎవరు
ఏమి
ఉంటారు@@
సరైన
సంతోష@@
డే
మోదీ
మూ@@
ఉంచ@@
ఉంటుందని
సంవత్సరాల
ీ
ట్లు@@
పాల@@
స
కళ్యాణ్
విన@@
చు
వేదిక@@
రైతు
ఏదైనా
ామని
సమావేశంలో
పనుల@@
పి
అతడు
న్యూస్
వచ్చాయి@@
ందో
స్పందించ@@
ఘటన
బడిన
ప్రయత్నం
ఉత్పత్తుల@@
జిల్లా@@
మండి@@
మార్చి
ప్రకారం@@
కదా@@
ప్రమాదం
భర్త
పెట్టు@@
గురు@@
చెల్లించ@@
మో
సూర్య@@
పట్ట@@
డబ్బు
ప్రభుత్వం@@
కోట్ల@@
సామాజిక
సిబ్బంది
పోస్ట్
అధికార
అయింది@@
త్వ@@
జ్
మంచి@@
మగు
ఎల్@@
వార్తలు
స్య
గుర్తు@@
తల్లిదండ్రుల@@
దీన్ని
జె@@
భావిస్తున్న@@
వెళ్లి@@
కట్ట@@
చి
సాయంత్రం
అధికారం@@
ఆరు
వాళ్ళ@@
చిత్రంలో
జీవ@@
తాజా
తరలించ@@
పర@@
భారీగా
వైఎస్
స్నేహితు@@
అను
పిల్లలు
అమెరికా@@
తప్ప
మద్దతు
మంత్రి@@
సీ
పీ@@
చూపించ@@
అవకాశాలు
అక్కడి
నకు
మండలం
మీద@@
వంటి@@
విజయ్
తగిన
చోటు
శక్తి@@
మెంట్
కావ@@
ఉదాహరణ@@
కొనసాగు@@
జీ
గాంధీ
వివరాలు
లేదని@@
వలె
పెంచ@@
జరిగే
వాళ్ల@@
డే@@
తమకు
ొచ్చు@@
చైర్మన్
ఇంత
యని
జ్ఞాన@@
సంబంధం
ఆదేశ@@
మి
కొన@@
తర్వాత@@
డంతో
లీ@@
వాడ@@
ుఁడు@@
ప్రేమ
తదితరులు
కార్యక్రమ@@
మ్యాచ్
చైనా
రాయ@@
పలువురు
చిత్రాన్ని
వరుస@@
ాడని
రద్దు
పరిస్థితి@@
అనుకూల@@
ఆకట్టు@@
కుమార్@@
కల్పించ@@
వెనుక
హరి@@
మందు
అంతర్జాతీయ
ప్రారంభం
కం@@
గుర్తు
ప్లాన్
భర్త@@
అయ్యి@@
పడింది@@
సంఘం
నది
ించిన@@
పాఠశాల@@
ళ్ళు
లను@@
ప్రాణాల@@
అభివృద్ధి@@
సరి@@
ప్రకటించి@@
పాటు@@
చేసుకున్న
హా@@
సొంత
వ్యవసాయ
ఆలోచన@@
చేత@@
చదువు@@
ఇండియా@@
గారు@@
బాధ్యత@@
పది
సత్య@@
తా
ించడం
మండల
టం@@
దో
అతి
ుల@@
ఆధారంగా
సొంత@@
వర్@@
అందుకు
తె@@
తెలిసి@@
ధ@@
నాటి
కలెక్టర్
ఆర్
వారిలో
ముఖ్యమైన
వస్తే
అధిక@@
కార్@@
దాంతో
మార్కెట్
జయ@@
ఆధ్వర్యంలో
వ్యాఖ్యాన@@
ఒకటి@@
స్తుంది
భూమి
పూర్వ@@
వహించ@@
దో@@
మిగిలిన
ెను@@
జట్టు
ఆరోగ్య@@
శా@@
టాలీవుడ్
చేస్తోంది@@
సు
అవుతున్న@@
ఎప్పుడూ
ంచ@@
లీ
ఆశ్చర్య@@
పోయి
మృతి
కాబట్టి@@
తేదీ
కష్ట@@
మళ్ళీ
సభ్యుల@@
డమే
ాలని@@
మార్@@
వ్యవస్థ
ఎంత@@
ఎవరూ
ప్రాణ@@
రోడ్డు
ప్రస్తుత
గూడ
కొద్ది@@
విద్యా@@
య్య
బాధ్యత
కై
ద
బ్@@
కొని@@
రాష్ట్రాల@@
అవసరమైన
వే
వచ్చారు@@
మోడీ
సమ@@
వినియోగదారు@@
అధికారి@@
ాల్లో
కృష్ణ
జీవితం
రైల్వే
చేయండి@@
డానికి@@
ఆరోపణ@@
ఏప్రిల్
వె@@
పరిచయం
చా@@
షేర్
ప
పాత
పోయిన
ించే@@
జూన్
లక్ష్యం@@
చేసుకుంది@@
బిగ్
వున్న
ైన
స్త్రీ@@
వచ్చు
తు
ుని@@
బడుతుంది@@
కృషి
టు
మార్చ@@
టు@@
రూపొందించ@@
చూ@@
అడ్డు@@
ాలన్నారు@@
దర్యాప్తు
నెలల
నటించ@@
ఎస్
దిశ@@
ప్రకటన
విషయ@@
చూప@@
రాజధాని
నిద్ర@@
దా
జన్మ@@
చెప్పి
వ్@@
ళ@@
నిర్వహి@@
చున్నది@@
ఎన్నికల@@
ప్రజా
కింగ్
దారుణ@@
కాదని
పిల్లల
ఎన్ని
కలుగు@@
సే@@
స్వయం@@
అదే@@
కనుక
జనవరి
ఏర్పాట్ల@@
పోలీసు
ఏళ్ల@@
సె@@
తీసుకున్న
ందని@@
జే@@
ాన్ని@@
సేవ@@
నిర్మాణం
ందన్నారు@@
ఖచ్చిత@@
నారాయణ@@
కలిపి
నున్నట్లు
చివర@@
షా@@
అమ్మ@@
ప్పటికీ@@
పద@@
పరిశ్రమ@@
కన్నా
గొప్ప@@
ించాడు@@
లేక@@
పాట@@
రూపంలో
రెండవ
చివరి@@
ఫోటో@@
వర@@
ాలి
నిర్వహించిన
తీరు@@
వుంది@@
బ్లాక్
కూ
ప్ప@@
దేశంలో@@
యం
కలిగిన
లకు@@
దూరం
పోయాడు@@
సృష్టించ@@
విశ్వ@@
అప్పుడ@@
కూడా@@
నేతల@@
భయ@@
వివరాల@@
జరుగుతున్న
కుటుంబ@@
జీవిత@@
ప్రయత్నించ@@
యూ@@
నప్పుడు
అదనపు
వో@@
జీవితంలో
అన్నీ
చుట్టూ
కార్యక్రమం
కూ@@
గీ@@
అప్పటి@@
కావడంతో
దూరంగా
కావడం
కుల@@
చిరంజీవి
గుర్తింపు
చరిత్ర
వెలుగు@@
బడ్జెట్
జరుగుతున్న@@
విచారణ@@
ఎక్కడ
హత్య
పోయాయి@@
భారతీయ
పవర్
త్వరలో@@
హైకోర్టు
కాని@@
మొత్తం@@
రావడం
ముగ్గురు
మాటలు
ఆసక్తి
ఉద్యోగాల@@
ట్వీట్
చిత్రం@@
బు@@
వెళ్ళి@@
ఉన్నట్లు
తల్లి@@
ఇండస్ట్రీ@@
భా@@
పుడు
అతనికి
ప్రయోజన@@
రాష్ట్రం
ప్రక్రియ@@
లేవు@@
వస్తున్న
సమాధానం
చంద్రబాబు@@
లేని@@
తిన@@
సమయ@@
కన@@
గుణ@@
సహాయం
బరి@@
మొత్త@@
నిర్ణయించ@@
ఇచ్చ@@
మనసు@@
అభ్యర్థుల@@
ఫొటో@@
రాజకీయ@@
ఎటువంటి
నూతన
ముఖ్య
నమ్మ@@
పెట్టారు@@
బ్యాంక్
మరి@@
తూ@@
చెప్పిన@@
పర్@@
షో@@
మును@@
ఉత్తమ
నటి@@
అయి@@
అవగాహన
బే@@
చేసినట్లు
ప్రారంభ@@
కూడిన
లైన
క్రికెట్
ఏమీ
కోసం@@
ప్రభావ@@
ారా@@
ఉంచు@@
రాజకీయాల@@
కునేందుకు
పే@@
దీ@@
క్ష@@
జిల్లాలో@@
పరిశీలించ@@
పెట్టిన
ారట@@
డీ
వేశారు@@
పరంగా
యీ@@
సహాయ@@
అంచనా
రోజూ
విలువ
మూడో
చేరి@@
ాలకు
గ్రామంలో
పరీక్ష
అంచనా@@
ుఁ
ఆదేశాల@@
మూ
పొందు@@
వచ్చును@@
ప్రాజెక్టు@@
ఎప్పుడు
హెచ్చరి@@
రక్షణ
పె@@
జరుపు@@
నాటికి
తేదీన
మత@@
త్వరగా
ఆసుపత్రి@@
విషయం@@
పథకాల@@
వాహనాల@@
చూస్తే
ప్రక్రియ
వలసిన
ప్రసాద్
ప్రకాశ@@
కుంటారు@@
వ్యాధి
చదవండి@@
ళ్ళ@@
పరిష్కరించ@@
మహిళల@@
వ్యక్తిగత
అందజే@@
సిద్ధంగా
కర్మ@@
లేరు@@
మహిళ
కర@@
జు@@
పంపిణీ
లైన్
పాల్గొన@@
మరొక
స్థిర@@
కొద్ది
మైంది@@
నష్టం
ాలను@@
నేరుగా
ాల@@
ఇన్@@
వై
మ్మ
కూడదు@@
గ్రామ
ఫోన్@@
వీ
త్వం
ఉంటుంది
కుంటున్నారు@@
ఎత్తున
శ్రీనివాస్
అప్పటి
ఆప@@
ానికి@@
చేసుకుని
ుడైన
వీరి
చరిత్ర@@
చూపు@@
మహా
విద్యా
మన్నారు@@
ఉప@@
హాట్
ఇంత@@
కేసీఆర్@@
ఱ@@
మవుతుంది@@
వినిపి@@
భారత్@@
నాగ@@
అంతే
తొలగించ@@
న్నాయి@@
మొదలు
ఉప
బ్యాంకు@@
ప్రేక్షకుల
మెగా
గమనించ@@
మరీ
తరచుగా
నిర్మాణ
బరువు
భాష@@
ప్రా@@
తరువాత@@
నుంచే
హామీ
ప్రయత్నా@@
మూల@@
వ్య@@
ఉత్తర
తదితర
ఆస్పత్రి@@
స్తారని
ఏర్పాటు@@
భావించ@@
రంగ@@
అరెస్టు
వ్యాపార
నిర్మాణ@@
పాలు
వాళ్ళు
మూవీ@@
అధినేత
చీఫ్
ిన
వేగంగా
ముఖ@@
నిపుణులు
శరీర@@
విశేషం@@
పోతుంది@@
యం@@
ప్రభాస్
ఇది@@
అరెస్ట్
సర్@@
సిరీస్
కేటీఆర్
అటు
కవి
చెప్పింది@@
తీయ@@
సంబంధిత
పథకం
మొక్క@@
అతని@@
కాంగ్రెస్@@
స్తే@@
అవ్వ@@
శుభ్ర@@
ఎవరైనా
ఇండియన్
తండ్రి@@
ఘ@@
తెలుగుదేశం
జనసేన
తీసుకుంటా@@
లక్షణాలు
సంక్షేమ
పాటి
అధికారి
విధానం
వీరు
చర్చ
స్టేషన్
వచ్చి@@
టో@@
వేడుక@@
ారన్నారు@@
వేసిన
ఉండటం
టాప్
కొంతమంది
ఖాన్
కైనా
ప్రమాణ@@
డో@@
కార్యాలయం@@
ఇటువంటి
దె@@
ఇబ్బంది
ె@@
రంగంలో
మొదట
డిసెంబర్
బడి
స్య@@
లి
భాగం
దీ
మాటల@@
బె@@
టా@@
షా
చల్ల@@
రే
పల్లి@@
ఫస్ట్
దేశాల@@
తగ్గ@@
షాక్
నం
త్త@@
అవసర@@
అంటారు@@
స్తూ@@
వో
రని
న్నారు@@
సిబ్బంది@@
జగన్@@
మోహన్
ములను
పాటించ@@
ంటి@@
గవర్నర్
ఁడు
లూ@@
తెలుసా@@
మానవ
వేరే
జరిగిన@@
నష్ట@@
చారు@@
ఉమ్మడి
రైతుల
కర్@@
కుటుంబాల@@
అందిస్తున్న@@
నటుడు
చని@@
హి@@
వాయిదా
మిగతా
కారణ@@
నువ్వు
ఆందోళన@@
పడు@@
చూస్తున్న@@
అన్నాడు@@
సమీక్ష@@
చె@@
తుంది
ఇళ్ల@@
తేలి@@
శిక్షణ
నరేంద్ర
దరఖాస్తు
నని@@
పరిధిలో
బాస్
మార్పు
శి@@
కుటుంబం
వార@@
ఎదురు@@
నగర్
పొ@@
సమయంలో@@
ఏపీలో
అనుమతి
నెల@@
లేఖ@@
ప్రాజెక్టు
వాని@@
సభ
చోట్ల
పడుతున్నారు@@
టీడీపీ@@
ప్రాంత@@
అటువంటి
రాశి
నుండి@@
సంఖ్యలో
ంచు@@
ాల్సిందే@@
చేస్తామని
అల్లు
మొ@@
మాన@@
ప్రదర్శించ@@
యోగ@@
మొబైల్
చోట
బయట
బోధ@@
సందర్భా@@
సుఖ@@
యి
దాకా
సెప్టెంబర్
మధ్యాహ్న@@
తున్నాయి@@
తగ్గు@@
సాంకేతిక
ఖర్చు@@
తున్న@@
రూపాయల
చరణ్
చూసిన
యందు@@
ఈసారి
మంద@@
ంబున
ప్రయాణ@@
తెరకెక్కి@@
నిజానికి
రవాణా
మార్గం
వాస్తవ@@
కోవిడ్
ాలనే
యాక్షన్
దెబ్బ@@
తల
సంవత్సరా@@
ఫుల్
అంటే@@
రంగు
పరిధిలో@@
గోదావరి
నాయుడు
వుండ@@
సూ@@
పక్కన
చో
సంస్థల
నైనా
ఉండటం@@
ఆలస్య@@
ంటే@@
ఫిబ్రవరి
ఆరోగ్యం@@
పాప@@
భిన్న@@
గాక
మను@@
ఫలితాలు
అండ@@
కవి@@
ఇచ్చి
వని
ఇదే@@
సేవలు
ించాలని
సమావేశాల@@
పొందిన
పోయే
ఫ@@
ఒకసారి
రూపాయలు
స్ట్
మంచిది@@
కం
రాష్ట్రంలో@@
కార్య@@
కాల
పోవడంతో
ప్రణాళిక@@
స్తు@@
ద్వారా@@
అతి@@
రేవంత్
కోవడం@@
అనుమతి@@
నవ@@
దశ@@
కోట@@
ష్ట@@
దేవి
మాయ@@
యుద్ధ@@
దారి
స్త్రీ
గాలి@@
డా
అతడి@@
దర్శకత్వం
ఎంపిక@@
చేతిలో
చేశారని
మద్యం
ముఖ్యమంత్రి@@
అక్టోబర్
నిధులు
చేపట్టిన
చట్టం
గు
ఆలోచించ@@
రాష్ట్రాల్లో
ఆర్థిక@@
సా
చేతి@@
ఏమిటి@@
చేసారు@@
మున@@
ముంబై@@
సాయం
సాధన@@
రష్యా
కొడుకు
కార్యకర్త@@
మరణించ@@
బలం@@
ఒకరు
స్తా@@
పుణ్య@@
ష్@@
ప్రైవేట్
పన్ను
క్రమంలో@@
ముల@@
సక్సెస్
శరీరం
లక్షలు
స్థానం
ఉన్నత
కాక
డని
రోజులుగా
తీసి@@
బ్యాంకు
త్య@@
య్యారు@@
చాలామంది
స్త@@
మున్సిపల్
ఆలోచన
సన్
సీజన్
షో
రైలు
నెలకొ@@
అర్జున్
పంట@@
పాట
నిర్మాత
అంగీకరించ@@
చేస్తూ@@
తీసుకొని
బిజెపి
ిస్తే
ఫి@@
దేశవ్యాప్త@@
నిజంగా
వస్తువు@@
కున్న@@
తరగతి
చిత్రాల@@
ళ్లు
ఫ్యాన్స్
మార్కెట్లో
కేటాయించ@@
మనిషి
ప్రాజెక్ట్
జట్టు@@
ఎఫ్@@
న్ని
విడి@@
ఖ@@
ఒత్తిడి
తత్@@
సాధించి@@
ప్రమాదం@@
ంచి@@
అర్థ@@
ఎమ్మెల్సీ
ఆగస్టు
మునందు
కెప్టెన్
పాలన@@
స్తుంటారు@@
చోటుచేసు@@
బాగు@@
వైద్య@@
హై@@
రాజీనామా
రాదు@@
కొండ
జీవిత
చూడాలి@@
పాన్
ఇచ్చే@@
ఇతరుల@@
టైటిల్
లూ
ఉన్నా
వరుస
విధి@@
నియోజకవర్గం@@
భవ@@
దశలో
అమలు@@
౦@@
వర్గాలు
చట్ట@@
ఆసక్తికర@@
వ్యక్త@@
రోజుల@@
అందుబాటులో@@
చెప్పే@@
స్మార్ట్
రాం@@
చూసు@@
మైనది@@
నిర్@@
మానసిక
వచ్చని
సర్వే
కొట్ట@@
న్యాయ@@
సరఫరా
అధ్యక్ష@@
సభలో
జల@@
సాయి@@
పుట్టిన
టాక్
కావాలని
సం
దక్షిణ
చేశారు
వృత్తి@@
కుమారుడు
స్వరూప@@
వ్యా@@
సార@@
వాని
కట్టు@@
అతడి
సాయి
హత్య@@
తప్పు
తున్నారు@@
తేదీ@@
నల్ల@@
ఏడు
హీరోయిన్@@
సంచలన
అనే@@
వెబ్
ందా@@
చైనా@@
ప్రశంస@@
జో@@
రోడ్డు@@
ఆంధ్ర@@
లై
లై@@
నెలలో
యొక్క@@
తమిళ
మూర్తి
స్తోందని
పూర్
ఆగ్రహం
వ్యవహరించ@@
కదా
వచ్చా@@
సినిమాల్లో
ఆది@@
దేవి@@
మాత్రమే@@
సాధ్య@@
బోర్డు
హెచ్@@
రాలేదు@@
వలసి
ఒక్క@@
నాణ్యత
అనుకున్న@@
ఆధునిక
సంస్థల@@
కొనసాగి@@
ఎంట్రీ
డో
సై@@
చెంద@@
నాయకుడు
వేడి
వ్
స్పెషల్
విడుదల@@
నై
సంఘటన@@
వచ్చింద@@
చక్క@@
కానుంది@@
ఇచ్చే
పంట
మంతా
రాష్ట్రాల
కావున
ఐ
ఐటీ
వేద@@
తీవ్రమైన
సేవల@@
లేదన్నారు@@
చేరుకున్న@@
అది@@
సాధించిన
పిల్ల@@
ఎల్
సింగ్@@
వర్గాల
వేళ
ఎవరో
లేకపోతే
ంప@@
ముగ@@
డౌన్
తీసుకోవడం
నిన్న
జుట్టు
విష్ణు@@
భక్తి@@
ఎత్తు@@
లభిస్తుంద@@
సన్@@
పర్యటన@@
నేషనల్
నై@@
ఊహించ@@
ప్
వలెను@@
లాక్
ఒకవేళ
విని
ామన్నారు@@
రం@@
ఎంచు@@
పాజిటివ్
విశాఖ
పూ@@
ాయి
శంకర్
బండి
ప్రాథమిక
ఒకరి@@
పడిన
జనరల్
పెట్టుబడుల@@
వెంకట@@
అమ్మాయి@@
కామ@@
చ్ఛ@@
చొప్పున
మనస్సు@@
వందల
టే@@
ఏర్పడి@@
కురు@@
శర్మ
కెరీర్
రస@@
సంవత్సరాల@@
స్ట్@@
బడి@@
పురుష@@
రాజా@@
బడ@@
నిన్ను
నిర్ణయాల@@
పోయి@@
వైద్యులు
రికార్డు
వసూలు
వరల్డ్
పరిస్థితుల్లో
గలదు@@
వికెట్@@
నటి
చెప్పి@@
నాయకుల@@
దుర్@@
భవిష్యత్తు@@
స్థానికుల@@
దివ్య@@
బృందం
పత్రిక@@
సరిగ్గా
తగ్గించ@@
ఆదాయం
సమాచార@@
తెరకెక్క@@
ప్రసాద@@
శాడు@@
పుష్ప@@
స్తాడు@@
సృష్టి@@
అడిగా@@
భి@@
రవి@@
సిద్ధాంత@@
టప్పుడు
బిడ్డ@@
క్రింద
పంచ@@
వర్షం
తీర@@
పాద@@
సెట్
కుల
వేలు
ఫలితంగా
స్థితి@@
పోయిన@@
ప్రకృతి
నవంబర్
స్పష్టంగా
చర్యల@@
కల
్య@@
ఫ్@@
దేశాల
పుట్ట@@
కొనసాగించ@@
మెడికల్
యాత్ర@@
కోరు@@
ఉపాధి
ప్రతినిధుల@@
ఎంపీ@@
ఇవ్వడం
బిల్లు@@
కుటుంబం@@
హో@@
కాక@@
ఆట@@
జాతీయ@@
ఆహారం
నేటి
కొంచెం
విలువ@@
పట్టించుకో@@
తీసుకెళ్ల@@
ఎయిర్
ఎదురు
యువ
గ్రామాల@@
విదేశీ
మరిన్ని
ులకు
ఉపాధ్యాయు@@
సంఘటన
కోవచ్చు@@
గమనార్హ@@
లేదా@@
భక్తులు
మొదలైన
గానీ
చేతులు
డిజిటల్
జనం
ఉండి
ఫల@@
రావడంతో
రం
లింగ్
దాఖలు
ప్రియ@@
ప్రపంచంలో
నిలిచా@@
పతి@@
దైవ@@
ింగ్
వారితో
అనిపి@@
యూనిట్
న్యాయం
తెలుసుకో@@
సీఎం@@
సంజయ్
ఆన్లైన్
వయసు@@
సేవ
ధా@@
థ@@
అంటు@@
ైనా
తాడు@@
కొన్ని@@
ప్రదర్శన@@
హోటల్
యై
తదుపరి
పరమైన
అందమైన
ఉద్యోగం
శాతం@@
విషయము@@
గుండె
చెబుతా@@
అవ@@
దురు@@
ఆగ@@
చేయు@@
పెడుతున్న@@
విధానం@@
అనుగుణంగా
భక్తి
ఇవాళ
కాపాడు@@
బడతాయి@@
ఒక్కో
విధానాల@@
ఇదిలా
ఆసక్తి@@
కాలేదు@@
ఆంధ్ర
మృతి@@
వెంట
అన్నా@@
బీ
సేవల
ఉచిత
యుద్ధం
బీఆర్ఎస్
ేశ్వర@@
ందుకు@@
నిర్వహిస్తున్న@@
దన@@
బై@@
చేసింది
కార్యకలాపాల@@
అమ్మాయి
లోపల
అధికార@@
ప్రమాద@@
లైంగిక
సరిపో@@
కిలోమీటర్ల
గలరు@@
సంగీతం
తక్కువగా
ప్రసంగ@@
మార్గ@@
వర్మ
ఇటీవల@@
మండలంలో@@
సమర్పించ@@
టీమిండియా
రేటు
ించు
మాట్లాడు@@
చెప్పాలి@@
ించడం@@
అత్యధిక
బస్సు@@
లక్ష్య@@
వంతమైన
షన్
సే
గే@@
రాక@@
లోక@@
ట్టు@@
వెళ్లిన
గిరి
బుద్ధి@@
పదవి
గూర్చి
నీటిని
త్ర@@
మరొక@@
నున్న@@
బాధితుల@@
ఆహార
అవసరాల@@
చికిత్స@@
అక్కడే
రాజ్@@
ట్విట్టర్
సిద్ద@@
ాలంటూ
అభి@@
యున్నది@@
మూర్తి@@
లైఫ్
లేకపోవడం@@
తం
ఆహారం@@
అనుకో@@
షి@@
వెల్@@
అక్కడి@@
కళా@@
కున్నాడు@@
కళాశాల@@
ంబున@@
ళ్ల@@
భ
జూలై
ప్రభావిత@@
శ్రమ@@
ుండు
ఇద్దరూ
పాఠశాల
గూడ@@
లేకుండా@@
కాయ@@
మంజూరు
లక్షణ@@
ార్థ@@
మనో@@
తోందని
ఇన్
ఖండ@@
కారణం@@
స్టార్@@
జాతి
నిందితు@@
హ్@@
న్యూఢిల్లీ@@
బట్ట@@
గాలి
ప్రో@@
అధ్యక్షుల@@
చర్చించ@@
నగర@@
కావచ్చు@@
ఆరోగ్యం
టిడిపి
పెళ్లి@@
ఫలితాల@@
నిజ@@
బంగారు
సింది@@
ంటారు@@
త్వా@@
సిరీస్@@
కుంటుంది@@
దని@@
డంలో
కర
హౌస్
నిత్య@@
భక్తుల@@
సర్వే@@
తప్పనిసరి@@
పశ్చిమ
అందరి
టీవీ
మాస్
కృత@@
మొదలై@@
వంతంగా
పెట్టుకున్న@@
ాము@@
ఒక్కసారి@@
దంపతుల@@
ఏపీ@@
ఇక్కడ@@
చాలా@@
ప్రతీ
నగరంలో
శిక్ష@@
జి
దూర@@
అదృష్ట@@
పడే
కృష్ణా@@
గురు
గిరి@@
నటిస్తున్న@@
తెలిసిన
కుంటున్న
లేఖ
పనిచేయ@@
విడుదలైన
తెలియని
మరణ@@
మౌ@@
తీసుకుంటున్న@@
ప్రపంచంలో@@
నిర్వహణ@@
వాద@@
సమంత
నలుగురు
సీజన్@@
ఎక్స్@@
హిందూ
ఉత్తర్వు@@
ఓపెన్
అదుపులో@@
నోటీసు@@
మానవ@@
ఖాయ@@
చెప్పడం
తెలిపా@@
పూర్తి@@
విపరీత@@
అనుకుంటున్న@@
వేసింది@@
ఆర్టీసీ
యను@@
డేటా
ాత్మ@@
మార్చు@@
సాగు
వర్షాలు
దిశగా
పక్క@@
వేరు@@
గుజరాత్@@
వాటికి
ానని
భారతదేశ@@
అద్భుతం@@
వడ్డీ
కామెంట్స్
హిత@@
బంధ@@
గ్రీన్
్లో@@
చింత@@
తెలియదు@@
రాజ్య@@
విద్య
ఇటు
ంటి
ంచే
కొట్టి@@
రంగంలో@@
రాసిన
కపోవడం@@
ఇంటర్నేషనల్
వాళ్ల
గడ్డ@@
సెక్స్
చూడండి@@
చేసినా
నీటి@@
జాతి@@
ధార@@
ఓటు
పేట
ాది
రోహిత్
ప్రస్తావి@@
వెనక్కి
ఁడు@@
ఉండేది@@
లోపు
సరికి
పోలీసుల
ఎందు@@
నిబంధన@@
సృష్టించి@@
ఆత్మహత్య@@
గ్ర@@
ాలతో
క్యా@@
డాన్ని
ఇచ్చిన@@
నిమిత్త@@
గట్టిగా
ఇక@@
ఫా@@
నివేదిక
ఇల్లు
దానిపై
మొదటి@@
మగు@@
సమీపంలో
ఘన@@
అందువల్ల
శ్చ@@
పరిణామాల@@
అమ్మ
పోరాటం
అప్పట్లో
సందర్భంలో
వీటి
బ్యాక్
యుక్త@@
ంగ్
ఆహార@@
ఆలయ
యుండ@@
మాత్ర@@
స్థాన@@
తెచ్చు@@
పాటి@@
రణ@@
మనము
కమిషనర్
టువంటి
చూశా@@
ధి@@
గత@@
పార్టీల
థా@@
వ్యాక్సిన్
స్వాధీనం
బిజీగా
వస్తున్న@@
ించడానికి
వాతావరణం
లుక్
లక్ష్మి
విజయవాడ@@
నిరసన
కనిపించే
ఐపీఎల్
మంచు
సులభంగా
ఉందని@@
ఏది
రూ
తేడా@@
కోట్లు@@
వలయును@@
క్రీడ@@
కె
నాథ్
రేపు
సూచి@@
విధించ@@
ఁగ@@
కమిటీ@@
రికార్డు@@
ండు@@
తెల్ల@@
దయ@@
ణ
వీలు@@
మద్దతు@@
టికెట్
కనిపించి@@
మహిళల
టర్
ప్రాంతం
ులను
నం@@
మూడు@@
ముంబై
కూతురు
నిమిషాల@@
గురి@@
కై@@
పార్టీల@@
టార్గెట్
విలువైన
సాక్షి@@
ఆధారపడి
మన్@@
స్తానని
యున్న
వలె@@
తెర@@
సహ@@
పెట్టి@@
రెడీ
దుస్తుల@@
ఎల్లప్పుడూ
సత్@@
నట్టు
వస్తోంది@@
సంఖ్య@@
గాంధీ@@
నగర
స్తాయని
బుక్
ఎస్పీ
మత
క్రింది
గో
యంగ్
పరికరాల@@
వార్త
ఱు@@
అధికారులు@@
పరిష్కారం
ప్రవేశ@@
ాభి@@
పిలు@@
ుఁడ@@
శ్రీనివాస్@@
ముఖం
దేహ@@
ందట@@
ఢిల్లీలో
జిల్లాల్లో
మిమ్మల్ని
ప్రచార@@
ట్టి
భూత@@
చైతన్య@@
ఎదుర్కొ@@
మణి@@
శ
ఇతి
సమాజం@@
నైపుణ్య@@
శివ
సంగీత
పారి@@
పేట@@
గృహ@@
ట్రాఫిక్
తిరుగు@@
కునే@@
నేత@@
సందర్శించ@@
ప్రైవేటు
జూనియర్
అమరావతి
చెరువు@@
నటిస్తున్న
సోమ@@
ఏడాది@@
చ్చ@@
తయారీ
భూముల@@
జాగ్రత్త
స్నేహ@@
ఉత్పత్తి@@
గురించి@@
ురాలు
బి
కనిపిస్తున్న@@
అలా@@
శుభ@@
కోసమే
నిత్యం
అభ్యర్థి@@
ంచెను@@
పెట్టింది@@
భర్తీ
హైకోర్టు@@
అమరావతి@@
నందు@@
వైసీపీ@@
బూ@@
ఎనిమిది
ఘనంగా
అలాగే@@
భావము@@
ఆవేదన
సద్@@
కలిసి@@
దశ
ఆత్మహత్య
గె@@
సరే
కపోవడం
బహిరంగ
విషయమై
బంగారం
కప్
మయిన
పంపించ@@
పండ@@
నిర్మించిన
సరికొత్త
ిద్దరూ
చూసే@@
శర్మ@@
వరద
ల్ని
పద్మ@@
సేపు
యాప్
లక్ష
సరిగా
పోవడం
లతో@@
అసెంబ్లీ@@
హు@@
ఉండవచ్చు@@
సినిమాల
యము@@
అక్రమ
గలుగు@@
అవుతా@@
టీమ్
విభాగం@@
శాంతి
శేష@@
జంట@@
కావ్య@@
నిజం
తరఫున
పడే@@
గర్వ@@
ంచిన
డ
మహారాష్ట్ర@@
మృత@@
కార@@
కండి@@
ప్రకటించిన
వేసు@@
కూర్చు@@
పాలన
న్నా@@
గొ@@
నిర్మాణం@@
ఉంటున్న@@
చో@@
ప్రసార@@
కొడుకు@@
మించి
వృత్తి
తప్పించు@@
కచ్చితంగా
నివేదిక@@
భాగ@@
రాబోయే
సహజ
సీబీఐ
క్రీ@@
ఎవరి
అనుభవం
వరంగల్
బాలయ్య
ప్రముఖుల@@
కర్ణాటక
యిన
రాష్ట్రపతి
కమిషన్
దాడులు
ులైన
చేర్చ@@
అమిత్
గుంటూరు
కుని@@
కాకుండా@@
నారాయణ
రుణాల@@
హ
చెందిన@@
వలన@@
నగరం
వద్దని
పాఠ@@
శు@@
బంధువుల@@
వల్ల@@
నట్లుగా
టెస్టు@@
నెట్@@
చున్న@@
ప్రారంభం@@
ణా@@
సమర్థ@@
కుందాం@@
శాస్త్ర@@
ప్రారంభమై@@
రాత్రి@@
కనుగొన@@
ింప
మంత్రులు
వర్క్
ుటకు
సిన
అధికారం
సాధ్యం
ఉత్తర@@
వాళ్ళ
రాజమౌళి
భోజనం
సంవత్సరంలో
శ్చ
ండ@@
చేతుల@@
పెట్టుబడి
బొ@@
యాత్ర
తీసి
స్క్రీన్
చర్మం
రంగ
లందు
పోషించ@@
ఉందన్న@@
దేశానికి
మనిషి@@
చేసుకొని
ఫ్యామిలీ
తొలగి@@
నియమించ@@
గ్రహ@@
సౌ@@
చర్య@@
లక్ష@@
పుస్తకాల@@
కాపాడ@@
ఫలితం
సబ్@@
చున్న
ఆత్మ
కోటి
పోలింగ్
చేసుకోవాలి@@
దృశ్య@@
భాష
జ్ఞ@@
దీక్ష@@
బ్రహ్మ
విభజన
ప్రాధాన్యత
నిజమైన
పోతున్నారు@@
వ్యాస@@
చిత్రాలు
అంట@@
అయ్యే
జై@@
బాధ
మేలు
హే@@
సుప్రీంకోర్టు
ప్రదేశాల@@
అంతేకాదు
రియల్
దూరంలో
కార్యాలయం
ఈనెల
భద్ర@@
ప్రదర్శన
పాలి@@
గానీ@@
మునకు@@
వల@@
విరుద్ధ@@
ఇంటర్వ్యూ@@
ప్రతిపక్ష
ఛ@@
టింగ్
కాల్
అధ్యయనం
వాదన@@
పొంది@@
యను
మహ@@
బ్
రావాలని
వాతావరణ
వ్యతిరేక
ారో
బిజినెస్
వస్తువుల@@
ద్ద@@
దూ@@
ఉన్నాయి
నెటిజన్@@
బడినది@@
పూర్@@
చట్టాల@@
సుందర@@
ఇవన్నీ
వద్దు@@
రంగు@@
త్వ
మోదీ@@
ఎఫ్
విచిత్ర@@
సర్కార్
జోడి@@
మార్చి@@
నొక
మండలి
ఏమైనా
రింగ్
తాయని
ఫర్
కల్పి@@
షెడ్యూల్
మోడల్
స్పందన
జైలు@@
ాం
క్లిక్
అనుకుంట@@
స్కూల్
చెప్పా@@
అధికారుల
ఎందుకంటే@@
జేసి
నివారించ@@
జ
గ్రూప్
మిలియన్
కోండి@@
కృతజ్ఞత@@
టెస్ట్
నొక్క@@
యగు
ప్రాధాన్య@@
వరకు@@
సంభవ@@
ఉండి@@
పంచాయతీ
లోకేష్
నీళ్లు
క్రేజ్
ఖా@@
పతి
నిర్మాత@@
చీ@@
కట్
లభించి@@
టర్@@
పాక్
మర@@
సగం
మ్యూజిక్
గ్రా@@
గ్రామాల్లో
వెళ్ళి
కానున్న
చూసిన@@
ద్వి@@
యాదవ్
ుడి
నిర్వహణ
చంప@@
వాడి@@
బడ్జెట్@@
చ్@@
తెరకెక్కు@@
ఎప్పుడ@@
కొరకు
కుండా@@
నడుస్@@
వన్
నందు
నిధుల@@
యన్నారు@@
ఘన
బహు@@
ఫోటో
సర్కారు
యువకుల@@
పనిచే@@
వస్తు@@
అనుమతించ@@
ప్రశ్న
హక్కు@@
పోరు@@
కల్యాణ్
సెంటర్
పద్ధతుల@@
సముద్ర
ంటుంది@@
ఇంట్లో@@
లవ్
ధన@@
వారిపై
తోన్న
చెక్
తిరుపతి
జస్టిస్
విశ్వవిద్యాలయ@@
అంతేకాకుండా
అందించిన
జీవితా@@
స్థాయికి
ఫె@@
మర్@@
దండ@@
ఢిల్లీ@@
వల్లే
సౌకర్య@@
ఏడు@@
క్లారిటీ
తిరిగి@@
గుజరాత్
భద్రతా
తూర్పు
మంత్ర@@
ఆఫర్
తెగ@@
స్పీకర్
డిజైన్
స్వా@@
మార్కెట్@@
చాల@@
కార్మికుల@@
ట్టుగా
ఫీచర్@@
బ్రేక్
శ్రద్ధ
సంప్రది@@
రకమైన
వస్తా@@
పరుగుల
మీటర్ల
ఆశ@@
దేవుడు
బలం
బాగానే
నాగార్జున
ఫోర్@@
దేవుని
ప్రయత్ని@@
దాడి@@
మోసం
ఫెస్టివల్
తీర్పు@@
ఆదర్శ@@
వారే
లక్ష్మీ@@
వ్యాప్తి
ాను
మెరుగైన
పరిశోధన@@
అడుగు
శిక్ష
చిన
పోస్టు@@
గురి
నారా
నవ్వు@@
స్థితిలో
జూ@@
డిప్యూటీ
చేసుకుంటున్న@@
శక్తిని
వర్తి@@
బైక్
వుంటుంది@@
నీయ@@
అభ్యర్థి
ఆంధ్రప్రదేశ్@@
తెలియజేస్@@
కలుపు@@
దరఖాస్తు@@
ందరూ
కెమెరా@@
హిందీ
శబ్ద@@
స్వీకరించ@@
ునకు
చెన్నై
కామెంట్@@
సాంగ్
భూ
చెట్ల@@
కూడ@@
వయసు
సమితి
అందుకున్న
ఎప్పటికప్పుడు
చూపి@@
స్తుండగా
పల్లె@@
వాల్@@
యున్న@@
ందనే
ారనే
రావ@@
కొన్న
టాలీవుడ్@@
కళ@@
అందించే
స్తూనే
నమ్మకం
ట్రైలర్
క్రమంగా
పట్టణ
వెళ్లే
మెగాస్టార్
ాది@@
కొన్న@@
మనసు
జాబితాలో
ఎలక్ట్రిక్
సంవత్సర@@
అయ్యా@@
రంగం
ఖాళీ
చరిత్రలో
కుండ@@
ధర్మా@@
సన్న@@
పాడు@@
తరచూ
అట్టి
ఈయన
డైరెక్టర్@@
చాల
లేదో
తీ
త్వం@@
స్థ@@
చేస్తున్నాయి@@
బడ్డాయి@@
లక్ష్మి@@
ఆన్
పాయింట్@@
తొలుత
ళి@@
వర్గ@@
ఆవిష్కర@@
చుండెను@@
ప్రత్యక్ష@@
గాక@@
స్పందించి@@
అతిపెద్ద
తగినంత
గట్టి
లింగ@@
తెలి@@
పార్లమెంట్
క్షేత్ర@@
భావి@@
నార్@@
దేశాలు
నాన్న
సదరు
నేర్చు@@
సౌకర్యాల@@
అనిల్
తాగ@@
అర్థం@@
న్యూ@@
అంశంపై
ఈమె
సురేష్
దక్క@@
డాక్టర్@@
ఓవర్@@
విరాట్
తీర్పు
ీకరణ
కీర్తి
పెరగ@@
ప్రకృతి@@
అవార్డు@@
పద్ధతి
బస్సు
వ్యాధి@@
తమిళనాడు@@
రచయిత
వర్
ఎలా@@
తిని@@
ఒప్పందం
బ్రాండ్
బై
గర్భ@@
ఒక్కరూ
స్ఫూర్తి@@
గూగుల్
విశాఖ@@
ీయ@@
స్టేషన్@@
పరమ@@
ఆపరేషన్
శత@@
మునఁ
ఆదు@@
రవి
అప్
మన్న@@
శ్రీకృష్ణ@@
రాజా
వర్గం
ప్రచారం@@
పరిగణించ@@
యన్@@
ించుట@@
మెరుగు@@
టైమ్
కొంత@@
బదిలీ
లక్షణాల@@
సామర్థ్యం
నేల@@
జరిగాయి@@
వంద
పాకిస్తాన్
బారిన
ఖాతా
చెప్పే
విద్యార్థుల
వృద్ధి
టె@@
భద్రత
పేర్లు
ధరల@@
మయ్యారు@@
బయటి@@
ఎన్
నుండు@@
పోలీసులు@@
హోదా
ఓడి@@
ఉండడం@@
ప్పుడే
హె@@
ేన
విజయవాడ
లక్షల@@
బెంగళూరు@@
వినిపిస్తున్న@@
మోక్ష@@
గ్రామీణ
కన్@@
పాటలు
నిర్మిస్తున్న@@
ానికే
నంద@@
ఱి@@
డబుల్
యాజమాన్యం
లాంటి@@
టాక్@@
పంజాబ్
మయ్యాయి@@
శుభాకాంక్షల@@
మేర
వినియోగ@@
సన్నివేశాల@@
ఫ్
ఉద్యోగ
ఫైనల్
సమీపంలో@@
హక్కు
ష్ఠ@@
జరిప@@
సూర్య
కోహ్లీ
లక్ష్మీ
ఇష్టం
బాలకృష్ణ
చెల్లి@@
విస్తృత@@
వినియోగం
చర్య
సంపద@@
ఇక్కడి
షాకింగ్
ట్టి@@
భాగ్య@@
పంచు@@
నిరసన@@
కొను@@
ఎక్స్
గతేడాది
పాత@@
పురం
ఊ@@
ష్
శ్వ@@
కొచ్చారు@@
కుడు
వ్యవసాయ@@
సముద్ర@@
నకుఁ
పిలుపునిచ్చా@@
శాల@@
నగదు
పరిశ్రమ
కాలేజీ@@
ఈనాడు
హర్ష@@
౨@@
కావాలి@@
సెంటర్@@
యైన
శైలి@@
విద్యార్థి
రక్షణ@@
రాజధాని@@
గదా@@
సారి@@
తర@@
గారికి
బుద్ధి
చేసుకునే
రకం
అందువలన
పాలు@@
ఆట
రాణి@@
డ్రైవర్
ప్రారంభించి@@
విభాగం
మరణం
వస్తే@@
అందుకున్న@@
రేంజ్
హాజరయ్యారు@@
రామ
ఎం
జైలు
సాహిత్య
నిమిషాల
తేడా
వెలుగు
వయస్సు
దిగ@@
ఎవరికి
సలహా
సూచనలు
నిర్దిష్ట
నె
కరోనా@@
తరం
పథక@@
బ్రాహ్మణ@@
పే
పడుతున్న@@
అల@@
లలో@@
అంశ@@
ఫిర్యాదు@@
భేటీ
తీరు
సామర్థ్య@@
రానున్న
అభిప్రాయం
అన్@@
అర్ధ@@
ఉపయోగించి
బడు@@
మోడీ@@
ఉద్యోగుల
నున్నాయి@@
అడగ@@
అప్పగి@@
పెట్టుకుని
చెన్నై@@
మనే
హీరోల@@
బ్రా@@
ళ్ల
ప్రసాద్@@
ఉదయ@@
పెట్టిన@@
అగ్ని@@
ాలన్న
అంశం
దిగిన
ఘోర@@
బొమ్మ@@
జిల్లాల@@
కౌ@@
ిస్తుంది@@
శరీర
కల్
భయం
ధాన్యం
రాలు
ంచాడు@@
వాలి@@
ర్ధ@@
ఆస్ట్రేలియా
నిబంధనల@@
ంచింది@@
సర@@
కర్ణాటక@@
ఆఫర్@@
ించాలి@@
ఒత్తిడి@@
పాల్పడ్డ@@
రూపం
సేకరించ@@
నొప్పి
హృదయ@@
జ్ఞాపక@@
పరిష్కార@@
ప్రయాణం
రమేష్
తెచ్చి@@
గణనీయ@@
రాజకీయాల్లో
పంచాయతీ@@
నిద్ర
వ్యాపార@@
ఉచితంగా
ఉత్తమ@@
భారతదేశంలో
చేస్తే@@
కొనసాగ@@
వృద్ధి@@
హింస@@
నిర్ణయం@@
చిరంజీవి@@
మీదుగా
శ్రీరామ@@
ఇద్దరి@@
టీజర్
అందువలన@@
గీత@@
ఆకర్షి@@
తిరు@@
రేషన్
గురువు@@
స్థితి
పండుగ
ప్రయోజనాలు
కారణంగా@@
చేసుకుంటా@@
ప్లస్
పనిచేస్తు@@
ిత@@
తీసుకునే
కోలు@@
అవినీతి
గ్రహించ@@
సంస్కృత@@
మను
సంపాదించ@@
రూపాయల@@
ప్రారంభ
మతి@@
చేశాయి@@
దల@@
కృష్ణా
పార@@
తుది
లాంచ్
లభించ@@
కోరిక
పనిచేస్తున్న@@
బాలిక@@
స్థలం
కుమార్తె
సరసన
పచ్చ@@
కష్టం
కార్డు
శాంతి@@
కాలనీ@@
మ్ము@@
స్టాక్
కొనసాగుతున్న@@
నంత@@
సమాన@@
వచ్చాడు@@
రక్షించ@@
భావన@@
వన్@@
అత్యాచార@@
కలసి
తక్కువ@@
ట్రంప్
ఫై@@
మయ్యే
నేపథ్యంలో@@
కార్పొరేషన్
నిరంతరం
వర్మ@@
మంత@@
మాస్టర్
వ్యాపారం
శాస్త్రవేత్త@@
బార్@@
ల్లా
కేసుల
అనుమానా@@
కల్@@
లక్ష్మణ@@
ఉద్యమ@@
జన
ప్రవేశించ@@
స్తామన్నారు@@
సాహిత్య@@
కడ@@
పెరిగా@@
పొడి@@
రష్యా@@
కవిత@@
నోటిఫికేషన్
లేదంటే
వాస్తవం
విటమిన్
రమ్మ@@
పర్యటన
అయి
నందమూరి
రష్యన్
పేరిట
ప్యా@@
చేస్తాయి@@
నొక@@
తుండగా
ండు
తీసిన
నిలదీ@@
ప్రతినిధి
బెస్ట్
విష్ణు
కంటి
మెంట్@@
స్థాయి@@
మం
వాటర్
క్షణ@@
ఇంద్ర@@
క్త@@
కోరి@@
అదనంగా@@
మగ@@
ఇంటర్నెట్
యై@@
హెల్త్
కార్మికులు
రాని
ై@@
గన్@@
నంబర్
వర్గాల@@
వన@@
సమస్యల
వ్యవహారం@@
వ్రా@@
వృక్ష@@
యుఁ
మంటే
గ్యాస్
ముగిసి@@
బాగుంటుం@@
తెగ
మన్
మిషన్
బంతుల్లో
వివరణ
దొరక@@
డై@@
నియంత్రణ
ఎన్టీఆర్@@
మాత్రము
ఇట్లు
చూడాల@@
యువత@@
ె
సుప్రీం
లభి@@
తక్షణ@@
ంటాయి@@
పట్టు
రోల్
విక్రయించ@@
ంటోంది@@
రుచి
అందుకు@@
విష@@
నిరాశ@@
సిటీ
దళిత
వేచి
కర్ణ@@
చేయాల్సి
డిగ్రీ
శరీరంలో
ఉండడం
లొ@@
సహాయం@@
ధ్య@@
రై@@
దాన@@
ఇష్టపడ@@
రామాయణ@@
చేరిన
వరి@@
నిల్వ
ప్రయత్నిస్తున్న@@
ిక
నిందితుల@@
చిత్త@@
పాత్రల@@
ఆటగాళ్ల@@
జా
సహాయ
వర్ణ@@
వాట్సాప్
కాలంగా
మూడవ
స్థల@@
కామెడీ
పిటిషన్
సభ@@
ఒక్కరి@@
నాడు@@
కలి@@
రుచి@@
దుఃఖ@@
కంటె
ఒంటరి@@
అంశాలు
పరుగుల@@
యన్
కెరీర్@@
జిల్లాల
సహకరించ@@
తేజ@@
మయ@@
గారి@@
తారని
అవకాశ@@
ింపఁ@@
శెట్టి
కడుపు@@
సాగి@@
కాలము@@
పాస్
తాం@@
దిగి@@
హి
వార్@@
గిరిజన
ఈడీ
పాడ@@
యూ
గెలు@@
విజ్ఞప్తి
వాళ్లకు
సాగ@@
అధికారికం@@
బ్యూటీ
గురయ్యా@@
పబ్లిక్
జనాభా
ననుసరించి
గొడవ@@
ప్లే
అనుసరించ@@
వదిలే@@
నపుడు
బ్యాటింగ్
టెక్
సరే@@
విజ్ఞాన@@
ఎండ@@
తొమ్మిది
ుండు@@
ప్రాంతాల
కథా@@
కీర్తి@@
కర్మ
కర్
బోయే
న్యాయస్థాన@@
ద్ధ@@
హోం
యువతి
ఏకైక
మంటూ
కింద@@
అన్నారు
మహమ్మారి
అర్ధం
చున్నారు@@
నాయుడు@@
స్త్రీల@@
నియోజకవర్గం
జంట
పోలిస్తే
చెందు@@
రచయిత@@
ఏర్పడ@@
కిరణ్
నేతల
అనిపించి@@
తం@@
కోల్పోయ@@
పోవు@@
నెంబర్
పెట్టడం
ఇష్ట@@
రైళ్ల@@
కుండానే
కూడదని
స్టేట్
ఆదేశించి@@
ఆనందం
కవిత
వైస్
కనెక్ట్
టెస్టు
నొ@@
మిక్కిలి
స్తారు
నచ్చ@@
కథలు
తరహా
లాక్డౌన్
నిలిపి@@
అవార్డు
శ్రేణుల@@
ాడట@@
సుర@@
ఇస్తా@@
తెలియజేశ@@
ధీ@@
పదవుల@@
సభ్యుడు
పిటిషన్@@
రీమేక్
ై
వైద్యం
య్@@
యుద్ధ
తానే
తమిళనాడు
బడిన@@
ప్రణాళిక
తిరుమల
అప్పు@@
అర్హత
సామాన్య@@
ఆల్@@
ణు@@
సంఘాల
త్రివిక్రమ్
పూర్ణ@@
సంగీత@@
మొదలు@@
ప్రొ@@
దొంగ@@
రాఘవ@@
రీతిలో
ద్య@@
వాహన@@
పీ
పుర@@
రామ్@@
ధరించ@@
నూనె
కృతి@@
సోదర@@
పాయింట్
అన్నాడు
ైతే
ఎర్ర@@
వెళ్లే@@
వడ@@
ఖమ్మం
సర్పంచ్
వినోద@@
తిరుపతి@@
చేయించు@@
బలి@@
గడ@@
జేయ@@
పాదయాత్ర
వ్రాయ@@
మనస్సు
తామని
జాల@@
పెట్టే
ఇచ్చా@@
సెంట్రల్
కనీస
చూస్తూ
జం@@
టిక్
పేద
సమాజ@@
ఎక్క@@
సీన్
తమిళ@@
దను@@
మల@@
దిల్
ముగిసిన
కన్న
మారిన
మరికొన్ని
ప్రత్యక్ష
అదనంగా
ులై
బోతున్న@@
నమోద@@
నిర్మాతలు
కుంటోంది@@
ందు@@
పెట్టే@@
అతన్ని
యూనిట్@@
సందడి
విధ@@
లోక
తోడు
సభ్యులు@@
పక్క
నటన@@
చెప్పడం@@
వేరు
విధానాన్ని
కన్న@@
చెందారు@@
సింహ@@
రన్
రక్త
హాజరు
మేయర్
ాలలో
తేజ్
కుడి
హై
చాలు@@
విశేష@@
బోతోంది@@
గంట@@
వివాదం
విగ్రహ@@
రావడానికి
ళ్ళ
మొదలగు
యుండును@@
సభ్యుల
ట్ట@@
మూల
పోతే
రథ@@
ప్రశ్నల@@
తారు
బహుశా
మహారాష్ట్ర
ఆర్ధిక
ుఁడై
సాగర్
నూనె@@
ముస్లిం
యువ@@
పనిచేసే
కోరిక@@
నాయకులు@@
సెలవు@@
శాంత@@
క్రమ@@
అంతే@@
మరల
తనిఖీ
క్రెడిట్
ఈశ్వర@@
పాల్గొన్న
వేళ@@
ించె@@
పరిశీలి@@
వెచ్చ@@
జేసి@@
కార్మిక
రాశారు@@
రచన@@
ారంటూ
యువకుడు
పూజా
అయ్యే@@
ామని@@
కారణాల@@
వార్తల@@
ఇలా@@
తాను@@
సెకండ్
దేశీయ
టీమ్@@
యెడల
కుంటే@@
ాన్నే
సంబంధ@@
దేని@@
పూజ
ఆంక్షల@@
ుడై
ఉపయోగించు@@
కఠిన
నగర్@@
ఇదంతా
సంక్రాంతి
ముగా@@
తెలుసుకున్న@@
సైట్
చెడు
ఎంచుకో@@
తః
చెబు@@
కుక్క@@
క్షి@@
పవన్@@
సత్తా
అగ్ని
వొ@@
నాలుగో
హిందూ@@
ఏర్పడు@@
ప్రదేశ్
ప్రశాంత్
మరు@@
గుడ్
బుల్
ూరి
ఎదుర్@@
క్యూ@@
కల్ప@@
పెట్రోల్
ఖాళీ@@
వ్యవహరి@@
ద్రవ్య@@
సంఘ@@
కృత్రిమ
రేట్@@
పోరాడ@@
ప్రయోజనాల@@
మొదలుపెట్ట@@
స్వేచ్ఛ@@
లోనికి
తీసుకొచ్చి@@
తీసుకొ@@
ఏర్పడిన
గౌరవ
ధర్మ
నిర్ధారించ@@
తీసుకు
సైడ్
పోయే@@
ప్రారంభించిన
పరీక్షల@@
కుంటున్నా@@
వాణిజ్య
పాఠకుల@@
సార్@@
పొడి
క్రియేట్
న్నర
టెక్నాలజీ
వలస
గంటలు
పుట్టి@@
జేయు@@
వేదిక
సెట్@@
వైసిపి
ునికి
ప్రణ@@
చూచి
లాల్
భాగంలో
కాలి@@
భాషల్లో
దాడికి
తులు
చెట్టు
మధుర@@
సంప్రదాయ@@
పెరుగుతున్న
నటించి@@
గోవింద@@
వేసి@@
ఇకపై
మం@@
తరపున
ఆకు@@
రాజ
అనుమానం
అల్@@
వికెట్
ఇద్దరి
ఆటో@@
కెమెరా
అక్కడ@@
సెల్
పదం
యాంకర్
ప్రారంభి@@
బదులు@@
లాగే
కార్యకర్తల@@
గుర్తించి
ఖాన్@@
పదవి@@
దాటి@@
భావన
పర్యాటకుల@@
అయిపోయి@@
ఫుడ్
మొగ@@
మౌలిక
కాదని@@
నిర్మాణాల@@
పది@@
సంబంధాలు
ఆన్లైన్@@
ందున
భాగంగా@@
టాటా
నీరు@@
యొక
ఎమ్@@
ముస్లిం@@
డగు
పదార్థాలు
వ్యాపారుల@@
ట్టే
నగరంలో@@
ఇష్టం@@
తిరుమల@@
శాస్త్ర
విమానం
నీటిలో
పరా@@
ధ్యాన@@
భద్రత@@
క్తి@@
క్యాన్సర్
క్రియ@@
బర్@@
కలగ@@
ాః
త్తు@@
కారణాలు
ంచడం
వన్నీ
వైఎస్సార్
నిజం@@
రెవెన్యూ
దారితీ@@
డింగ్
తెలిసి
గంగ@@
ద్
బులు
టో
వెంట@@
మధు@@
ముందస్తు
గను@@
నఁ
పరిచయ@@
లేకపోయిన@@
సమా@@
ిస్తున్న@@
చెంది@@
పలుకు@@
కలిగించ@@
పెంచే
కప్పు@@
నున్నది@@
అత్యధిక@@
నష్టాల@@
ఓవర్ల@@
పద్ధతి@@
దేశాల్లో
నాశనం
ేలా
ఎ
అర్హుల@@
హ్యా@@
విడిచి
చేసా@@
మొదలైన@@
పట్టి@@
బలహీన@@
మట్టి
దేశము@@
చేయబోతున్న@@
పన్ను@@
ేష్
తయారీ@@
చంద్ర
పేదల@@
హామీ@@
ఆది
నొప్పి@@
వర్ష@@
శీల@@
భారం
రెండవ@@
వేధింపుల@@
ఇరు
దెబ్బ
అటవీ
లేకపోవడం
తప్పక
ఏటా
గడిచి@@
సంపూర్ణ
జగ@@
చిన@@
పోతోంది@@
సాయ@@
చేసుకోవడం
బీమా
యన@@
ఉద్యమం
డ్రైవర్@@
వెబ్సైట్@@
నంత
క్క@@
అవమాన@@
ఆసక్తికర
హార@@
లగు
రాశి@@
వేగ@@
భౌతిక
సాధన
౯@@
యాదవ్@@
నర@@
వాక్య@@
లేరు
టెక్నాలజీ@@
గడప@@
డ్రగ్స్
సహజ@@
పాల్@@
కంటెంట్
లైన@@
హార్@@
గేమ్
ప్రజల్లో
కావలసిన
కష్టం@@
ిస్తూ@@
వసూళ్ల@@
మునందు@@
ంచడానికి
ొ@@
నట్టి
ందంటూ
రెండో@@
దక్కించు@@
మెట్రో
మెత్త@@
ించారు
సందర్భంలో@@
వర్త@@
పడ్డాయి@@
మోస@@
బాద@@
ాయని@@
కొనే
చదవ@@
విడిచి@@
కాంగ్రెసు
పట్టించు@@
దోహద@@
రక్త@@
ాలంటే@@
వ్యవహారాల@@
ించుట
టీఆర్ఎస్@@
న్నా
మాను@@
అంతర్జాతీయ@@
విశ్వాస@@
మునిగి@@
ప్రసిద్ధ
చ్చు@@
ముద్ర@@
కళాశాల
మిగిలి@@
మంత్రిత్వ
మాన్
పో
జీవన
నాన్న@@
అంతర్గత
సొ@@
అనుభవ@@
వారికి@@
విజయం@@
కృషి@@
పడుతూ
యువత
అక్క@@
వివరాల
సౌందర్య@@
నేల
పా
పడుతున్న
తుందన్నారు@@
అ
మాన్@@
పురం@@
దిక్కు@@
భారత్లో
నుంచీ
కర్త@@
నియోజకవర్గ
తూనే
పలికి@@
స్వర్గ@@
పెంపు@@
నమ్మకం@@
మండల@@
ఇంటర్
అనుభవించ@@
న్యూ
మార్గంలో
ప్రశాంత@@
తరలి@@
నన్న
ప్రవేశపెట్ట@@
లక్ష్యం
ఆటో
కోడ్
ఓవర్
బీసీ
ఎకరాల
ఇప్పుడ@@
కార్యాలయా@@
నేర@@
జయంతి
వెనుక@@
నెలలు
నిదర్శన@@
అటు@@
జూచి
రూపొంది@@
హరీష్
కేంద్రాల@@
యాప్@@
ప్లే@@
తెలియజేయ@@
కోల్పో@@
ఆరోపణల@@
కలకలం
వీళ్ల@@
చెల్లింపు@@
పరిమితం
టీవీ@@
ోప@@
నామ@@
వరి
ఫైర్
ధు@@
బడింది
లాభం
టే
భుజ@@
వ్యవధి@@
సాయం@@
ఇసుక
వ్యవహారం
సరదా@@
భీమ@@
కురిపి@@
హీ@@
తీర్చిదిద్ద@@
పోతాయి@@
ఫాలో
ందో@@
అయినా@@
కేసుల@@
నెమ్మది@@
తుండటంతో
డై
మెడ@@
కడప
సబ్
వాతావరణం@@
బెంగళూరు
లన్నీ
యూనియన్
బిల్లు
నాటి@@
హస్త@@
ఫిల్మ్
వరుణ్
వాఁడు
తద్@@
తెలిపిన
జర్@@
ఏమి@@
గుర్తుంచు@@
చున్నవి@@
చేయుట@@
రీసెర్చ్
లైన్@@
కోట
స్పష్ట@@
వంట@@
వదిలి
మన్న
టా
లబ్ధిదారు@@
జై
ఎకరా@@
పనిచేస్తున్న
సీత@@
అసోసియేషన్
బద్ధ@@
తుందో
వేశ@@
మవుతోంది@@
రెడ్
అంగ@@
బిడ్డ
జగన్మోహన్
నాయక్
కొవిడ్
ఆదాయ@@
నియోజకవర్గాల@@
ఇట్టి
పెంచి@@
పవిత్ర@@
మైనా
నిర్ధారణ
కళ్ల@@
బ్రాహ్మణు@@
పుత్ర@@
సేన@@
విత్తనాల@@
గ్రౌండ్
వినియోగించు@@
బెయిల్
రాం
ళ్ళు@@
లేచి
నియంత్రించ@@
వానిని
అమ్మకాల@@
గల్@@
పాకిస్థాన్
స్తు
సిద్ధి@@
స్నానం
భ్య@@
లోపాల@@
కంట్రోల్
యజమాని
అనేక@@
స్థానాల@@
నెల్లూరు
తొందర@@
ందే
వాహనం
నిర్ణయించు@@
రసం
ల్లా@@
కుండ
అవినీతి@@
జాబితా
అంతర్@@
తలెత్త@@
మిత్ర@@
వివాదాల@@
రేటింగ్
చూద్దాం@@
భేద@@
కూర్చో@@
మేకర్స్
నిర్వహించే
నెట్
కన్నడ
ఆధ్యాత్మిక@@
ఎస్ఐ
కలెక్టర్@@
ప్రీ@@
ంగు@@
రూపము@@
ఆమోదం
వంద@@
గుండె@@
తీశారు@@
రుద్ర@@
కరీంనగర్
స్వంత
శాశ్వత@@
ఇతి@@
పరచ@@
వాన@@
కంపెనీల@@
సేవా
త్తి@@
వివేక@@
విధంగా@@
పెడితే
లాక్@@
చేరి
స్థానిక@@
సలహా@@
ఆడు@@
తయారు@@
వేల@@
స్టార్ట్
ంచు
పదే
ిత
ఉండాలి
అంచనాల@@
య్యాడు@@
ఆక్సిజన్
ఉద్దేశ@@
అధిగమించ@@
ఉద్యోగ@@
పుస్తకం
సిరి@@
భవనాల@@
వాడి
పడిన@@
వలసి@@
ఉత్సవాల@@
కాలు
ఎక్కడి@@
కలవ@@
హం@@
వంత@@
కాంతి
మిస్
లేటెస్ట్
ఎంజాయ్
బుల@@
ఖాతాలో
ఆధార@@
చెను@@
గి
మార్కు@@
ధర్మము@@
తొలి@@
దర్శించు@@
ిని
స్తుండగా@@
రత్న@@
ాత్మక
అనంత@@
గం@@
దక్షిణ@@
కంటి@@
ఆస్ట్రేలియా@@
నిర్వాహకుల@@
పలికి
వయస్సు@@
లె
నెలల్లో
రోజుల్లో@@
భరోసా
లచే
ఆగి@@
వంశ@@
చెట్టు@@
వాది@@
రకరకాల
శాతానికి
అరుదైన
ఇండస్ట్రీ
మృగ@@
కలు@@
గలవు@@
కేరళ
టైం
విస్తరించ@@
లేడీ
పంపి@@
వాగ్@@
పరిశోధన
పాడు
ఆలయం
ప్రతిపాదన@@
భాషా
కాలము
రకంగా
ోద్@@
స్కూల్@@
ఆహ్వానించ@@
మరో@@
ూరు
పర
బట్టి@@
దాట@@
ప్రమాదకర@@
కిషన్
ప్రెస్
నగు
వీలు
నవి@@
భవనం
యును
తెలుసుకున్న
కంప్యూటర్
భారత@@
మార్క్
టేబుల్
అభినందించ@@
విషయంలో@@
రామకృష్ణ@@
చెప్తున్న@@
కృతి
హోదా@@
పెట్టాడు@@
గూ@@
సీతారామ@@
లేకపో@@
థియేటర్ల@@
వంట
ఁగ
లావాదేవీ@@
అనుచరు@@
చైతన్య
కపోతే@@
ఇవ్వడం@@
ప్రగతి
సెస్
సకల@@
నిషేధ@@
పేర్ల@@
ంగ@@
బంతి@@
పాల
గర్@@
శీ@@
స్టైల్@@
ఉక్రెయిన్
అవకాశము@@
ిక@@
ఖరారు
ందా
సామాన్య
దారి@@
వార్తలు@@
చేప@@
పర్యావరణ
నైన
ప్రధానమంత్రి
మాట్లాడిన
కోర్సు
గృహ
సంచలనం
గోపాల@@
దొర@@
ఎప్పటి@@
అమృత@@
శంకర్@@
సర్వ
గౌడ్@@
గనుక
తుల@@
పసుపు
ఎత్త@@
షిప్
వరం
ప్రోత్సహ@@
సరిహద్దు@@
ఉద్@@
వ్యాపారం@@
భోగ@@
ఈటల
శిఖర@@
అలవాటు
బరువు@@
పత్రిక
భారతీయుల@@
తనిఖీ@@
స్పష్టమైన
వారంతా
ఆఫీసు@@
ారా
మాల@@
విశ్రాంతి
నిలబడ@@
రైల్వే@@
గెలి@@
పండుగ@@
సహాయపడ@@
అవకాశాల@@
వివాహ
శాయి@@
కుంటున్న@@
బాలిక
భగవంతు@@
హక్కుల
దర్శకుడి@@
కార్మికుల
తేలిక@@
రామచంద్ర@@
ౌ@@
శిక్షణ@@
పరిమాణం
ఇంకో
నడిపించ@@
సున్నిత@@
అర్@@
తుంటాయి@@
మ్యా@@
చేయి
చట్టం@@
కాన్@@
శ్వాస
పోవచ్చు@@
కథనం
గణ@@
వెబ్@@
ఇళ్ల
ఛాన్స్
ఎస్సీ@@
ానంద@@
చాలు
పైనా
రమణ@@
విచారించ@@
సౌత్
కున్నాయి@@
ప్రొడక్షన్
చేతి
్య
సవాల్
ప్రకాష్
ఉప్పు
ఒకేసారి
వేయడం
కరమైన
నెలకొల్ప@@
మారు
వచ్చింది
రూప
సమాజం
ర్య@@
సకల
ప్ర
రేట్
నేర్ప@@
దర@@
మంత్రుల@@
శాస్త్రి
అమ్ము@@
రోడ్
కావు@@
గంట
పట్టుకుని
ప్రభావం@@
జియో
సమకూర్చ@@
యె
ప్రతికూల
తనం
ఉన్నతాధికారుల@@
వేసే@@
విధులు
వరద@@
వెయ్యి
దృ@@
ప్రాజెక్టుల@@
బయో@@
కార్యము@@
ఆస్తి
య్
అనుకున్న
తిని
రాణి
పోస్టర్@@
పల్లె
చాటు@@
వాఁడ@@
తొలిసారి
హెచ్
యువతి@@
శ్ర@@
సర్
గురైన
సెం@@
కౌంటర్
సైనిక
షాక్@@
రాసు@@
మొక్క
పారిశ్రామిక
షే@@
రాజ్యసభ
ప్రీ
ట్వీట్@@
బడే
ంచాలని
ఎస్బీఐ
దగిన
గుప్ప@@
నాయకత్వం
పద్ధతిలో
వారంలో
ఆలోచి@@
వెళ్తా@@
ఉష్ణోగ్రత
మట్టి@@
రవితేజ
తినడం
మంగళ@@
పూరి
రూపొందించిన
పాల్
అనుమతుల@@
భోజన@@
గోడ@@
శ్రద్ధ@@
స్పీడ్
ఇన్ని
కామెంట్
తెలిసిన@@
విజయా@@
యింది@@
ంద@@
భక్త@@
పేద@@
లందు@@
ప్రజాస్వామ్య@@
కైట్
అమెజాన్
నిర్దేశ@@
ఔ@@
సిగ్గు@@
జాబితా@@
సో
స్తుందో
సహకారం
అర@@
నియంత్రణ@@
కోరుతూ
బా
గుడి@@
కోరుతున్నా@@
ప్రతిబింబ@@
ముద్దు@@
ించవచ్చు@@
పోలవరం
చర్మ@@
ప్లాన్@@
హీన@@
దేవ
కిలోల
కార
పరిపాలన@@
వెళ్తున్న@@
న్యాయ
నేని
జ్ఞాన
యాంటీ
సము@@
ఉంటూ
రేఖ@@
గదిలో
నిధి
యైన@@
కేజీ@@
బ
త్ర
ాంతర@@
భరించ@@
య్యే
నృత్య@@
అయిపో@@
వేస్తున్న@@
తార@@
తప్పి@@
అక్రమ@@
ప్రమాదాల@@
భవిష్యత్తు
దత్త@@
టానికి@@
రోజువారీ
త్వము
ప్రి@@
తనదైన
సర్వీస్
అదిరి@@
సంస్కృతి@@
వేర్వేరు
స్థానాల్లో
గతి@@
సంభవించి@@
అక్షర@@
సన్నాహ@@
విమానాల@@
సామ్రాజ్య@@
రోగుల@@
తగిలి@@
వేసే
విధమైన
రాక్షస@@
దిగ్గజ@@
ంచాయి@@
ప్లాస్టిక్
ఉంటాయని
హాజరు@@
కాం@@
జీర్ణ@@
స్తుంటే
చేస్తానని
ఉన్నట్టు
ఆలయ@@
ప్రవేశ
కొద్దీ
కపూర్
కర్నూలు
సెలవు
ఆరోగ్యకర@@
సూత్ర@@
దర్శనం
వ్యవహరిస్తున్న@@
బోర్డు@@
గది
చర్చనీయాంశ@@
పట్టణ@@
ఫేస్
అప@@
ఇస్తే
స్తున్నది@@
ందుకే
ణ్@@
తొలిసారి@@
ఉంట@@
ప్రాంతీయ
ఆకాశ@@
ప్రదేశం@@
ఆశ్రయించ@@
ణీ@@
రెండూ
జరప@@
సూచించి@@
గెలిచిన
ప్రథమ@@
కపోయినా
సదుపాయాల@@
వైరల్@@
బాక్సాఫీస్
రెట్@@
అల్ల@@
పోస్టుల@@
విశాల@@
డీజిల్
కెసిఆర్
ఎవరు@@
అంతేకాదు@@
ంగి@@
అరవింద్
తోట@@
నట్లు@@
ప్రయాణికు@@
రాయి@@
ఇస్తున్న@@
కథల@@
ఓటమి
దం@@
సిఎం
సాగింది@@
సపోర్ట్
దొరికి@@
జత@@
దర్శకుల@@
నివాసం
ణి@@
ప్రెసిడెంట్
శ్రీనివాస@@
బిజినెస్@@
తప@@
పార్లమెంటు
విజయ
సమానంగా
పురాతన
మర్చిపో@@
యజ్ఞ@@
పర్యాటక
బలోపేతం
ంగ్@@
హయాంలో
వుండే@@
ల్లోనూ
తుండగా@@
ఆధార్
కవర్
యూనివర్సిటీ
క్రేజీ
సంకేతాల@@
లైట్
ఎంటర్
ుడిని
యోగి@@
దేవతల@@
టై@@
దక్కి@@
కున్నా@@
శాసన
లెస్
కనిపించడం
బైక్@@
కుంటూ@@
పేర్కొన్న
తరుణంలో
వాఁడు@@
నాథ@@
ఘనత
అంశం@@
ఉపశమన@@
వన్డే
దానం
చుక్క@@
భూములు
జరిగితే
జ్యోతి@@
రెడ్@@
్యం
సునీల్
భ్రమ@@
పేర్@@
ఆర్డర్
గొట్ట@@
పెరుగుతున్న@@
ళ్లు@@
ఛైర్మన్
పాదయాత్ర@@
కార్పొరేట్
వదిలి@@
డేటా@@
అలీ
అంబేద్కర్
షు@@
హిట్@@
ఆధ్యాత్మిక
నోటి@@
ఉందో
లగు@@
అసిస్టెంట్
హోటల్@@
చుండును@@
కొడు@@
ఇప్ప@@
పూర్వ
టన్నుల
జులై
అద్భుత
కీలకమైన
మితి
నిలువ@@
పోతున్న
కత్తి@@
ధైర్యం
తీసుకురా@@
ల్ల@@
ట్ల@@
పుష్ప
మాంసం
పరస్పర
పార్ట్
కానుక@@
నరసింహ@@
వుంటే
్యా@@
శేఖర్
అర్జున@@
కము
హోమ్
ప్రధాని@@
వహి@@
గ్
సత్యనారాయణ
ిస్తారు
సూక్ష్మ@@
ఇంటర్@@
రాజ్యాంగ
శృంగార@@
సారు@@
నకిలీ
నమోదై@@
కావాల్సిన
పుడు@@
సమక్షంలో
ఎన్నిక
స్వాగతం
చదివి@@
వారీగా
యినా
నర్@@
వేరియంట్
గఁ
విజయవంతం@@
వ్యాధులు
కళ్ళ@@
చిక్క@@
డనే
ీకరించ@@
సంయుక్త@@
మద@@
హక్కుల@@
అనంతపురం
కొట్టి
అమెరికన్
కల్యాణ@@
సాంస్కృతిక
చేయటం
బస్టర్
అప్డేట్
సెల్@@
బర@@
పాటల@@
ఉందా@@
యోగి
బృందా@@
ఈవెంట్@@
పరు@@
వృద్ధ@@
మార్గము@@
రోజే
ప్రవేశపెట్టి@@
సమంత@@
దీనివల్ల
స్టా@@
ాయ@@
వైపు@@
ప్లా@@
తత్త్వ@@
౧@@
తిరగ@@
షర్మిల
నీతి@@
చదువు
సంస్కార@@
ఒప్పు@@
అనుసంధాన@@
పేజీ@@
ార్థం
కష్టాలు
చూసే
స్వతంత్ర
చూస్తా@@
పండు
యుద్ధం@@
నంటూ
లేవని
ప్రతిపక్షాల@@
ఔషధ
ఆనంద్
లిమిటెడ్
చేసుకునే@@
యజమానుల@@
బ్బ@@
పరిహారం
జరుగ@@
మె
తుంటారు@@
నెరవేర్చ@@
ష
అప్పు
స్థానాన్ని
సురక్షితం@@
రెగ్యులర్
తీసుకొచ్చ@@
చేర్చు@@
సైబర్
పడ్డాడు@@
స్త్ర@@
పురుషుల@@
కలుగ@@
గడువు
పట్టా@@
చిన్నారుల@@
కలదు@@
సమీక్ష
ుట
కోర్సు@@
సృ@@
వేయాలని
సులభ@@
కుమార్తె@@
వీర
మోహన్@@
రాజశేఖర్
మరికొందరు
అకౌంట్@@
గొడవ
తెచ్చ@@
ఫోటోల@@
వ్యాసం
దృఢ@@
హరి
ఉష్ణోగ్రత@@
చక్ర@@
బు
పొందుతున్న
టీకా
మయిన@@
చేరుకున్న
స్మార్ట్ఫోన్@@
గ్రంథ@@
నేత్ర@@
కోరుతున్న@@
పొందుతున్న@@
పడ్డ
ఆడియో
యమ@@
తూర్పు@@
పొందారు@@
అవుట్
కోపం
వివరి@@
గ్రాముల
భావ
జ్ఞానం
ట్విట్టర్@@
దీర్ఘ@@
రచి@@
ఉపాధ్యక్ష@@
అందించే@@
టీటీడీ
తెచ్చి
డేట్
నామ
మండలంలో
కమర్షియల్
చుట్టు@@
కార్డు@@
మార్గాల@@
కట్టి
తీర్చ@@
మార్పుల@@
పనితీరు@@
ఫర్@@
మంట@@
సెక్షన్
భావా@@
కుట్ర@@
ఆసియా
సభకు
బియ్యం
పెట్టుకొని
బాహుబలి
ంటుందని
జట్టులో
పనికి
ఎంతగానో
గురువు
పట్టి
షేక్
కోటి@@
నాన్
కారణాల
బ్రేకింగ్
రొ@@
వానికి
ప్రాజెక్ట్@@
దుకాణాల@@
సల్మాన్
ప్రొఫెసర్
చెప్పారు
నిష్@@
విధి
దర్శక@@
కమల్
వాస@@
చక్కెర
కోవటం
శ్య@@
ఘట@@
గ్రాండ్
విశ్వాసం
ఈవెంట్
పదవికి
మేనేజర్
ారన్న
అఖిల్
రాయ్
దీప@@
హెచ్చరిక@@
పడుతోంది@@
సంఘాలు
టికెట్@@
వశ@@
విని@@
గౌడ్
సంత@@
వృ@@
చర్చి@@
సరి
నిజామాబాద్
జరిగే@@
యస్@@
ప్రె@@
యొక@@
కుటుంబసభ్యుల@@
శుద్ధ@@
బాబా
పలు@@
నిర్వహిస్తున్న
భవిష్యత్
ప్రవహి@@
వాన్
గంటల్లో
వంశీ
ఆలయంలో
పలికారు@@
పిండి
స్తున్నట్లు
మొదల@@
చేయు
సూచిస్తున్న@@
అమర్చ@@
సీసీ
కేబినెట్
చిత్రాల్లో
అవుతున్న
లెట్@@
శంకర@@
ట్రాన్స్@@
సహకారం@@
పేర్కొన@@
కోపం@@
విరుచుకు@@
గాయపడ్డ@@
ఏంటి@@
చక్కని
నోరు
పింగ్
ప్రాంతంలో@@
కూరగాయ@@
అత్యవసర
దాదాపు@@
పిలవ@@
వేసవి
మాని@@
ములకు
ముద్ర
చిక్కు@@
ఉన్నత@@
ఉనికి@@
దర్శన@@
నాగ
రాణించ@@
పక్కనే
మఱియు
వదులు@@
కాంతి@@
బ్యానర్@@
వైయస్
ప్రజాప్రతినిధుల@@
మంత్రులు@@
ఒక్కసారి
గౌతమ్
భక్తుల
దయచేసి
నాయక్@@
స్థలానికి
పుచ్చు@@
వేద
వంతు
గోపాల్
మణి
తోడ@@
చారిత్రక
కాంబినేషన్
ఏమిటో
ందంటే@@
బదులు
అడిగి
అలీ@@
తప్పదు@@
బిలియన్
అక్కినేని
లేకపోయింది@@
అధిష్టాన@@
రేటు@@
సెంచరీ@@
మగును@@
రావణ@@
ధరించి
యతి@@
చెలరేగి@@
హర@@
ఇప్పుడు@@
జోరు@@
త్వా
స్వతంత్ర@@
హౌస్@@
చిరు
కోప@@
కాఫీ
చేఁ
హెడ్
తెలివి@@
వ్యక్తిగత@@
రియా@@
హాని
సైన్స్
చేపట్టి@@
భువన@@
అశోక్
వాసి@@
చేయగల@@
నప్పటి
విడాకుల@@
మీరే
ఐదుగురు
భయంకర@@
ధ
ుడికి
యథా@@
టికి
వైవిధ్య@@
ిన@@
ఉంటాయి
తె
వీని@@
తీసుకున్నా@@
వ్యక్తుల
ఈనాడు@@
వాహనాల
ఇరు@@
మాట్లాడుతున్న@@
లోక్
వన్డే@@
నింద@@
ఇంతకీ
ప్రయత్నం@@
మాన
ధన్యవాదాలు
అట్టి@@
ఆప్@@
కోరికల@@
ఫీ@@
ముక్కలు
గాయ@@
ప్రాంత
ఓట్ల
రక్తం
అనుగ్రహ@@
వాద
జోక్యం
రచన
గ్రూప్@@
కార్యదర్శి@@
బ్లాక్@@
ఆల్
సింగిల్
ఆయిల్
అజయ్
సాధి@@
నేతలు@@
హత@@
వస్@@
కల్పన@@
గ్లామర్
బాధిత@@
గజ@@
ఇలాగే
వ్యాయామం
శాఖల
అవి@@
చేసుకుంటూ
విన్@@
మార్గం@@
సిగ్నల్
పంటల@@
కాంత@@
వహించి@@
స్టోరీ@@
బ్యానర్
ఆకాంక్ష@@
ప్పు@@
గమ@@
సంక్షేమ@@
మాట్లాడి@@
నిర్లక్ష్యం
ిస్తున్న
కార్యాలయ@@
మది@@
గెలవ@@
పదార్థాల@@
పరిపాలన
పక్ష@@
రంగాల్లో
కారణము@@
పెట్టుకో@@
ప్రియాంక
శం@@
హా
రెండేళ్ల@@
దుష్@@
క్స్
కుడు@@
శక్తివంత@@
ఓకే
నంబర్@@
రంటే
చేయబడిన
గై@@
ుడిగా
అధ్యక్ష
క్షణం
సంపద
లభ్య@@
వడి@@
శాశ్వత
ఆర్మీ
తెలుసు
జోన్
లక్షలు@@
ైంది@@
కారణమని
రాక
మాటల
లింక్
ానాం
చేశామని
అభ్యంతర@@
దీంతో@@
పంపు@@
ింపు@@
దేవా@@
ఎపిసోడ్
పవిత్ర
నవి
పరమాత్మ@@
గని
పక్షం@@
సందేహం
వలస@@
పెరిగి
నున్నట్టు
తీసు@@
పరిశీలించి@@
లీక్
పరీక్షల
సదస్సు@@
పడుతుందని
తిప్ప@@
క్లిష్ట@@
పోస్టర్
చెబుతూ
బ్రిటిష్
ధ్రువ@@
పాల్గొంట@@
రహదారి@@
రవాణా@@
చేసినట్టు
పొడవు@@
చాడు@@
మారుతి
వెండి
వెళ్లిపో@@
త్త
పార్@@
జంతువు@@
భావాల@@
తావు
స్వల్ప
స్తాను@@
అప్ప@@
భు@@
బెంగాల్
కొవ్వు
పోస్ట్@@
కోవాల్సిన
కౌన్సిల్
ఁగు@@
బంధు@@
నితిన్
లోక్సభ
వ్యాపారాల@@
పార్క్
భయపడ@@
రము@@
సేన
పర్యవేక్షి@@
ప్రవర్తించ@@
కలిగే
తుంటే
చనిపోయిన
భో@@
సగటు
రామారావు
కొందరి@@
స్టేషన్లో
నమూనా@@
ముగింపు
ీకరణ@@
మంచిది
రద్దు@@
అందు
భాషలో
అధ్యక్షుడి@@
ధరల
ఆఫీసర్
ట్లయితే
కాలం@@
వచ్చేసి@@
సీపీ
నవల@@
కరి@@
కొనియాడ@@
జనసేన@@
ద్వేష@@
గుంటూరు@@
పశు@@
తొ@@
కేటీఆర్@@
విన్న
క్లాస్
ందట
దెబ్బతి@@
స్పష్టత
మైక్రో@@
ఇపుడు
కోవ@@
పెడతా@@
రంగాల@@
శర@@
శిశువు@@
పడితే
ట్టే@@
ుణ్ణి
కూలి@@
సిఫార్సు
౯
సౌకర్యం
దేశాల్లో@@
నల్ల
మిటంటే@@
పోస్టు
అంతకుముందు
పోవ@@
జ్ఞానము@@
ఉపయోగించి@@
తెరవ@@
పుష్కలంగా
మృతదేహాన్ని
అందాల
అన్యాయం
పదార్థం
ధర్మాసన@@
సీటు
ాడని@@
థియేటర్@@
వసంత@@
దృష్ట@@
రిజిస్ట్రేషన్
విధించి@@
లాభాలు
బాల
ప్రదర్శి@@
ట్రాక్
రాజస్థాన్
సంపూర్ణ@@
గ్లోబల్
దీక్ష
పరిజ్ఞాన@@
ప్రక్క@@
కము@@
నిధుల
ంటా@@
కార్ల@@
ంద్ర@@
యత్న@@
వేగం
క్రమం
వదల@@
అప్@@
ఇరవై
బల్@@
క్రికెట్@@
సానుకూల
ణ్య@@
చిత్తూరు
నన్నారు@@
నివారణ@@
సెక్యూరిటీ
ప్రతీకాత్మక
మితి@@
సంప్రదాయ
దాటి
మాధవ@@
న్యాయమూర్తి
పెట్టాలని
అప్డేట్@@
ఇ
పెను@@
షాపు@@
దన్నారు@@
ఏంటో
గొంతు
వంతెన
మతం
గ్రామాల
ఎదుర@@
ఎద్దేవా
అం@@
గ్రామస్తుల@@
మరింత@@
యొ@@
ప్రచార
మల్ల@@
నిమ్మ@@
వ్యాపారస్తుల@@
మించిన
ఫ్రీ@@
నిర్ణయించుకున్న@@
మీరూ
డివిజన్
హ్య@@
ములగు
బౌలింగ్
మిత్రు@@
పూట
చిత్రీకరించ@@
మనీ@@
దిగి
ప్రత్యామ్నాయ@@
అన్య@@
స్మృతి
ప్ప
వార్షిక
దళితుల@@
అభిరుచి@@
పత్రాలు
మేలు@@
కోహ్లీ@@
నగరాల@@
నైట్
వేడి@@
పేపర్
గే
కన్పి@@
చిరు@@
ధాన్య@@
మెన్
స్థాపించ@@
న్య@@
వివరాల్లోకి
తీర్చు@@
అంకిత@@
చూస్తే@@
నిరోధించ@@
అత్త@@
నెలల@@
దె
జు
విశేష
సమీప
ఢీ@@
విజేత@@
రూమ్
టీం
పులు@@
ఊహ@@
ఆఫీస్
ముచ్చట@@
చేయాలని@@
అలాంటి@@
పరామర్శ@@
ఇన్నింగ్స్
తెలంగాణా
ఇవే@@
బం@@
ఉత్సాహం@@
ఎల్ల@@
కడుపు
షేర్@@
జర్
యుండెను@@
ఫో@@
ఛా@@
వ్యర్థ@@
ఫేస్బుక్@@
షూట్
తరగతుల@@
లోతు@@
దానితో
పరికరం
యూనివర్సిటీ@@
మిస్టర్
ప్రవేశించి@@
ఙ్గ@@
సీట్ల@@
సత్యనారాయణ@@
జరిపిన
వాస్తవం@@
ఐసీసీ
వారాల
ఆఫీసర్@@
వైష్ణవ@@
ర్యాలీ@@
కానిస్టేబుల్
సిస్టమ్
మతి
వ్రత@@
ాంగ@@
యని@@
నప్పుడు@@
విస్తృత
ాదులు
రహదారి
పడకుండా
పార్కు@@
విభిన్న
డిమాండ్@@
పద్య@@
ఇన్నింగ్స్@@
ఎదుట
కొరత
ఫిక్స్
వచ్చాక
శాం@@
తుండడంతో
ప్రత్యేకత@@
దేవరకొండ
చ్చింది@@
పం@@
హాసన్
కారి@@
షూటింగ్@@
పరి
కళ్యాణ్@@
సీరియస్
ఙ్@@
పిండి@@
పెర్@@
వేడుకల@@
నక్షత్ర@@
రష్మిక
స్మార్ట్ఫోన్
మత్తు@@
ఆడిన
మెచ్చు@@
సృష్టి
తీసే@@
రైలు@@
కాజల్
ఉద్యమం@@
ప్రారంభమైన
తాళ@@
చేసిందని
ప్రత్యుత్తర@@
ఇంజనీరింగ్
కంఠ@@
డెలివరీ
ఇంక
ఆచార్య
పోర్ట్
నిర్మిస్తున్న
ఆక్@@
నిల్వ@@
సముచిత
పోషి@@
సంరక్షణ
చైర్మన్@@
శ్రేష్ఠ@@
భరత@@
పొత్తు@@
సమగ్ర
సిస్టమ్@@
దాస్
ందే@@
పురుషులు
కృత్య@@
సంసార@@
ప్రాచీన
ఫైనల్@@
ఎత్తు
అలంకరించ@@
లిస్ట్
యగు@@
రహిత@@
వాడే
బీసీసీఐ
స్వభావ@@
పండు@@
ాక
పొగ@@
నంది@@
అనువాద@@
నాయకుల
ఘోర
వాటా
ద్ర@@
నెలలు@@
హాస్పిటల్@@
రియా
డానికే
వెర్షన్
కుంది
పరిషత్
తాయి
నుందని
టాపిక్
పొత్తు
స్వర@@
నవీన్
పూడి
తలుపు@@
అందాల@@
సమస్త
విలన్
టెన్@@
దివ్య
పెంచే@@
ంప
సందర్బ@@
సిటీ@@
అగ్ర@@
ంచడం@@
నుంచి@@
ఫాస్ట్
సక్రమ@@
షిప్@@
చేస్తుంది
ఎత్తి@@
వేసుకుని
సీతా@@
చేయవచ్చు
థి@@
గమనికః
నిప్పు@@
నినాదాల@@
వ్యయం
అర్పి@@
ఇంతకు
కాండ@@
ిస్తే@@
హాస్పిటల్
పాప
పోషకాల@@
ట్స్
ముగాఁ
చేస్తు@@
చేయాలి
తీసుకెళ్@@
అమర@@
గ్రహించి@@
ప్రవర్తన@@
లక్ష్యాల@@
మరణించిన
సజ్జ@@
తై@@
పండ్లు
తాం
డూ
ప్రతిష్టాత్మక@@
డూ@@
కలు
ట్రా@@
ప్రతిభ@@
దాసు@@
న్నింటి@@
పోతున్నా@@
మెన్@@
ప్రాతినిధ్య@@
ొద్దని
మహాత్మ@@
నిలవ@@
భావించి
రక్ష@@
డైన
వైరస్@@
జూన్@@
మర్యాద@@
ద్వితీయ@@
హాస్య@@
వెళు@@
పనుల
నిఘా
త్వము@@
వ్యాపి@@
చేందుకు
పథకం@@
బాట@@
కెప్టెన్@@
సిపిఎం
నమ్మక@@
సల్@@
మారి
ఫ్రీ
ఆసుపత్రి
గుర్తింపు@@
ఒకరి
చెబుతు@@
జమ
బిహార్
స్థిత@@
సెన్@@
హేతు@@
వర్కింగ్
విధాన@@
అనుకున్నా@@
శిష్య@@
కాలేజీ
గుహ@@
థియేటర్
రానా
రాజ్యం
సంబంధించిన@@
అనిపించ@@
రము
నిరూపించ@@
లోపం
కుట్ర
గౌ@@
ఉన్నందు@@
సత్య
శే@@
కాంబినేషన్@@
కూర@@
నకు@@
నామినేషన్@@
మూసి@@
క్షీణి@@
జే
లాభ@@
వైట్
దగ్గరి@@
వేలాది
పరిగణన@@
సమస్యలు@@
మనుషుల@@
జరిగింది
డాలర్ల
రూరల్
వాహన
పెరుగుదల
కలిగించే
టైమ్@@
శత్రు@@
శ్రీకారం
బడును@@
క్కు@@
కింగ్@@
బహిరంగ@@
న్యాయవాది
సంపన్న@@
అస్సలు
ప్లాంట్
ఉప్పు@@
బిజెపి@@
పూల@@
నట్లే
ఒడి@@
మాతృ@@
తీవ్రత
ముల్
యతి
స్తాయి
గదా
ప్రతిష్ఠ@@
వాయు@@
సేల్@@
ప్రజలు@@
అన్ని@@
వస్తువు
చిన్నారి
అసాధ్య@@
పెన్@@
ప్రత్య@@
పనిచేసిన
పోరాట@@
స్పంది@@
సమాధానమ@@
ఆరా
జెండా@@
నడవ@@
తడు
జరిమానా
నాయకత్వం@@
టన్
మ్ము
నిర్వహించే@@
నిండి@@
కలర్
బలవంతం@@
తరహాలో
విలాస@@
పెరిగే
థ్@@
కంద@@
బండ@@
చూస్తుంటే
టోర్నీ@@
మమ్మల్@@
చేయాలనే
ప్పుడైనా
నాయ@@
చెవి@@
శ్రీకాంత్
భాషల@@
పీఠ@@
జీవన@@
సింగ@@
సాధించి
సుకుమార్
తన్@@
రిలయన్స్
అబ్బాయి@@
మంటలు
ఇదివర@@
తోంది
వెంకటేష్
హీరోయిన్ల@@
బుద్ధ@@
మరియు@@
సంభవి@@
పూర్తయి@@
చరణ్@@
కోల్పోయిన
ఆశించ@@
అష్ట@@
కారము@@
తెలుపు@@
క్యారెక్టర్
బెడ్
పెట్టుబడి@@
జో
చల@@
గోల్డ్
చేరుకో@@
మొదట్లో
గీత
స్తున్నాడు@@
ుఁ@@
గానే@@
దురు
దొ@@
గతి
జీవించ@@
లెక్క
వంటకాల@@
సంభాషణ@@
పిమ్మట
డైరెక్ట్
ముఖ్యమైన@@
ప్రాతిపదిక@@
పునర్@@
త్య
సన్నిహిత@@
ఏరియా@@
యూట్యూబ్
నిజమే@@
యర్
సీఐ
విషమ@@
పక్కా
బ్యాంక్@@
సెంచరీ
విమర్శల@@
సంకల్ప@@
ంచును@@
విరోధ@@
శరీరము@@
పడటం
వేలు@@
ఒక్కొక్క@@
పాఠకుల
స్తోంది
వ్యాప్తి@@
ంతు@@
సిస్
టూ@@
గందరగోళ@@
వ్యాధుల@@
టైటిల్@@
వేసవి@@
కీలకం@@
సమీప@@
సుదీర్ఘ
మొదలవు@@
అర్ధరాత్రి
సాఫ్ట్
బన్నీ
వహించిన
శ్రీలంక
దర్శకుడు@@
వాడ
ాయ
బాల్@@
చేయడానికి@@
సైన్య@@
విగ్రహం
పట్టణంలో@@
విజయవంతం
విన్న@@
రివ్యూ
ఇంగ్లాండ్
నిరోధక
తమ్ము@@
ఒకే@@
జుట్టు@@
వైఖరి@@
హీరోల
కరణ@@
కాలుష్య@@
ుడే
మాదిరిగా
ీశ్వర@@
ప్రతినిధి@@
తుందనే
మరోవైపు@@
కోవాల్సి
చా
రాముడు
ంచ
నిషేధం
నగు@@
జెండా
గ్రంథము@@
సమయా@@
యును@@
మాట్లాడే
సంపాదించు@@
పడుతున్నాయి@@
నిర్మిస్@@
ట్లయితే@@
కమ్మ@@
విక్రమ్
కొచ్చింది@@
వాసన@@
లీగ్
స్తాం@@
హాయి@@
ఫ్రెండ్
చూసింది@@
కోల్పోయి@@
సచిన్
పునరుద్ధరించ@@
కుక్క
టివ్
ముగి@@
ఢ@@
బ్యాంకుల@@
భవన@@
నట@@
రోగి
ాల్సిందిగా
స్వయం
పిల్ల
ఉగ్రవాదుల@@
భాగాలు
ఆలోచనల@@
మహర్షి
చుట్ట@@
దొరుకు@@
బయలుదే@@
హర్@@
పొట్ట@@
వని@@
సమయం@@
జల
కళ్యాణ@@
ఇండ్ల@@
బ్యాటరీ
జాన్
ఫీచర్
బ్రో@@
పోతా@@
తోడు@@
ంచే@@
ఎస్పీ@@
అక్షరాల@@
జ్ఞానము
షెడ్యూల్@@
వివాదం@@
కుంభ@@
కంపెనీల
అడిగిన
స్టీల్
పట్టణంలో
పత్రం
శబ్దము@@
పాపం
మోసం@@
ధ్వ@@
సాగించ@@
పద
ప్రాధాన్యత@@
అందిస్తున్న
కొరటాల
నూతన@@
ఇతరుల
బెట్ట@@
పిల్లలు@@
సైన్యం
పనితీరు
యిచ్చ@@
ఉద్దేశించి
ఊరి@@
దోచు@@
నమస్తే
చర@@
ఇందు
ధోనీ
బలగాల@@
ొచ్చని
ఫామ్
ేతర
మనీ
స్పోర్ట్స్
వ్యవహార@@
టెలి@@
వార్త@@
ాధికారి
లేవ@@
అప్రమత్తం@@
వేసిన@@
న్నింటినీ
పెట్టా@@
వ్యక్తిత్వ@@
పంచుకున్న@@
తారా@@
నుండు
ప్రార్థన@@
కొనసాగుతున్న
దూసుకెళ్@@
చేసె@@
వీలైనంత
అరి@@
శ్రీశైల@@
బయటపడి@@
బాధ్యతల@@
గెలుచు@@
బుల
బుధ@@
చమురు
కష్టపడి
ముక్త@@
ాలన్న@@
వింత@@
వెల్లడి@@
నాన్@@
అభినంద@@
తుందా@@
్యము@@
చంద్రశేఖర్
విశేషా@@
రాజేంద్ర@@
చేద్దా@@
ఫొటో
కొమ్మ@@
వధ@@
విషయము
నన్@@
కనబడ@@
కట్టుబడి
ముద్ద@@
యత్@@
టెన్షన్
కంగా
సీన్@@
భాగాల@@
ంట@@
జీతాల@@
కూల@@
బాలీవుడ్@@
రాజీవ్
పశ్చిమ@@
ార్థ
పటేల్
డౌన్లోడ్
చక్రవర్తి
బ్యా@@
పౌ@@
ఫై
దక్కు@@
చెప్పినట్లు
నిలబడి
బాల్
శోక@@
య్యా@@
తెలుసుకోవడాని@@
పరిశీలన@@
మీటర్@@
మొక్కల@@
దిశ
ఆసుపత్రుల@@
మైనది
చెప్తా@@
కట్టి@@
ఖరీదైన
రెండేళ్ల
గుమ్మ@@
టికీ
ంటున్నారు@@
డబ్ల్యూ@@
శాస్త్రం
కాన@@
నాట@@
కాల్పులు
చూపు
రచ్చ
ళ
రఘు@@
లేదనే
రెస్పాన్స్
గ్రీ@@
దినోత్సవం
ంగి
ప్రయత్న@@
లేరని
బోతున్నారు@@
విద్యాశాఖ
చేశాడు
అనారోగ్యం@@
ప్రే@@
బార్
మోహ@@
సెలబ్రిటీ@@
సహాయక
కర్తవ్య@@
ఇత@@
చేయాలో
వెనక
ఓటమి@@
గెలుపు
ములలో
పదు@@
ఆపిల్
డమే@@
చెక్క@@
దారులు
క్కడ@@
గుర్తించి@@
రూపాయి
విశ్వసి@@
లుక్@@
మిటంటే
హాలీవుడ్
రోజా
నిక్
రుణ
ుట@@
డగు@@
టెడ్
మినహా
భావం
బ్యాం@@
వేవ్
తః@@
వెళ్తున్న
వార్
వున్నా@@
ఒకరు@@
గోప@@
పోతున్నాయి@@
గ్యాప్
హేమ@@
నట్టి@@
సంతృప్తి
గెస్ట్
పోవడానికి
విడుదలై@@
ద్దాం@@
భూముల
తాత్కాలిక
సాగుతున్న@@
సస్పెండ్
సంస్కృత
బయటపడ@@
ాత్మక@@
దీర్ఘ
జరిగి
భాషా@@
డె
అకౌంట్
ేషు
సాన్
గారిని
ముఖ
చంపే@@
లంక@@
ేంద్ర
ించండి@@
కత్తి
ఆదరణ
వాతావరణ@@
ఉంటున్న
విభేదాల@@
సరిహద్దు
కోచ్
వ్యవసాయం
తమిళంలో
జనతా
ఆప్షన్@@
శూన్య@@
టిఆర్ఎస్
చెరువు
భర్తీ@@
కార్డ్
ధైర్యం@@
కరెంట్
దృశ్యాల@@
వెళ@@
సకాలంలో
దిగువ@@
అందరు
సుప్రీంకోర్టు@@
భవన్
స్టోరీ
శారీరక
శ్రీకాకుళం
నాయకు@@
విదేశాల@@
రికార్డ్
గన్
ప్రయాణికుల@@
ికి
షీ@@
తుందని@@
ఇష్టమైన
ఇక్కడి@@
యూత్
డిగ్రీల
విశ్లేషకుల@@
చేసుకున్నా@@
సాక్షి
దేవత@@
యము
అయిదు
బెదిరి@@
అద్దె@@
ముహూర్త@@
రెండింటి@@
రేటింగ్@@
ఆధారాలు
పెన్షన్
విమాన
చున్నాడు@@
విష
ముగియ@@
విజయ్@@
డ్యాన్స్
గులాబీ
తెరపై@@
సంస్కృతి
ముప్పు
సప్త@@
ంటు@@
ాభివృద్ధి@@
నటించి
శ్లోక@@
అవకాశాలు@@
దంతా
వర్షాల@@
క్ర@@
పుట్టినరోజు
నీళ్ల@@
ఉపరితల@@
రింప@@
ఎడమ
మిది@@
బడుతుంది
వార్డు
పులి@@
రక్షించు@@
శీతాకాల@@
బ్రిటన్
పట్టుకున్న@@
రాలి@@
ఆధారిత
బాటు
రాసి
ఉద్యమ
బుక్@@
అశ్వ@@
కార్
జీవో
ంచండి@@
గణేష్
ించుచు
ఉంటుందో
రాశిఫలాలు
వాసన
టకు
సహ
వీడ@@
విటమిన్@@
పనికి@@
తోడ
లైట్@@
నమ్ము@@
హెడ్@@
దుర్మార్గ@@
కాల్@@
లక్షణము@@
పోతున్న@@
త్యా@@
వ్రాసిన
అందువల్ల@@
సహకార@@
దేవ్
ప్రమాణ
గని@@
సివిల్
పాపులర్
ఠ@@
చున్నాను@@
స్తున్నారు
సంతోషం
ఢిల్లీలో@@
రాజకీయాల్లో@@
తరవాత
జారీ@@
షన్@@
ూరు@@
ఆరు@@
మహిమ@@
వెంకట
సాంప్రదాయ@@
ఎదుర్కొంటున్న
చూపిస్త@@
డెస్క్ః
గడుపు@@
సముద్రం
ఫోన్ల@@
తెచ్చుకున్న@@
సాంఘిక
న్యూస్@@
సాఫ్ట్వేర్
పట్టుకొని
నేతృత్వంలో@@
శోభ@@
నిబంధనల
కొక
ఫీజు
కనుక@@
మొదటిసారి
స్వర్ణ@@
కృ@@
ఫ్యామిలీ@@
వడ్డీ@@
అప్లికేషన్
బాధిత
మవు@@
త్రా@@
అభిమానుల
ేంద్ర@@
ఆదేశాల
ాభివృద్ధి
ించుచు@@
అధ్యక్షత@@
భేదము@@
కొనుగోలు@@
ఆయుధాల@@
ఎదురుచూస్తున్న@@
ఆవరణ@@
రాయల్
సందీప్
తీర్థ@@
ముడి
కొట్టే@@
రూట్
చేస్తున్నారు
ప్రగతి@@
తానని
సాధిస్తా@@
అక్రమాల@@
యండి@@
ల్యాండ్
అతిథిగా
యాన్
తొక్క@@
క్రీడా
మహేష్@@
చదివి
చౌదరి
విస్తీర్ణ@@
వైభవం@@
వలయు@@
ందీ
జపాన్
పరిశీలించి
పోరాటం@@
ఓటీటీ@@
క్లబ్
రామకృష్ణ
టౌన్
నీతి
భాను@@
గెలిపి@@
శిల్ప@@
ప్రభాకర్
ాన్@@
గరిష్ట
నగ@@
జనాభా@@
భేటీ@@
నానా
చేసాడు@@
పురుషుల
సంతకం
సన్నివేశ@@
వీధి
ఎందుకు@@
కొంతకాలం@@
బీచ్
నవ్వ@@
ములఁ
త్రయ@@
నాగార్జున@@
అరెస్టు@@
నుండ@@
కమల@@
కళా
ఆస్తుల@@
శుక్ర@@
పించి@@
గతంలో@@
ఇయర్
ప్రకరణ@@
లన్నియు
బడు
చురుకు@@
ఇప్పుడే
చ్
యోగ
పడ్డా@@
దసరా
దేశం@@
గీ
పొలిటికల్
హాల్@@
టమే
మునుగోడు
పడుతుంది
రాజేందర్
సందేశ@@
జనాలు
మెట్రోపాలిటన్
వసతుల@@
వర్గాల్లో
వాల్
ధైర్య@@
భా
తెలుసా
బాగున్న@@
సోనియా
ున్న
గోల్@@
వచ్చాయ@@
స్టేడియం@@
బాలకృష్ణ@@
అన్నింటి@@
మరణా@@
చార్@@
ప్రథమ
చూడండి
రాయి
విభాగ@@
ప్రభ@@
విధముగా
పరిస్థితుల
చుండిరి@@
చూసి@@
నమోదు@@
ఫోర్స్
ముఖం@@
వరు@@
పంపిణీ@@
ఏము@@
ప్రజాదరణ
ఆశలు
చెల్లె@@
గీతా@@
ఉన్నవారి@@
భయం@@
కొల్@@
పిలుపు@@
గట్టి@@
సందర్భ@@
తెచ్చుకున్న
సమ
కొట్టు@@
కార్తీక్
బాధపడుతున్న@@
సమాధానాల@@
మాల్@@
వికెట్ల
ప్రభు@@
దుష్ట@@
బంగార@@
విషయ
పుత్రు@@
బౌలింగ్@@
ఆకలి
వెల@@
రకాలుగా
గవర్నర్@@
శాసనసభ@@
౬@@
స్టర్
ఫ్రంట్
ఐపీఎల్@@
తెర
ఆహారాల@@
వెల్
తెలిసికొన@@
వాదం
దృష్ట్యా
వారే@@
ఉద్దేశంతో
నాణ్యమైన
డొ@@
రుణ@@
చెందాడు@@
సెట్స్
నాణ్యత@@
వేగంతో
శాసన@@
వృత్త@@
గాయం
బృందం@@
కుమార@@
పిచ్చి@@
సముదాయ@@
రెండ@@
మాం@@
నడుమ
యాక్ట్
గిరిజనుల@@
ఇంతవరకు
వల
ేణ
అదీ
దారు@@
ఫలిత@@
కోవటానికి
మండ@@
కుప్పకూలి@@
రంగారెడ్డి
కొనే@@
సరఫరా@@
త్యాగ@@
రాహుల్@@
కథా
ధాన@@
సంయుక్త
ర్థ@@
క్రికెటర్
స్పేస్
సంగ@@
వరంగల్@@
తోపాటు@@
పొర@@
నటన
సెన్సార్
మానే@@
బాయ్
అంత్యక్రియల@@
శిశువు
ఆటంక@@
హృదయ
సైకిల్
జరగనున్న
పల@@
పెరుగుదల@@
రాదని
పెద@@
గంధ@@
టూ
స్వల్ప@@
వర్గ
ఫీల్డ్
ఫోకస్
అడుగుతున్న@@
ఫే@@
కాలమున
శ్వాస@@
దోష@@
స్తుందని@@
కారం
ఇంధన
టెక్@@
టచ్
విజయవంతమై@@
ఉద్యోగాల
తేల్చ@@
అనుష్క
కన్నడ@@
వర్ణించ@@
లేడు@@
నియమా@@
పదో
లాభాల@@
దన
నప్పటికీ
ంచిన@@
గెలిచి
యిన@@
జత
డ్రైవ్
చికెన్
చుఁ
రమేష్@@
దార@@
రచనలు
చూస్తున్న
యాక్టివ్
న్స్
దురదృష్ట@@
దనీ@@
వెంకటేశ్వర్@@
టిక్కెట్@@
చతుర్@@
భాగం@@
గార్@@
నింప@@
కిలోమీటర్ల@@
ఎట్టకేలకు
వీక్ష@@
భాగస్వామి@@
సంబంధాల@@
సహకార
ముక్కు@@
ముచే
రూపం@@
ఏమిటి
మొన్న
కలిగించి@@
దయ
త్రాగ@@
మాయా@@
టైగర్
ఆచరణ@@
గింజ@@
కష్టాల@@
ించాయి@@
రూపు@@
నడప@@
సంతాన@@
ఎవర@@
సాగే
తథా@@
దవాఖాన@@
వసతి
మాయ
ఆస్తి@@
శ్రమ
అంతరాయ@@
టీచర్@@
విధ్వంస@@
కావడం@@
ర్త@@
వస్తువుల
పొడవు
సుధీర్
రత్న
చేయడమే
పెట్టుకున్న
రంభ@@
తేల్చి
శ్రుతి@@
వ్యాక్సిన్@@
ముక్కలు@@
గలిగి@@
కర్త
కుంటా@@
వాయు
కొనేందుకు
పెళ్ళి
అనసూయ
నోట్@@
పరమ
ఐఫోన్
వరం@@
శ్రీమతి
ఇటీవలి
ప్రశ్ని@@
కరుణ@@
సంతాప@@
వేష@@
ఆస్పత్రుల@@
కాపీ
న్ని@@
అనుభవాల@@
టీకా@@
దర్@@
సీత
యూపీ@@
సంతోష్
కుంట@@
నక్క@@
ఐటీ@@
నియా
పాలసీ
ప్రవీణ్
టీజర్@@
నిపుణుల
దొంగ
ప్రచురించ@@
వేతనాల@@
ఊరు@@
నొప్పు@@
బేస్
జబ్బు@@
ఆమోదించ@@
కోరుకుంటున్న@@
నివాస@@
య్యింది@@
విశాఖపట్నం@@
బావు@@
కళ్లు
ప్రయోగాల@@
కళాకారుల@@
బయలు
గూర్చి@@
లోనూ@@
పోయింది
క్రి@@
న్నీ@@
రాగ@@
స్వప్న@@
ఎలాగైనా
నివాసం@@
నాలుగు@@
పోయెను@@
నగరాల్లో
కళ
గారూ@@
పండ్ల@@
ప్రాయ@@
ఆకర్షణీయ@@
వాయిస్
బాక్స్
ాంశ@@
ించారని
అభ్యర్థుల
యింగ్
అంతేగా@@
కేర్
హనుమంత@@
న్నది@@
నిలిచి
స్వాతంత్ర్య@@
సహా@@
రవ@@
నిధి@@
యః
నట్లే@@
తుల
ాపురం
అగు@@
ఎకరాల@@
వంగ@@
తీర్మానం
అనుభవి@@
రుణం
వింత
నౌక@@
ఆండ్రాయిడ్
రాజ్యం@@
చుకొని
నందుకు
ట్రెండ్
బెట్టి
కాలు@@
రహస్య
వాసులు
నాం@@
వెళితే@@
మీరు@@
లేకపోయారు@@
చ్చే
కేటాయింపు@@
సైట్@@
ప్రతిష్ట@@
చెత్త
ినేని
మాదిరిగా@@
మాత@@
కార్ల
ఆశించిన
శృంగార
ఫండ్
ఐపీఎస్
నివారణ
టర్కీ
చీర@@
నిరుద్యోగుల@@
కాయ
అనుకూల
భాగవత@@
క్షన్
వేట@@
చోట@@
పెడు@@
సమాన
ముగు@@
ఫంక్షన్
ట్విటర్@@
అత్యుత్తమ
దూసుకు@@
లేం@@
కలెక్షన్స్
ఔట్
రాకపోకల@@
కన్నుమూ@@
ధన్యవాదాలు@@
తెచ్చిన
రాయలసీమ
భావము
రహ@@
అనారోగ్య
వులు
పోరాట
సాం@@
నెట్వర్క్
దగు@@
వహిస్తున్న@@
పశువుల@@
ండే@@
ఇమేజ్
నరేష్
చేయి@@
గోదావరి@@
త్వాన్ని
ందన్న
అసాధారణ
కోవాలి
భాస్కర్
ప్రసిద్ధ@@
తెప్ప@@
భంగ@@
శ్రీనివాసరావు
నెం@@
పండిత@@
సోదా@@
ఆదర@@
అంటా@@
యాన్@@
పోసి
డిస్@@
మార్కెటింగ్
ఇబ్బంది@@
చేస్తాడు@@
గది@@
వాళ్లు@@
నిందితుడి@@
మూడేళ్ల@@
చెందుతున్న@@
లర్
త్రి
అర్హత@@
హాఫ్
బాలయ్య@@
రాధ@@
రేంజ్@@
ుగా@@
పదవీ
విడత
తలుపు
ములతో
పరిశోధకుల@@
పొడవైన
ఆరాధ@@
ఎస్టీ@@
లేను@@
లింగ్@@
గుర్తించిన
ఉత్పత్తుల
పసుపు@@
ఒక్కొక్క
భాగస్వామ్యం
నాఁడు@@
సరళ@@
సర్ప@@
శైలి
జీబీ
అడవి
ప్రయోజనాల
గ్రే@@
ఆధిపత్య@@
కూరగాయల
ప్రభాస్@@
ప్రవాహ@@
అందం
భిన్నమైన
పురుష
పంజాబ్@@
ఎమోషనల్
మార్కెట్లో@@
సానుకూల@@
చీకటి
విగ్రహాల@@
వెబ్సైట్
యంత@@
నియా@@
బెట్టి@@
చెక్కు@@
పర్యటిం@@
నాధ@@
రికార్డుల@@
ఆదిత్య@@
కొన్నారు@@
విజయాల@@
దళ@@
విజృంభి@@
రీతి@@
సౌందర్య
దరి@@
బృంద@@
యర్@@
తీసుకునే@@
స్పీకర్@@
వుండే
సులభం@@
అభిమాన@@
ప్రాంతం@@
వివరించి@@
శబ్దా@@
మోడల్@@
ఇంగ్లండ్
జాయింట్
ందు
చేయ
తెలియదు
శుద్ధి
కుంటు@@
సెక్రటరీ
వ్య
పొందే
అంతటా
యున్నారు@@
క్రింద@@
జయ
మహ్మద్
రాల@@
సేవకు@@
ఒక్కో@@
ఛాయ@@
భయంతో
పుట@@
క్రూర@@
నింపు@@
ిస్తాడు@@
క్రాస్
మళ్ల@@
దినము@@
ఎస్సై
వల్లనే
పోయా@@
పోతారు@@
మొట్టమొదటి
గాడు@@
వార్డు@@
లెట్
రావడం@@
వైన
వంతు@@
ఆశ్రయ@@
గ్రహించి
ప్రసిద్ధి
దాడుల@@
నాయకుడు@@
ఇదీ
గమని@@
కలప@@
క్లా@@
తృ@@
నడిచి@@
సమాచార
సీరియల్
జ్యోతి
ఇన్స్టాల్
పెళ్ళి@@
బాహుబలి@@
ఆస్పత్రి
వైపులా
పువ్వు@@
నట్టు@@
తను@@
జట్లు@@
ఆకర్షణ@@
దర్యాప్తు@@
డిపాజిట్
వత్స@@
తిరస్కర@@
ఖాతా@@
సగటు@@
దశాబ్దాల@@
సన్మాన@@
దిగువ
ఆడియన్స్
మున్సిపాలిటీ@@
జనుల@@
దీర్ఘకాలిక
కఠినం@@
ఎన్నడూ
తీర్మాన@@
చేసుకొ@@
మార్క్@@
పోకుండా
మామూలు
రంగులు
నిండా
వతి
హిమ@@
అనుబంధ
ఎదుర్కొంటున్న@@
పర్యావరణ@@
ధ్యాయ@@
సంతరించు@@
అజ్ఞాన@@
రొమాంటిక్
అదానీ
కాపు
సమగ్ర@@
ట్ల
కొచ్చాడు@@
ళి
బడెను@@
టైం@@
శవ@@
ందంటే
క్రొత్త
లోని@@
సమస్త@@
గ్రేటర్
ఉంటుం@@
గంభీర@@
ఎకరాల్లో
వివరణ@@
ఒప్పుకో@@
జన్మ
క్రితమే
బాడీ
మవుతున్నాయి@@
వెళ్@@
మీర@@
ంగ
ధా
హిందీలో
కాసేపు
జాత@@
ఇస్తున్నా@@
ముక్కు
గ్రేట్
ంచాలి@@
నీడ@@
సార్
పీసీసీ
వర్ణన@@
గర్భం
గొంతు@@
తప్పనిసరి
చ్చిన
జక్క@@
అసంతృప్తి
లిక్కర్
మంగ@@
మయ్య@@
లేము@@
ఎంపీపీ
విడత@@
ఆలయాల@@
దుర్గ@@
నచ్చిన
మేక@@
బాద్
పాకిస్తాన్@@
ఏం@@
తమ్మ@@
పిండ@@
తొలగించి@@
అరుదు@@
కూడదు
వేశా@@
భిమాన@@
భిక్ష@@
ఉన్నారు
ఆరుగురు
దై
పడ్డ@@
నిత్య
లోపల@@
ీయ
చదరపు
శాస్త్రి@@
వెంకట్@@
భార@@
నిండి
పొందిన@@
స్కోరు
ాపూర్
కప్@@
వాస్తవాల@@
గరిష్ట@@
లయిన
గ్రామంలో@@
బడినవి@@
చెబితే
ఇస్@@
చూచు@@
వాత@@
వ్యూహాల@@
చెబుతున్నా@@
కార్య
గమనించిన
నిలుపు@@
ండే
చ్చి@@
పూను@@
మెజారిటీ
చింది@@
వేడు@@
ృ@@
ట్రేడ్
బానిస@@
రచించిన
లర్@@
సంగ్రహ@@
లోకం@@
ముక్క@@
ాత్మ
అడిగితే
సుబ్బ@@
మనోహర@@
సమ్@@
ర్యాలీ
విజ్ఞాన
భవన
బాట
ఐదో
రప్ప@@
ఆకలి@@
పూర్వక@@
కార్యదర్శుల@@
దాం@@
ముడి@@
బిజీ
గలిగిన
స్వీయ
తరు@@
గంగా@@
తిమ్మ@@
ఆం@@
అగర్వాల్
ంబ@@
జనవరి@@
పొంది
నాటక
అవసరమైతే
తెలిపారు
ప్రతీ@@
రెచ్చగొట్ట@@
టీమిండియా@@
కస్టమర్ల@@
ఇంటర్వ్యూ
ప్రతిభ
మాస్టర్@@
ఓడించ@@
షాపింగ్
రై
పదము@@
హైదరాబాదు@@
క్షి
నియోజకవర్గ@@
సంఘాల@@
మాట్లాడటం
ప్రమాద
ఖమ్మం@@
వతి@@
పరిపూర్ణ@@
అర్బన్
బోతుంది@@
జెప్ప@@
గాయాలు
ఊపిరి
భామ
వివాదాస్పద
గుడి
పల్లవి
ధ్వంసం
చెప్పింది
నీల@@
మెయిల్
పాఠశాలల@@
పట్టుదల@@
లంబ@@
వేగవంతం
కుదర@@
ప్రవేశం
పరిశ్రమల
నమ్ముతా@@
ఆయన్ను
బాహ్య
అలవాటు@@
వారానికి
బీజ@@
చూస్తూ@@
గుణ
జీవితం@@
ఉంచి@@
ధిక@@
వ్యవహారాల
జోన్@@
బ్యూటీ@@
ఇంగ్లీష్
స్తుందా@@
మేధస్సు@@
మున్న@@
పడతాయి@@
పూర్తయిన
బర్త్
ఎపిసోడ్@@
అడ్డుకున్న@@
పద్యము@@
తులసి
ంచలేదు@@
రుచికరమైన
్యం@@
కొబ్బరి
ధ్వని@@
చేశారని@@
ఆప్షన్
మంతయు
గిల్@@
వేంకట@@
అసంతృప్తి@@
దుల
శ్రీలంక@@
ఆల@@
సూపర్@@
అభిప్రాయం@@
మెదక్
ఓటీటీ
బెల్లం@@
జీవి@@
తర
అమ్మాయిల@@
ఎలక్ట్రానిక్
మొదట@@
సంబంధ
గడు@@
కోరుకుంటున్నా@@
అశ్విన్
మెసేజ్
ప్రభువు@@
కంప్యూటర్@@
దం
ఆరంభ@@
నటీనటుల@@
తీసుకువచ్చి@@
శో@@
పోతూ
సిద్ధమై@@
చక్కటి
మహేశ్
జగనన్న
వినియోగి@@
మాత్రం@@
భాష్య@@
సాగర@@
అన్నం
భాగస్వాముల@@
శాస్త్రము@@
ఛార్జ్
వేడుక
బహుళ
నెలకొన్న
రహిత
అప్లై
చూస్తున్నా@@
కలలు
రెస్టారెంట్@@
సేకరణ
చేతుల
వేయడం@@
వైఎస్ఆర్
తత్వ@@
ఎమ్మెల్సీ@@
సంశయ@@
మచ్చ@@
భిన్న
ాత్@@
వాక్@@
బ్రతి@@
దర్శ@@
పరోక్షంగా
వ్యవహరించి@@
స్కూళ్ల@@
ావు@@
చలి@@
కొట్టుకు@@
ఆయనే
నగదు@@
వేర్
కలిశారు@@
యోగా
తనం@@
జీహెచ్ఎంసీ
వేత్త@@
కోలేదు@@
ఇన్స్టాగ్రామ్@@
ాణి
చిట్కా@@
దారుణ
గొని
శాస్త్రీయ
ఉద్యమాల@@
వెలి@@
వెళ్లడం
రెడీ@@
భౌతిక@@
కారుడు
న్యూజిలాండ్
దేమో@@
వెలు@@
ఇస్తూ
ప్రోత్సాహ@@
దీన@@
సంఘ
చంద@@
మెరుగుపరచ@@
రిజర్వ్
గమ్య@@
డైన@@
రించి
వ్రాసి@@
చేసినా@@
అవుతుంది
టాప్@@
అలరించ@@
విశ్లేషి@@
భీష్మ@@
ఆర్ఆర్ఆర్
ుడ@@
ానికీ
జొ@@
తథా
పతాకం@@
ప్లేయర్@@
బంధు
పేపర్@@
ఎట్టి
మినీ
శ్రీదేవి
ప్రవర్తన
రమణ
అట్లు
ధి
వైన్
ప్రసన్న@@
బదిలీ@@
నమస్కార@@
విజయనగరం
ించింది
ప్రదేశ@@
పొడిగ@@
కిడ్నాప్
కిషోర్
రవీంద్ర@@
చక్రం
యివ్వ@@
వంశీ@@
పాయ@@
రౌ@@
ఉంచి
అనారోగ్య@@
దీప్
ప్రభుత్వాల@@
పప్పు@@
బుట్ట@@
శంకుస్థాపన
తైన
పచ్చి@@
గం
స్పూన్@@
బాధాకర@@
ఆగ్రహ@@
తరబడి
అంగుళాల
చెడు@@
క్షమించ@@
డబ్బుల@@
ఇంక@@
చూపిస్తున్న@@
చాప@@
శాస్త్రం@@
చూడటం
పుస్తక@@
ఏంటి
కార్డులు
క్కు
గట్టు@@
గాయపడిన
సాహిత్యం@@
తల్లిదండ్రుల
నిరూపించు@@
ానని@@
విడ@@
లలిత@@
ఇప్పటికి
క్రియా@@
చూపుతున్న@@
లేకపోతే@@
సంవత్సరము@@
ఉక్కు
మెదడు
ట్రైలర్@@
స్వీకరించి@@
తాడు
పరమేశ్వర@@
డర్@@
న్నాయని
ప్రీతి@@
ద్ది@@
లేదంటూ
పోయిందని
వర
వెళ్తు@@
కోమటిరెడ్డి
రివర్స్
వేటు
బ్యూరో
డ్రా
రాముని
ాంధ్ర@@
వర్క్@@
వూ@@
కోరిన@@
మనస్@@
పీఎస్
జ్ఞా@@
శక్తుల@@
కన్ను@@
ుడి@@
షె@@
నడిపి@@
సీమ@@
బుల్@@
శతాబ్దం
యుప@@
నీవు@@
౦
ఆర్బీఐ
బోయి
బాణ@@
సమ్మె@@
మాట్లాడే@@
ట్రిక్
పెరగడం@@
దాన
ఫ్యాక్టరీ@@
సందేహ@@
హెచ్చరించి@@
నోట్ల
ఫీజు@@
టాస్
నమూనా
కలుసు@@
పుట్టిన@@
మనల్ని
సమ్మె
యూట్యూబ్@@
ఆర్టీసీ@@
మద్దతి@@
పురస్కార@@
అధినేత@@
బ్యాక్@@
ఫేస్బుక్
అనుమాన@@
జగన్మోహన్రెడ్డి
ఫ్యాషన్
దంత@@
కదిలి@@
తెలుపు
మామిడి
ష్టా@@
సీఎస్
వ్యవస్థాపక@@
పొందే@@
వ్యాక్సినేషన్
డని@@
గోరు@@
నిరాకరించ@@
యెన్@@
విలీనం
ప్లేయర్
పూర్వకంగా
కేజ్రీవాల్
శాసనసభ
బులు@@
వర్ణ
అనూహ్య@@
క్తి
నిరంతర
పెంచి
పరిశ్రమల@@
నెట్టింట
స్టోర్
కాలానికి
డ్రైవింగ్
స్తుతి@@
పుస్తకం@@
పాయింట్ల
భామ@@
సొమ్ము@@
మాత్ర
ఆశ
సుబ్రహ్మణ్య@@
ఒక్కరు
సంఘం@@
స్క్రిప్ట్
పోరు
కార్పొరేషన్@@
వ్యాయామ@@
టీఎస్@@
బును
ప్రీమియం
మేల్@@
నిరాశ
దనం
మండలి@@
మాట్లాడి
జబర్దస్త్
నాయకుడి@@
స్క్రీన్@@
మెయిన్
కనుగొన్న@@
వివాద@@
బలము@@
రోగ@@
బాహ్య@@
రకుల్
వెం@@
చేపడుతున్న@@
ొద్దు@@
గ్రహింప@@
కున్నా
అంతస్తు@@
జట్లు
ఉంటుందని@@
ఓట్ల@@
జడ@@
తరగతి@@
లోపలి
దివంగత
నామినేషన్
కావ్యము@@
ఆఖరి
వలెనని
కారము
జియో@@
ప్రమోషన్
అంటూ@@
క్రియేషన్@@
స్తుంటే@@
సూచనల@@
ఉపయోగి@@
చెడి@@
సంగీతం@@
కుంటాడు@@
డిగ్రీ@@
స్థానాలు
ఁడ@@
సులభం
రోడ్@@
నెలా
పాము@@
ద్యా@@
వెంకట్
భాగస్వామి
మిశ్రమ@@
పులు
భరత్
ఉద్యోగి
తోట
పరిమిత
ఫీచర్ల@@
ఎక్కి@@
రీసెంట్
పించు@@
బ్యూరో@@
కుర్చీ@@
ాల్సి@@
నగరం@@
చూసుకో@@
సర్గ@@
కొంటూ
ఆడి@@
అన్నిటి@@
వజ్ర@@
పోర్టు@@
వల్@@
దిగుమతి
వీళ్ళ@@
అమ్మవారి
ధన్య@@
బ్యాటింగ్@@
ధర్నా
జెన్@@
ఆవిష్కరణ@@
క్రీడాకారుల@@
పాలెం
మత్@@
బండి@@
పొందుతూ
షార్ట్
సంస్కరణ@@
జీరో
పురాణ@@
ఁగి@@
లోకము@@
కర్ర@@
నుండే
ఎన్ని@@
సాహస@@
క్రికెటర్@@
చ్చె@@
నెలకొన్న@@
కట్@@
యుండు
పదాల@@
బగు@@
నటులు
సొమ్ము
పెం@@
కలిపి@@
కలిగిన@@
మఱి
భగవంతుని
సంక్రాంతి@@
సాక్ష్య@@
గోడ
గొని@@
పత్తి
నేతృత్వంలో
బ్యాటరీ@@
అంది
ఓపెనర్
తెరుస్తున్నారా
మోటార్
కూటమి
స్వీకారం
వాయువు@@
నిక్@@
ించుకొని
పూర@@
కప్పు
కలెక్షన్ల@@
జిత@@
వఱకు
వెళ్లా@@
కన్ను
చిత్రాల
యిం@@
దీపావళి
దేవుని@@
విభజించ@@
బీహార్
త్తమ@@
పౌర
వీర్య@@
ంచుకుని
ఒక్కటే
గుర్@@
చ్చే@@
వార్తల్లో
ాధి@@
రోగనిరోధక
రాజ్యము@@
పటిష్ట@@
నిర్వహించడం
తుం@@
మెరి@@
ముల్@@
గుంపు@@
లింగ
పల్@@
చర్మ
చేసికొ@@
అరు@@
పరస్పర@@
ఆర్ట్స్
గను
ప్రపంచకప్
బోర్డ్
త్తర@@
బహుమతి
కొంటున్న@@
బంధం
వస్తున్నా@@
ఆంగ్ల
జరగడం
కారం@@
రంటే@@
యవ@@
కార్యాచరణ
మ్యాచు@@
పరువు
ంటూ
కోడి@@
ర్లు
వస్థ@@
అర్జున్@@
ప్రశ్నిస్తున్న@@
గుంట@@
పోస్టుల
వ్యత్యాస@@
రోగ
క్రమము@@
విద్యుత్@@
చదువుతున్న@@
ఇంటెలిజెన్స్
వలసిన@@
పునః@@
స్సు@@
పొడ@@
వైఖరి
బస్
నీచ@@
తగ్గించు@@
పునరావృత@@
థ్రిల్లర్
ఆశ్రమ@@
ఎందరో
ప్రవర్తి@@
రాజీనామా@@
చుట@@
వాటా@@
తస్య
ముద్దు
అవగాహన@@
జింగ్
గుండా
కధ@@
పక్ష
రూపొంద@@
సైనికులు
్ర@@
మరుసటి
విశ్వ
ధ్వజమెత్తారు@@
ట్రి@@
బగు
ఆఫ్@@
వలయు
సిక్సర్@@
శత్రువు@@
అందజేయ@@
ప్రియ
కొంతకాలం
ఆమోద@@
తాత్కాలిక@@
వేదాంత@@
నెల్లూరు@@
గాయాల@@
ఫైబర్
రామయ్య
కదల@@
సవరణ
పరిసర
మామూలుగా
విముక్తి
బలి
యుగ@@
ాక్ష@@
ట్లే
పోరాటాల@@
సేవ్
అహంకార@@
దుర్వినియోగ@@
సత్యం
హన్@@
వేసుకున్న@@
స్థానము@@
పారా@@
శ్రుత@@
అమల్లో@@
విజి@@
ప్రయాణం@@
తినే@@
నన్న@@
ప్రేరేప@@
సార్వత్రిక
ఎస్సీ
మిత్రుల@@
శ్రీనివాసరావు@@
పదాలు
దనే
డాలర్ల@@
గలిగి
పార్లమెంటు@@
ఉత్@@
ట్రై@@
జంతువుల@@
పౌర@@
ధోరణి@@
ఆంజనేయ@@
అడిగిన@@
కాశ@@
వ్యతిరేకత
అక్కడికక్కడ@@
గొం@@
ఉత్సాహ@@
మయి
కండరాల@@
డిజైన్@@
శాప@@
సోదరు@@
కమ్
మోతాదు@@
మినహాయింపు
స్తున్నాను@@
మార్పిడి
మృతదేహాల@@
ఒప్పించ@@
జీఎస్టీ
పాల్పడిన
కొన
బిగ్బాస్
చెన్న@@
నోటిఫికేషన్@@
ఉండు@@
సాహిత్యం
విధించిన
వైభవ@@
కూర్చున్న@@
నేని@@
నిండిన
డ్రామా
డెవలప్మెంట్
సహజంగా
నౌ@@
ఆప్
అన్నా
షాక@@
బౌలర్ల@@
అడిగి@@
సెలెక్@@
కాలువ@@
వృద్ధుల@@
ాంధ్ర
దై@@
బొమ్మ
ఇంజినీరింగ్
నచో
శరీరంలో@@
ప్రముఖ@@
నాగ్
చెక్క
చూశారు@@
నివసి@@
హూ@@
మార్గదర్శకాల@@
దేశము
కఠినమైన
కోవాలంటే
శిష్యు@@
కవుల@@
సర్వీసు@@
గలిగే
లేదన్న
యథా
వచ్చునని
ప్రదేశ్@@
యడం
భారతదేశంలో@@
ఁడగు
జిన్@@
క్య@@
ష్య@@
యూజర్
రేవంత్@@
లక్షణాలు@@
లిన్
విలువల@@
ింపఁ
స్వార్థ@@
పొరుగు
ఐదేళ్ల@@
తెల్లవారుజామున
కాశీ@@
పుట్టు@@
చ్ఛా@@
తమన్నా
డ్రెస్
యాడ్
కల్పించి@@
బౌద్ధ@@
మార్గాలు
భూషణ@@
కూతురు@@
మార్కెట్ల@@
వెనుకబడి@@
ఆచార్య@@
సికింద్రాబాద్
చెల్ల@@
పట్టింది@@
డాలర్లు
రని@@
సినీ@@
ఉత్తీర్ణ@@
వల్లి
రజనీకాంత్
ఇంకే@@
లీల@@
అద్@@
సిట్
వివరాలు@@
ఆనందం@@
పత్తి@@
ముగ్గు@@
పర్వ@@
నెస్
పెట్టేందుకు
రోజులపాటు
కలిసిన
క్కి
సుఖము@@
కట్టడి
ంతు
థ
తము
నిజంగా@@
పోసి@@
ఎస్టేట్
కొనసాగిస్తున్న@@
ఇన్వెస్టర్@@
చరిత@@
పెట్రోల్@@
వస్తుంది
ధర్నా@@
సంచలనం@@
నిశ్చయ@@
కవితా
వాదన
ేశ్వర
అనుభవం@@
జ్ఞ
విషాదం
జనాల@@
దుల@@
ఖ్య@@
నడుస్తున్న@@
నెంబర్@@
మైదాన@@
పెట్టె@@
రహదారుల@@
ఎరుపు
కన్వీనర్
ావ@@
యాం@@
నిజానికి@@
అదృశ్య@@
ప్రాంతాల్లో@@
ప్రజాస్వామ్య
కింగ్స్
లండన్
అరుణ్
పలుమార్లు
శ్యామ్
గంజాయి
ఏదీ
స్తాము@@
పరిమాణం@@
పరిమాణ@@
వాగ్దాన@@
పోర్@@
బంగారం@@
చూసా@@
ద్దరు
ధీర@@
ఆర్టికల్
వత్@@
ట్రే@@
రెట్టింపు
వాగు@@
ప్రయోగం
గలిగిన@@
డైలాగ్@@
శాలి@@
పథకాల
స్మృతి@@
అమ్మవారి@@
కరీంనగర్@@
కోల్పోయి
బహుమతుల@@
మిలియన్ల
సమర్ధ@@
బోవు@@
ప్యాక్
నిండు@@
విధుల@@
అజిత్
శా
ంజ@@
తీసుకోవడం@@
బద్ద@@
విమానంలో
అగ్ర
దట్ట@@
విధాలుగా
వాడే@@
చె
రిజర్వేషన్@@
ముగఁ
నప్పటికీ@@
డెన్@@
సామాజిక@@
భాగము
రేసు@@
ాడ@@
వెలిగి@@
అత్యున్నత
స్కోర్
మొదలుపెట్టి@@
కస్టమర్
డేవిడ్
మోస్ట్
మామ@@
నిపుణులు@@
కుమారి
బెదిరింపు@@
పిదప
ప్రోత్సహిస్@@
విందు
బద్దలు
ఖర్చుల@@
అందించడం
వేస్తూ
రాని@@
ఎగ్జిక్యూటివ్
ప్రత్యామ్నాయ
విశాఖపట్నం
తిన్న@@
ఒప్పందా@@
పితృ@@
జీతం
సహస్ర@@
ప్రో
కావాల@@
రిపబ్లిక్
యూరోపియన్
ుతున్నారు@@
తెలియక
ళా@@
తాత@@
బ్రాహ్మణ
గ్యాంగ్
జార్@@
వేస్తే
ంచగా@@
తిప్పు@@
కర్నూలు@@
తినే
ములను@@
ంటికి
సీన్స్
దయా@@
మాణ@@
ధ్వని
యంత్రాల@@
విశ్వాసం@@
వేయడానికి
నరు@@
నమః
మూత@@
అద్భుత@@
యునైటెడ్
చేష్ట@@
జన్@@
మనోజ్
కాపీ@@
వచ్చెను@@
మరణం@@
తేజ
మ్యాన్
ఐదు@@
రాజ్యసభ@@
ళ్@@
నిరస@@
కొ
విద్యాసంస్థ@@
కార్మిక@@
ఉక్రెయిన్@@
వృత@@
ఇలాంటి@@
తమ్ముడు
బొగ్గు
ాలపై
లయ@@
ఉత్తరప్రదేశ్
నడుపు@@
చేనేత
తున్నారని
అఖిల@@
కోణంలో
కోర్@@
చార్య@@
వెన్నెల
మవుతాయి@@
యువకుడి@@
విస్తార@@
మతం@@
అన్నట్లు@@
ఒకవైపు
గద@@
అమ్మా@@
యంత్రాంగం
ిం
సాగిన
ఒమిక్రాన్
పఠ@@
రూపా@@
సర్వా@@
హాజరైన
డేట్@@
నోటి
శివా@@
అందుకే@@
పోవడం@@
సద@@
నిర్మల@@
మేనేజ్మెంట్
కోవిడ్@@
ఉపసంహరించు@@
పలక@@
విపక్షాల@@
విన్నా@@
తున్నది@@
మెదడు@@
ఫిబ్రవరి@@
హామీల@@
బట్టే
వెళ్లిపోయి@@
ాత్
ఫౌండేషన్
ఊర@@
ఇంజిన్
చెదర@@
పులి
సురక్షిత@@
కథనం@@
కాదన్నారు@@
పర్వత
సూత్రాల@@
విఫలమ@@
శుభ
బో
మండలాల@@
హరీశ్
విభజన@@
పురాణా@@
యూజర్@@
భాగాన్ని
క్త
పెట్టడం@@
బ్రి@@
జారి@@
సిస్@@
లీడర్@@
తేల@@
ద్వితీయ
విమాన@@
దూకుడు@@
నవ
ఝ@@
పేదల
ైః
ఉగ్ర@@
క్రీమ్
కిషన్@@
రనే
మనవి
కడు@@
కేటాయించిన
దర్శనమి@@
శిర@@
వాన్@@
బుగ్గ@@
ఎరువు@@
దేవాలయాల@@
సమర@@
ముంబయి@@
యందలి
మఱి@@
చిత్రీకరణ
సంరక్షణ@@
రెస్టారెంట్
లభించే
ప్రయోగ@@
విశ్వనాథ@@
మూలం
చావ@@
పోషిస్తున్న@@
నిర్ణీత
పేక్ష@@
పొల@@
వార
రహస్యం@@
స్పందించి
ఆపరేషన్@@
మేఘ@@
ఫైల్
స్టూడియో@@
ంటో
మూడేళ్ల
నుండె@@
పాదా@@
మమతా
వుతుంది@@
లెన్@@
ఎదిగి@@
పురి@@
రౌండ్
వెలువడ@@
తగ్గించి@@
డబ్బింగ్
పరిణామ@@
పోవుట@@
రేపింది@@
జన్మించిన
అవకాశం@@
ఫుల్@@
చేయించ@@
దన్న
పరిశీలన
కట్టు
ప్రొడక్షన్@@
భారతి
పించి
జరుపుతున్న@@
కనిపించిన
ఆస్కార్
విదేశాల్లో
బిడ్డల@@
దేవతలు
తాగి
మహీ@@
నానా@@
షాట్@@
మరణ
ధన
అందుచేత
మాత్రము@@
దుర్గా@@
నివాళులర్పించ@@
రికి
ఆనాటి
నయ@@
టైన్
తేనె@@
లేకున్న@@
అభివర్ణి@@
విరిగి@@
నూరు
చర్మం@@
కల్పిస్తున్న@@
త్తు
చేతను
దేవత
సరస@@
జనం@@
క్లియర్
నిలబెట్టు@@
వారని
ఆస్తులు
పవర్@@
అనుభూతి@@
గాడు
అన్యాయ@@
స్పందన@@
అధ్యయనాల@@
చాట@@
నడుచు@@
రోడ్లు
అకాడమీ
జానపద
నిజ
రచనల@@
యితే
తెల్ల
క్రీడా@@
సంబంధం@@
సూచన
సదా
ంటు
వెనక@@
ప్రకాశ్
పంపిన
ేష్@@
వ్యయ@@
ించ
బ్రాండ్@@
గెలిచి@@
చేతను@@
కస్టమర్@@
తీవ్రత@@
పొద@@
కంటెస్టెంట్@@
డైలాగ్
పొద్దు@@
పాల్గొనే@@
పదార్థము@@
అర్చక@@
మయింది@@
రణ్య@@
సీఎస్@@
బతుకు@@
వాణిజ్య@@
ముగ్గురి@@
ంపు@@
నోట్
సభ్యత్వ@@
పనుల్లో
దేవతా@@
పదిహేన@@
ఎంట్రీ@@
తెరపై
బాధపడుతున్న
దూష@@
ఆటగాడు
గురై@@
కోత@@
ప్రబంధ@@
హీరోయిన్స్
ఫామ్@@
శాత@@
చక్కర్లు
షు
రవీంద్ర
హాల్
పాల్పడుతున్న@@
కేశవ@@
పూజా@@
ముట్ట@@
కాన్ఫరెన్స్
నదీ
రాజ్య
తీసుకుంటుం@@
విస్తరణ
నీళ్ళు
సోవియట్
సహకరి@@
బోయపాటి
అట్లే
సాంకేతికత@@
ంపఁ@@
గర@@
రోగులు
ఉద్యోగం@@
ఉరు@@
మహేశ్వర@@
డవు@@
సంధి@@
తాప@@
రావాల్సి@@
స్థలాల@@
ప్రాజెక్టుల
వీల్@@
కుడి@@
భారత్లో@@
రోడ్ల
మునందలి
తిలక@@
ఆచార@@
ఇంజన్
క్రైమ్
పండితులు
ఉత్తరప్రదేశ్@@
చేసుకోవడం@@
తద@@
కూతురి@@
కూల్@@
ఆసీస్@@
సవాళ్ల@@
దక్ష@@
సురేష్@@
ఫ్యాన్స్@@
తున్నాను@@
చట్ట
సామూహిక
ఎపి@@
ఎలాగ@@
వల్లభ@@
విరమణ
సరిపడ@@
పూ
లాల@@
నెట్వర్క్@@
శివసేన
ఆవు@@
వైద్యుడు
ఆస్@@
అందర@@
దేవాలయ@@
అధి@@
లేమని
వనరుల@@
కొను
మయి@@
నిష్ఠ@@
పిలిచి
పీఎస్@@
కనక@@
మెట్రిక్
రక@@
పాస్@@
గండ@@
ప్రాప్త@@
తనయుడు
స్వభావం
కోర్
బౌలర్@@
చుట్టుపక్కల
కంటె@@
దిగు@@
రాజ్యాంగ@@
మూవీస్
కడప@@
గుర్తి@@
సుశాంత్
వసంత
మహీంద్రా
తనకి
శెట్టి@@
రసా@@
టీచర్
మున్న
గంటి
అదుపు
కన్య@@
సముద్రంలో
చౌ@@
స్త్రీల
లత@@
తగు
వెయిట్
బస్సుల@@
పీల్చు@@
ఆధారంగా@@
విదేశాంగ
చెల్లింపు
ఏవ@@
బాబా@@
హిందీ@@
పద్మా@@
చావు@@
భావించిన
తురు@@
మిస్@@
మస్@@
నాట్య@@
గోచర@@
తిప్పి@@
వృత్తుల@@
లక్షలాది
వేలం
బలు@@
వేశాడు@@
సన్నద్ధ@@
యోగా@@
మూడో@@
సియా@@
టూర్
ప్రభువు
ఆపే@@
పండగ
వ్యయం@@
సమ్మ@@
ప్రయత్నాల@@
క్లీన్
త్యాది@@
వేదా@@
ఛానల్
లీటర్
జరిపి@@
సంవత్సర
సామాన్యుల@@
మెరుపు@@
ఫ్యాక్టరీ
సుధాకర్
నాటకాల@@
లాండ్
దారిలో
రక్షి@@
మలయాళ
నాథ్@@
ఇస్తున్న
స్త
రె
రిస్క్
మూసివేయ@@
స్వాతంత్య్ర@@
దారితీసి@@
కోస@@
పడతారు@@
క్షేత్రం@@
పేర్కొంటున్న@@
భీ@@
అతీత@@
అవినాష్
రాజస్థాన్@@
భాగము@@
న్నట్లు
వ్యాధుల
వెన్న@@
ఆసీస్
కూర్పు
కొరియా
సులు@@
గోపీచంద్
భ్ర@@
జాబ్
కేంద్రాలు
కారక@@
చేయండి
రన్@@
బహిర్గత@@
స్థలంలో
తిరుగుతున్న@@
భారతదేశ
ఒకటే
చూచి@@
సూత్రము@@
వెర్షన్@@
పాలసీ@@
డీఎంకే
కూర్చొని
షి
ఎర్@@
పరిధి
ఆనాడు
పత్రాలను
చూపిన
యెట్@@
వాళ్ళు@@
కావున@@
నర్
రేట్ల@@
గేమ్@@
జల్@@
ఏజెన్సీ
సర్దుబాటు
పారదర్శక@@
పర్యవేక్షణ@@
కాన
విద్యార్ధుల@@
తెలియు@@
మేవ
సారీ
ంచారు
విశిష్ట@@
ంలో@@
దేమో
పౌరుల@@
చేరే@@
విప్లవ@@
ఈమె@@
ఎదుర్కొన్న@@
కోల్కతా@@
శని
క్కడ
తాగి@@
విదిత@@
కావ్య
కథనాలు
పెంచిన
కూటమి@@
రామా@@
సూచన@@
కరెన్సీ
నిశ్చిత@@
ఇంటర్నెట్@@
సేవా@@
మావోయిస్టు@@
పట్నం
డోర్
యూఎస్
నవల
ఉ
వోల్@@
ద్దీన్
తేనె
విరామం
కానున్నాయి@@
ఖు@@
ర్యా@@
సెయింట్
ములై
లేటి
కాకినాడ
రాజమౌళి@@
అన్నట్లు
భ్@@
వాణి
చెల్లించి@@
ంట్
కొంచె@@
రియల్@@
బోర్@@
నాఁడు
భగవ@@
విద్యార్థి@@
రసం@@
శ్రవణ@@
స్తంభ@@
స్క్@@
యుండు@@
బ్యాంకుల
శరీరం@@
రాలు@@
కథానాయిక@@
యాపిల్
శతాబ్ద@@
దశాబ్దాల
నల్లగొండ
టిడిపి@@
ఫలితంగా@@
మానస@@
పొర
ంచిరి@@
పర్వత@@
కవిత్వ@@
బెంగాల్@@
విందు@@
శరత్
చంద్రబాబునాయుడు
బిల్@@
బెట్టు@@
వెళుతున్న@@
బీసీ@@
గ్ని@@
వీరిద్దరి
్ని@@
రంగా
కులం
వేర్@@
ఎగువ
ఒడ్డు@@
కేంద్రాల
ఎంచుకున్న@@
ద్వా@@
అడ్డ@@
ఫిదా
పిచ్చి
కపోయినా@@
పాము
ఎంపికై@@
ానంద
ఏజెంట్@@
ఫ్యాన్
సౌలభ్య@@
భాస@@
మృ@@
అనా@@
వద్దు
కొనుగోళ్ల@@
కోడి
ఏప్రిల్@@
పర్యాయ@@
నన్ను@@
గణాంకాల@@
గురవుతున్న@@
సిం@@
నటుడు@@
చాలామంది@@
ఇత్య@@
గలి@@
మహాభారత@@
షుగర్
రైడ్
పోయారని
నమోదైన
ఎన్ను@@
సిఐటియు
సింగరేణి
పాకిస్థాన్@@
ప్రారంభోత్సవ@@
పూర్తిస్థాయి@@
సమర్పణ@@
కిరీట@@
కొనుట@@
కాళ్ల@@
వస్తు
ంద్రియ@@
నిర్ధారించు@@
వైద్యుల@@
ఉండబో@@
దమ@@
సంబరాల@@
ప్రమోషన్స్
కాళ్లు
పూస@@
రెక్క@@
ఎస్టీ
డను@@
డాన్స్
ఏవ
ప్యాకేజీ@@
శతాబ్దం@@
ఉదా@@
రూమ్@@
ప్రీత్
ఏవైనా
జీవనం
చాన్@@
డ్రామా@@
లారీ
మధ్యప్రదేశ్@@
ఈయన@@
బే
పగ@@
బొత్స
జెట్
ాడో
పార్థ@@
జర్నలిస్టు@@
తేల్చి@@
అబ్@@
వస్త్రాల@@
శ్రేణి
సొసైటీ
పరుస్తుంది@@
రస
విశేషము@@
బాడీ@@
వాలా
కౌంటర్@@
వికాస@@
మాస్క్
కప్ప@@
నిర@@
ఉల్లిపాయ@@
యాస@@
చున్నాఁడు@@
దము@@
ఫార్@@
బహుమతి@@
నియామకాల@@
క్షయ@@
బాస్@@
ఎదగ@@
పూల
అడవుల@@
లోటు
మాని
ఎవ్వరూ
పక్కన@@
ప్రవాహం
బోధన@@
వాస్తవ
భవ
ఎంతోమంది
వాక్యము@@
చెత్త@@
యంత్ర@@
ప్రత్యర్థి
సంక్షేమం
పాపా@@
సంక్షోభం
జపాన్@@
రాయ్@@
మంచు@@
సరైన@@
శంఖ@@
చేయక@@
మొదటిసారి@@
మునుపటి
ఏకగ్రీవ@@
జప@@
దమ్ము@@
ఘర్షణ@@
యల్
ప్రయోగించ@@
పీడ@@
యది
పండగ@@
టకై
బంతి
యోగము@@
మొగ్గు
మెం@@
పుల్
ఇన్స్టిట్యూట్
మెప్పించ@@
దుండగుల@@
ప్రజ@@
రకాలు
లిస్ట్@@
సామర్ధ్య@@
అప్లికేషన్@@
స్తారా@@
ఉంద@@
అనుభూతి
అమ్మే@@
వాసి
సులు
ణీ
నువ్వు@@
స్వదేశ@@
కల్యాణ్@@
ఘటనా
అడ్డంకు@@
పెరగడం
నిపుణుల@@
విస్తరి@@
మలుపు
ఎంటర్టైనర్
ఆభరణాల@@
ణాం
స్పందిస్తూ@@
ట్విటర్
ండ
తడి@@
నెల్ల@@
ంటున్న@@
ఆదాయ
బడుతున్న@@
ఊర్@@
శృతి
చదివా@@
సీజ్
తప్పి
కోలీవుడ్
రసము@@
గళ@@
హృదయము@@
యస్
మాత
కలయిక@@
వస్తారు@@
స్టైల్
టాస్క్
కుంటున్నాయి@@
ప్రాథమిక@@
నాయక@@
కాళేశ్వరం
సంస్థాన@@
వీధి@@
తివి@@
అలియా@@
చేప
ఆశిస్తున్నా@@
ఆదిలాబాద్
డీజీపీ
ఆలోచిస్తున్న@@
నిర్మాతల@@
గేమ్స్
బ్లూ
మునిసిపాలిటీ
జీవితంలో@@
దోషము@@
లోప@@
హెగ్డే
కొరి@@
మున్నగు
ఓడిపోయి@@
నలుగురి@@
కూట@@
ద్రా@@
కొనుక్@@
ద్రు@@
పర్
పోతుందని
వాడికి
మాల
లాడ@@
ఱ
విక్రయాల@@
అలవాట్ల@@
జరగనున్న@@
నష్టపోయి@@
జన్
రూపకల్పన
ంగు
ెవరూ
లెన్స్
వైఎస్సార్సీపీ
ర్ప@@
ఎంతటి
ఏళ్ళ
కైవసం
పుల్ల@@
తత్ర
శరవేగంగా
ప్రొఫెషనల్
రౌండ్@@
ఏదేమై@@
కాశ్మీర్
టన్@@
ఫిలిం
చేయనున్న@@
తప్పే@@
చేరిన@@
న్నది
ఓటర్ల@@
ఏరియా
పేర@@
రామారావు@@
కరెంటు
లొ
క్యూ
పంటల
ఫ్లో@@
యూరో@@
ఈవో
ఎప్పటి
ాలనుకుంటే
కొలి@@
వణికి@@
సాధించు@@
నిర్లక్ష్యం@@
యింత@@
అద్దె
నాటక@@
ఢీ
టర్కీ@@
ఇంకె@@
వినిపించి@@
చేతుల్లో
బాంబు
ఆచరించ@@
అయ్యి
అంశాల
ప్రచురించి@@
రసాయన
పాయింట్ల@@
ఆమోదించి@@
ఫలము@@
మధ్యప్రదేశ్
కంప్లీట్
తాము@@
గేట్
కట్టే@@
ఫైనాన్స్
అయోధ్య@@
సంపాద@@
రాశుల
బంగ్లాదేశ్
ణి
పిలుపు
ఒ
విన్
శ్రీధర్
చేయుట
మధుమేహ@@
అమితాబ్
ప్యాకేజీ
బయటపడ్డ@@
గ్ర
ఫాలోయింగ్
రామానుజ@@
వాస్తు
రాయలసీమ@@
ఫలితాల
ప్రదేశం
ఆస్వాదించ@@
నిరుద్యోగ
కాల్పుల@@
సంజయ్@@
తిరుగుబాటు
చోటు@@
ప్రభు
రీత్యా
పడటంతో
పాద
యాదాద్రి
కేరళ@@
కుర్ర@@
వల్
ట్రస్ట్
భాగాలు@@
ఎండి@@
తెలంగాణా@@
ాః@@
వ్యవ@@
త్రైమాసిక@@
విశ్లేషణ@@
ప్రియమైన
మద్య@@
దుర్యోధన@@
కేటాయిస్@@
డెడ్
మత్స్య@@
సేల్
తరువాతి
మెంటు
విషయాల్లో
మీఁద
ప్రతిభా@@
స్వరూపము@@
శ్లోకము@@
అబ్బ@@
నవ్వి@@
నుంచో
కొన్నా@@
భావించి@@
దేవుడి@@
కవులు
గలరు
కిరణ్@@
ధనం
కట్టిన
వనరుల
చివర్లో
కొడాలి
చేకూర్చ@@
ందరి@@
పద్యాల@@
నెత్తి@@
ద్రాక్ష@@
తాగడం
జగత్@@
ుండై
తోడ్పడ@@
అభినందనలు
ాధ్యక్ష@@
బ్రహ్మానంద@@
వీల్
ళు@@
ఎదుర్కో@@
పరిచారు@@
ప్లాట్@@
నగర్లో
పర్సనల్
పురుషుడు
చదివిన
దాడులకు
ఎడిటర్@@
గడ్డ
మిరియాల@@
విభు@@
ధ్యా@@
య్యే@@
భవన్లో
రివ్యూ@@
రతి@@
ిణి
వైన@@
ఇవే
తయారుచేసి@@
అవయవాల@@
అత్యవసర@@
కుమారి@@
ప్రాణ
ముప్@@
ాల్లో@@
మానసికంగా
ప్రాచీన@@
పెను
కశ్మీర్
పయన@@
వారం@@
గ్ని
శె@@
జవాబు
విరి@@
స్థూల@@
సమృద్ధి@@
డర్
కమిషనర్@@
స్పర్శ@@
చాట్
ుడైన@@
కొనుట
తులు@@
చార@@
ఁగి
విజయసాయి@@
కమ్యూనికేషన్
చచ్చి@@
నిర్వచ@@
వార్నింగ్
వ్యక్తం@@
కవిత్వం
మద్య
పరమాత్మ
కలెక్టరేట్
బియ్య@@
చెడ్డ@@
ధర్మం
కొవ్వు@@
శ్రీనివాస
లపై@@
గాయాలయ్యాయి@@
ార్థము@@
పాం@@
ఎడ@@
నిలబడి@@
కాల్స్
పోల్చి@@
మిత@@
ప్రసంగం
పం
చ్చాడు@@
సాక్షాత్@@
అప్పగిం@@
విస్తరించి@@
పాపము@@
ప్రాముఖ్యత
నటుడిగా
ెడి
మిషన్@@
కనిపించే@@
వేణు@@
స్టెప్@@
నంది
దన్న@@
తావు@@
మాటలు@@
ెద@@
వీడి
మ్యూచువల్
ఉండట@@
సీబీఐ@@
బ్రహ్మోత్సవ@@
ఉద్దేశ్యం@@
పూర్తవు@@
ఆరి@@
వాల@@
ెను
యాలని
లోనే@@
పరాక్రమ@@
చుండ
ఎంటర్@@
మానవు@@
ఘాత@@
నిజాయితీ@@
లబ్ధి
ంచకుండా
నమ్మి
హద్దు@@
మంత్రుల
సోదరి
ఉగ్రవాద@@
అల్లరి
ఎగుమతి
విమానాశ్రయం
ఏమై@@
లేషన్
వివిధ@@
ఐశ్వర్య@@
ఊరు
నేమి@@
నేపధ్యంలో
బహు
ఋ@@
ఇవి@@
ఉండేది
గుట్ట@@
ఉత్తరా@@
విషాద@@
శోధ@@
బీఆర్ఎస్@@
ప్రతిపాదించ@@
ఆదిత్య
వం@@
మానవుల@@
వహిస్తున్న
జరుగుతుందో
చారి@@
ణం
పరిగణలోకి
దారు
ధ్వజ@@
సత్యము@@
బరు@@
స్టాప్
నాం
ఏంటంటే@@
ట్రె@@
సేకరించిన
ఆర్ఎస్
రట@@
ఆహ్లాదకర@@
కాలేజ్
కొర@@
రక్తంలో
సూక్త@@
సచివాలయ
నాలుగేళ్ల@@
మవుతున్న@@
డెన్
ప్రామాణిక
ప్ర్రా@@
సందర్భము@@
కల్పించే@@
కోవాలని@@
జీవ
రించు@@
యున్నా@@
యూపీ
పేలుడు
పిలిప@@
ఆదా
బంద్
రూపము
నియమి@@
సము
ఎదురై@@
టరీ
ఇళ్ళ@@
కసరత్తు
తెరాస
ఫ్రెంచ్
మోద@@
విచారించి@@
సింహా@@
రీమింగ్
సేకరణ@@
లీటర్ల
అందించడం@@
ఫ్యూ@@
కత@@
రాన్
వాణి@@
దిల్లీ@@
స్టేషన్ల@@
కోవడమే
తోందని@@
వింగ్
ఫ్రెండ్@@
ద్రవ@@
కల్లా
లక్ష్మణ్
ల్లి@@
రిపోర్ట్
ఉపరితల
ట్రై
చౌదరి@@
పిల్లి
మధుర
వరకే
ణము@@
కోరిన
సీపీఐ
మధు
అధ్యక్షుడు@@
పోరాడు@@
స్థాపించి@@
హెయిర్
ముఖము@@
ఎడ్@@
మాస@@
అనారోగ్యం
గూడెం
శబ్ద
గుప్త@@
విరు@@
తల్లుల@@
నిన్న@@
తయారీదారు@@
పించింది@@
సంప్రదాయాల@@
సోకి@@
బడ్డ@@
కరు@@
సంగతి@@
మాస్@@
బీఎస్@@
మందలి
రిపోర్టు@@
తీసుకెళ్లి
లేనని
డమ్
య్యాయని
చెప్పు
తాన@@
పంత్
హం
మృతుల
మైదానంలో
కెక్క@@
కల్గి@@
మూలక@@
ఉరి@@
పాన్@@
పదార్థం@@
పరిచే
యుద్ధము@@
దశకు
కోత
పట్టిన
మత్త@@
కొన్నాళ్ల@@
టీం@@
వెయ్య@@
జరిగాయ@@
మిని@@
తేట@@
అబద్ధ@@
ుటకు@@
సైనికుల@@
రీతి
వైర్@@
వ్యాసం@@
విడుదలై
న్నాడు@@
గ్రీన్@@
ఫేమ్
లేట్
జేయు
పక్షము@@
వంక@@
లైవ్
నన్
వుంటాయి@@
విత్
సేనా@@
ఏండ్ల
బాహు@@
ఇన్స్టాగ్రామ్
లంక
కేక్
వాది
విండో@@
వైడ్
ద్వీప@@
భాజపా
వడంతో
సన@@
గోవా@@
బజాజ్
తంత్ర@@
హోస్ట్
గ్రూపు@@
పెండింగ్
కావాలనే
ఉన్నట్లు@@
నందున
ప్రాంతము@@
తగిన@@
మగ
బంతుల@@
గడ్డి
ఆర్డర్@@
యున్నవి@@
పరిగణి@@
జను@@
పాడి
సై
ఓటింగ్
మరే@@
మిటి@@
స్టె@@
దూకుడు
మున్నది@@
టింగ్@@
ఆస్తుల
రహస్య@@
పార్కింగ్
ప్రాక్టీస్
లోపే
ప్రకటిస్తా@@
ప్రకారము
జేసీ
రెచ్చి@@
బూట్@@
శరణ@@
విఫల@@
పాలకులు
బసవ@@
జీవి
తనకంటూ
పద్మ
దుష్ప్రభావాల@@
యల@@
మెల్లగా
పూరీ
వాటిల్ల@@
వశాత్తు
ఏర్పడ్డ@@
కనుగొ@@
విశ్లేషణ
చంపు@@
అప్పగించి@@
ఇద్దర@@
శివారు@@
సీఐ@@
ననియు@@
రాళ్ల@@
ించె
నయం
ఆవిడ
కారణ
వుంది
వదిలిపెట్ట@@
చెలరేగ@@
మాస్కు@@
మరిచిపో@@
ఆశా@@
పాక్@@
వం
పడుతున్నా@@
సెప్టెంబరు
ప్రాణము@@
ల్డ్
పాలిత
రణ
అసలే
గూడి
వెళితే
ోద్యమ@@
విడువ@@
గుడ్లు
సానుభూతి
ఎక్@@
తని@@
తాత్పర్య@@
ాన్నీ
అనిపించు@@
ణా
చెబుతున్న
నిర్వర్తించ@@
పట్టణాల@@
కమ్యూనిస్టు
అంబ@@
విస్తరణ@@
వాయ@@
ఎర్రబెల్లి
పొంగు@@
పట్టణం
మేజర్
ప్రియుల@@
అదానీ@@
ఆకుపచ్చ
బోలె@@
డిఫరెంట్
బొం@@
భే@@
వేణు
మెంబర్@@
దాల్@@
ఇతర@@
చ్చారు@@
అంబటి
గదులు
స్థానం@@
ోత్@@
లోకేశ్
చంద్రశేఖర్@@
తీపి
యెడ
కామర్స్
వివక్ష@@
దాటిన
ఉపాధ్యాయ
ఓటర్లు
యిది
ధీమా
బాధితుల
తము@@
మానవత్వ@@
వస@@
త్యాగం
రికవరీ
పౌరులు
సవరించ@@
ప్రై@@
ఎత్తి
కల్వకుంట్ల
నెక్స్ట్
ఇన్నాళ్ల@@
పాక
చెప్@@
సిఫార్సు@@
పరచు@@
ర్వ@@
యెడ@@
గన@@
గర్
నైతిక
ఒంటి@@
సందర్శకుల@@
చెవు@@
అబ్దుల్
ాణి@@
పాండవుల@@
రేమో
ఉద్యోగి@@
తుందా
జేబు@@
ద్రోణ@@
ఆర్టీ@@
వారై@@
ైజేషన్
అనుబంధ@@
ింతురు@@
ప్రతాప@@
నెవ్వ@@
వేదన@@
చూచిన@@
ఏక
బాగో@@
అందం@@
వేతనం
మారే
ైన@@
స్తోందన్నారు@@
లాంచ్@@
రమ్య@@
మాస్కో
నాశ@@
రిటైల్
కుక్కల@@
గుండెల్@@
ప్రైజ్
పుట్టి
ష్టి@@
సమాజ
యుక్త
టీపీసీసీ
సభా@@
బావి@@
చర్చించు@@
భవిష్యత్@@
వె
నేటి@@
౭@@
అంటారు
కార్డ్@@
పావు@@
జాడ@@
సర్కారు@@
జిమ్@@
పశ్య@@
పుర
బ్యాండ్
పాల్పడి@@
ప్రద@@
తట్టు@@
గ్రహం
ఇతని
నల్గొండ
కొట్టింది@@
కీర్తన@@
నాటు
వందలాది
కమ్ము@@
ెత్తు@@
రంగుల
ఎంపి@@
అదుపులో
ఇల్లు@@
ప్రేమికుల@@
సమితి@@
మవ@@
పాల్గొనే
సంచలన@@
కాబో@@
వర్షాకాల@@
నెక్@@
గమనించి
తున్నాడు@@
శుద్ధ
క్రిస్@@
ట్లేదు@@
కృత
అబ్బాయి
ఉత్తేజ@@
వదలి
తలసాని
ఆడుతున్న@@
ఫ్రెండ్స్
వంతెన@@
పెడ@@
క్రిమినల్
అభినందనలు@@
భి
వైకుంఠ@@
యావత్
ఉంటుందన్న@@
చెప్పుకో@@
కథలు@@
గోధుమ
సామర్థ్యం@@
ఫోర్స్@@
డెస్క్
కాలంలోనే
నెహ్రూ
రాబట్టి@@
అనుమానం@@
చేయవలసిన
ప్రతిపాదన
వ్యాపించి@@
తేమ
నాగబాబు
ఖనిజ@@
ప్రసవ@@
పరుగెత్త@@
కొట్టారు@@
బౌ@@
క్క
గె
మహమ్మద్
చేకూరు@@
లండన్@@
అవే
ఆహ్వాని@@
యిష్ట@@
అవసరాల
జరిపి
ించాడు
హానికర@@
సీక్వెల్
బంపర్
బెనర్జీ
నిబంధన
నొంద@@
యాన@@
మాట్లాడిన@@
దాసరి
అనడం@@
సిన@@
వీడి@@
యెను@@
మెటల్
ధోనీ@@
నియమ@@
ఆదాయం@@
సేన్
చిత@@
రిక్
నడుస్తున్న
కట్ట
ప్రజల్లో@@
నిజాం
శాల
ొచ్చు
ధోరణి
బర్
జర్మనీ@@
ప్లాంట్@@
నేమి
బతక@@
పొడు@@
దత్@@
ద్రవ్యోల్బణ@@
ఱు
అంగన్వాడీ
కార్డుల@@
హార్డ్
దక్షిణాఫ్రికా
రాష్ట్రాల్లో@@
తీరి@@
పోయ@@
పసి@@
య్యాక
రైతాంగ@@
స్వాతంత్య్ర
బయలుదేరి@@
వాహనదారుల@@
రేపటి
డన్న
ప్రతీక@@
సమాధి
ఒకరోజు
షణ@@
విశ్వసనీయ@@
ంచగా
భోజన
వ్యూహ@@
అన్వేషి@@
లూరు
రిజర్వేషన్
సెర్చ్
వేధించ@@
వస్త్ర@@
స్తోందని@@
జం
పట్టిక@@
చెద@@
ణ్ణి
బాలు@@
చ్చెను@@
చెప్పినట్లు@@
దేహము@@
పోషించిన
పాలెం@@
వదిలేసి
రోజా@@
శి
తిరుగుతూ
సమాధానం@@
ఒప్పుకున్న@@
ఉందా
సన్నిహితుల@@
శత్రువుల@@
ుడని
కొలువు@@
ఇంజనీర్@@
స్మర@@
క్రింది@@
త్తము@@
దేశీయ@@
కాస్@@
బౌలర్
ట్రిపుల్
దాచి@@
పాక@@
ార్@@
ప్రత్యేకత
ఇంధన@@
మనో
వరస@@
కార్యా@@
మాధ్యమాల@@
విమర్శి@@
ఖండి@@
విప్ర@@
సీట్ల
రాదు
కపూర్@@
దెలియ@@
బాద్@@
నివాస
విఫలమై@@
బయటి
నాక@@
ఆకుల@@
మల్@@
పిలి@@
సెక్@@
చక్రవర్తి@@
వయ@@
ెడు
సంతోషం@@
స్పష్టం@@
స్స@@
వైకాపా
కొంద@@
మణ@@
రోడ్ల@@
అప్పుల
రాతి
సాగర్@@
మాంస@@
ఐదేళ్ల
ఏజెన్సీ@@
జోడీ@@
సూత్రం
వాచ్య@@
రేడియో
వినియోగం@@
మైతే
దక్షిణా@@
పరిమిత@@
ధోని
కొక@@
ఖ్యా@@
అక్టోబరు
సిద్ధమవుతున్న@@
కంటెంట్@@
మిన్@@
సూర@@
నిర్మించు@@
చేపల
వాడిని
వ్యూహం
నటించే
ింగ్@@
రంగా@@
క్ష
డిసెంబరు
కరిగి@@
సత్యం@@
రాబట్ట@@
కేరళలో
క్రో@@
అండర్
విస్@@
తుది@@
మలుపు@@
గాజు
కరువు
స్తాడని
స్టేట్@@
దంపతుల
తీసుకోవాల్సి@@
విల్@@
టట్లు
వర్తింప@@
వర్ష
భయాందోళన@@
ఉపయోగిస్తున్న@@
విప్ప@@
చుండ@@
పోల్చ@@
లాంగ్
లత
పరిరక్షణ
ధర్మము
నరక@@
అడ్డం@@
నడిచే
విషయాల
నవసరం
పెద్ది@@
దాఖల@@
ఇతడు
బెర్@@
డయ్యె@@
పగల@@
చెప్పఁ@@
క్షేత్ర
అలరి@@
బంద్@@
శక్తులు
కణాలు
భూషణ్
పరిస్థితుల్లో@@
ఎండీ
జట్ల
ఆరో
లోకం
ఆర్ట్
పున@@
సంబ@@
వినూత్న
క్రైస్తవ@@
శైల@@
లిం@@
అభ్యంతరాల@@
అల్లూ@@
చూడు@@
ఇందులో@@
నార్
దర్శక
పొందడం
ఫుడ్@@
సిద్దిపేట
ఘట్ట@@
సహించ@@
స్టాలిన్
స్వేచ్ఛ
యాక్సెస్
కోవాలనే
చదువుతున్న
వేళ్ల@@
దివ్యాంగ@@
చెప్పగల@@
శబ్దము
ఁడే
అకస్మాత్తుగా
దల
హాజరవు@@
భంగం
స్టైలిష్
త్తి
ముఖ్యమంత్రుల@@
వెను@@
మౌనం@@
విద్వాంసు@@
పిక్చర్@@
ద్వార@@
మెల్ల@@
భాస్కర్@@
ష్ట
కంటే@@
అనురాగ@@
కలా@@
రంగుల@@
ఆశయ@@
బండ్ల
స్ఫూర్తి
రాజీ@@
నొక్కి
చిన్నారి@@
ాశ్రయ@@
గెలుపు@@
సంప్రదింపు@@
శిల@@
రంగం@@
పొదుపు
లౌ@@
ప్ల@@
తగ్గించే@@
దినోత్సవ@@
అధ్యయనం@@
బిగ్@@
పెంచడం
యాభై
బాంబు@@
దుబాయ్
నిర్మాతలు@@
అనువర్తన@@
ఇమ్రాన్
మగుట@@
ద్వయ@@
మిత్య@@
రేకెత్తి@@
సుజుకి
మయ్యే@@
ముఖా@@
రింగ్@@
పరం
అఖిల
సాంగ్@@
మీదికి
టెస్ట్@@
స్టు@@
సైన్యం@@
సూటి@@
తక్షణ
మనుషులు
మండలాల్లో
వాయిదా@@
సేవలంద@@
మీటింగ్
రేఖ
యన
ందున@@
ప్రీమియర్
మోడ్@@
ాము
లవ్@@
వెనక్కు
చడం
మొక్కల
ఉన్నట్టు@@
ఎంబీ@@
వాలా@@
కోడ్@@
తాత
చర్
నేరం
మైండ్
వాహిక
ాధిప@@
ఉచిత@@
హంస@@
పంచుకు@@
ఏసీబీ
నభి@@
పూర్త@@
లోచన@@
పెట్రో@@
సుకుని
లేచి@@
సవరణ@@
బావ@@
వంక
తగల@@
ింపు
గదిలో@@
నున్నాడు@@
భిః
అధ్యాపక@@
దక్కించుకున్న@@
ొచ్చ@@
గతం
కలవర@@
డీల్
క్యాన్సర్@@
ప్రాసెస్
ఎక్సైజ్
కురిసే
జూచి@@
ిచ్చారు@@
హెర్@@
జనక@@
పోవును@@
కాలా@@
శబ్దం
దీపం
సుంక@@
వడం
కోల్కతా
కులాల
సంవత్సరం@@
ఆరంభం@@
బహిష్కరి@@
తుండ@@
అనుబంధం
సమంజస@@
సజీవ@@
ప్రసంగం@@
నియమం
విచ్ఛిన్న@@
లైసెన్స్
సిల్@@
వరు
విశాల్
యజమాని@@
పడ్డారు
లెవెల్@@
లక్@@
బీబీసీ
బ్రహ్మాండ@@
సంబంధము@@
వసు@@
పరిమితి
వ్యవసాయం@@
చుండె@@
తపస్సు
అచ్చ@@
లేవు
ముంబయి
సర్పంచ్@@
మృదువైన
విన్యాస@@
నివసించే
తెలప@@
సేయ@@
జీవో@@
వేయు@@
గ్రామము@@
పెండ్లి
ాలనుకునే
వేయాలి@@
ట్రో@@
వైయస్సార్
గాజు@@
రాజగోపాల్
కాన్
నయనతార
నృ@@
ఫ్రాన్స్
నొక్క
నాటు@@
భూత
విసిరారు@@
లంకార@@
డ్రెస్@@
స్వీకరి@@
వేసుకొని
తామే
బల్ల@@
పాలక
దున్న@@
ఇల్@@
ప్రస్తావన
ేశ్
బాయ్@@
జవ@@
సర్వత్రా
పడలేదు@@
మూత్ర@@
ప్యాసింజర్
తెరిచి
ప్రభాకర్@@
ఆడి
వాయి@@
ూర్
ఇంగ్లండ్@@
ఆకార@@
కార్యక్రమాల
కాళ@@
జగన్నాథ్
సీఈవో
రంగస్థల@@
సీక్రెట్@@
ఫేక్
వెన్ను@@
లగ్న@@
నివసిస్తున్న@@
తెలియజేసి@@
వెల్లుల్లి
క్రోధ@@
ఖాతాల్లో
ఆపి@@
ఆధారపడి@@
స్నాన@@
పెండింగ్@@
ధృవీకరించ@@
చుచు
డ్రా@@
తేజ్@@
దంతా@@
గ్రౌండ్@@
రాళ్లు
బల
ఎగ్@@
గొల్ల@@
పరమా@@
యాక్@@
జైల్లో
నార్త్
ండ్
మోగి@@
వికెట్ల@@
యూని@@
వడ్డి@@
పెట్టుబడిదారు@@
సెషన్@@
అఖండ
గడిప@@
కృప@@
కార్యాచరణ@@
కొల@@
టచే
సమీకరణ@@
ఛార్జీ@@
ఉత్సాహం
మహారాజు
స్తుంటుంది@@
ఎగ్జి@@
డిస్కౌంట్@@
వదిలించు@@
హౌ@@
చెర@@
అక్క
బడ్డారు@@
సర్టిఫికెట్@@
రాజుల
బీచ్@@
నిశ్శబ్ద@@
ఆకాశం@@
గ్రహణ@@
తరంగ@@
తీసుకుంటున్న
పాదాల@@
పూర్ణ
చేస్తారు
రచ్చ@@
స్టే
వేసుకో@@
పచ్చి
రేపుతోంది@@
నిలబెట్ట@@
టెక్నికల్
పాశ్చాత్య
కష్టమే@@
ఇసుక@@
ించటం
రామకృష్ణా@@
గుండెపోటు@@
ఉస్మానియా
సిలిండర్
జలాశయ@@
నష్టం@@
సోకిన
వేలం@@
అభిషేక్
మీట్
జయలలిత
ఉపాధి@@
పడక@@
జనా@@
వేదికపై
పార్లమెంట్@@
గడువు@@
వేరియంట్@@
కమిషన్@@
నడి@@
స్వాగత@@
తమ్@@
అఫ్@@
పళ్ళ@@
సేకరించి
వహ@@
ఉపవాస@@
ఏఐ@@
దైవ
పత్@@
వాన
నోట్ల@@
ఒడిశా@@
శ్రుతి
జ్వరం
పీవీ
తారక్
పడతా@@
తెలుప@@
ఎన్న@@
అందుకో@@
త్రు@@
లీడర్
అండర్@@
యేసు
అమ్మడు
స్వ
కాస్తా
కనెక్షన్
దానం@@
దోపిడీ@@
ోత్సవ@@
దళాలు
పోగా@@
లిఫ్ట్
జనులు
వీరభద్ర@@
చీ
దక్షిణాఫ్రికా@@
తరుణ్
వడి
మయ
ులకు@@
ఎక్స్ప్రెస్
పోత@@
పెడుతూ
బాగుండ@@
యగును@@
సెటైర్@@
ధరించిన
ఎర్ర
కారణమైన
సూ
కాలువ
దాస్@@
సంతానం
మంట
వచన@@
కుంటున్నారని
నిర్మలా
మేనేజర్@@
కుదిరి@@
సెల@@
మార్కుల@@
కాలంలో@@
విలేకరుల@@
యెహోవా
దేవీ@@
ట్రాక్@@
ప్రపంచము@@
కున్నాను@@
గుడ్డు
డట@@
పెళ్ళ@@
పిల్
విడు@@
కుప్ప@@
అల్లం
ఇంతకుముందు
ఏమో
ాధికార@@
దారుల@@
జాతుల@@
లిస్టు@@
ట్యాగ్
జమ@@
పథ@@
నిలిచిపోయి@@
ఆశీర్వద@@
పురాణ
రామయ్య@@
కవ@@
తొలగించి
స్వచ్ఛమై@@
రండి@@
పాశ@@
పరిణామం
త్తా@@
ారో@@
జీవుల@@
ుఁడై@@
ఇమ్@@
పుత్ర
దేవీ
ప్రైమ్
క్యాష్
వలెనే
రైట్స్
ఫిట్నెస్
ప్రదాన@@
వెలుపల
రోజులు@@
పోలీసు@@
రాజ్యాంగం
డొక@@
బుద్ధు@@
పార్లమెంటరీ
లోకేష్@@
అతిథులు
కర్మల@@
వారందరికీ
ముఠా@@
సూక్ష్మ
డిజైనర్@@
వెండితెర@@
మనస్తత్వ@@
వెన్@@
ఇంద్రా@@
మనియు@@
సందేశం
క్రిష్
అనౌన్స్
రాక్షసు@@
మార్చే@@
లైఫ్@@
వెంకటేశ్వర
చన@@
మాల్
సహిత@@
పెరుగు
శరీరము
ప్రతిపాద@@
యులు
సంతృప్తి@@
వలి@@
హే
క్రీజు@@
ఫెడరేషన్
ఆగిపోయి@@
పీట
నూరు@@
తృప్తి@@
ఖర్చ@@
ఫ్లాట్
ప్రయాణ
తృణ@@
గ్రో@@
రోగి@@
స్తారో
ప్రారంభించి
గడి@@
న్యాయవాదుల@@
పునరు@@
చూపించిన
దాత@@
టిన్
కావాల్సి
ఫ్లాట్@@
చర్యల
నీలం
అవేంటో
యామి@@
క్షమాపణ
అనువది@@
ఫు@@
హార్మోన్@@
దక్షిణాది
హ్యాపీ@@
మధ్యే
కుమారుడు@@
క్షమాపణ@@
పిడి@@
యోగ్య@@
మరే
విమానాశ్రయం@@
అసహ్య@@
యోజన@@
రూపాయలు@@
మీడియం
జలా@@
సర్కార్@@
జెప్పు@@
హింస
శివాజీ
నిఖిల్
శ్రీహరి
మాధ్యమ@@
యర్థము@@
ిని@@
నారద@@
ఓటు@@
లింక్@@
బతుకమ్మ
శం
నఁ@@
గెల్@@
కోహ్లి
ఎంటర్టైన్మెంట్@@
ఫలము
హాస@@
కోట్లాది
టేషన్
ఇట్టి@@
శ్రీరామ్
నైన@@
బేబీ
నాగేశ్వరరావు
దిగుబడి
ఆగస్టు@@
ఒప్@@
మృతుల@@
కాన్సెప్ట్
సీరియస్@@
చెయ్యి
చుట్టు
నంటే
పైలట్
లాభం@@
సభల@@
సిరిసిల్ల
పొరపాటు@@
రూబిళ్లు
గావించి@@
ఓపెనర్@@
ఉభయ
కన్నీళ్ల@@
ఫ్లాప్
పరిష్కరి@@
చీకటి@@
ప్రీతి
ురాలు@@
థాంక్@@
నామినేట్
మోహన@@
పుకార్ల@@
దుఃఖము@@
షియల్
మెర్@@
తక్కిన
అంగీకరి@@
గృహా@@
స్థాప@@
పూరిత@@
ప్రమోషన్@@
నార@@
కుంటారు
ఘర్షణ
ప్రాప్తి@@
పోవడమే
ఇట్ల@@
ఎముక@@
పాణి@@
ఆలోచించి
రంధ్ర@@
రించి@@
సంజీవ@@
వెంకీ
కెళ్ల@@
ప్రత్యర్థుల@@
గోత్ర@@
బడుచున్నది@@
చిక్కుకు@@
విద్యుత్తు
భగవత్@@
రాల
ఉండొచ్చు@@
వివరంగా
ఎనర్జీ
తెలుపుతున్న@@
ఆదర్శ
సభ్య
వత్
తీసుకొచ్చి
సింహాసన@@
మల్టీ
సైనిక@@
ప్రకటి@@
మోర్@@
తగ్గించడం@@
వ్యవస్థల@@
యువకుడి
మెరుగ్గా
మృదు@@
యన్న
వ్యూహం@@
ఫలి@@
ఇన్ఫో@@
ప్పటికి
గుల్@@
చర్చల@@
పోస్టుమార్టం
పరిమితి@@
ఇస్తాంబుల్
పైసల@@
కృపా@@
ఇంకొక@@
ఆకుల
దేవా
డము
ఉగ్రవాద
దారుల
వర్ధ@@
గిల్
సతీష్
కొనెను@@
గుట@@
గొన@@
వీసా
వివేక్
పారితోషిక@@
ఉదాహరణ
గొట్టి@@
చోరీ
్వా
కోడలు
సియా
పడగొట్ట@@
కోరుకున్న@@
గులు
సాధ్యమైనంత
సెల్ఫీ
బయోపిక్
మృత్యు@@
ంట
పదేపదే
జూ
ఉభయ@@
రిటైర్@@
లోక్సభ@@
కొన్నాడు@@
ప్రఖ్యాత@@
స్వాతంత్ర్య
కష్టము@@
మహాసభ@@
సమాధి@@
భారతీయ@@
నిర్వచన@@
మాత్@@
దేవరకొండ@@
లక్కీ
స్వచ్ఛంద
చిత్తు@@
ఇన్సూరెన్స్
వదలి@@
మంత
మోహి@@
పూర్వము
ుచు
డంటూ
ఆర్టిస్ట్
విద్యార్థిని
స్తామని@@
ఇంతటి
రాజశేఖర్@@
హిందువు@@
చని
డీఏ
ఎగ@@
అవస్థ@@
తీరం
మొబైల్@@
కారణము
హోంమంత్రి
ిణి@@
చేయుచున్న@@
యుత@@
ములయందు
సంగతుల@@
ందరినీ
తుంటే@@
నింపి@@
చును@@
న్యూఢిల్లీ
దట@@
డైరెక్షన్
అలంకార@@
చార్జీ@@
వెల్లడై@@
లోకి@@
భారం@@
బోమని
కంబు@@
కణ@@
వాలి
ఉగాది
గుండు
ప్రాసెసింగ్
అడుగ@@
శుద్ధి@@
వ్యభిచార@@
కార్యకర్తల
మనుష్య@@
తండా@@
కన్నా@@
ఫీల్
అర
అంబానీ
నల్
రిజిస్టర్
నిచ్చి
శివుడు
గోల్
న్నారని
పొలాల@@
హార్ట్
లీడ్
ాంతర
మించి@@
యల్@@
క్యాంపు
మెరిసి@@
తరుణ@@
స్పూన్
భజ@@
నిర్బంధ@@
కార్యము
దూర
అనడం
డ్రాప్
జ్వాల@@
దోపిడీ
చేయటం@@
్యా
పదం@@
లియా@@
పాడి@@
రక్షక@@
రాగి
ఉత్కంఠ@@
డెను@@
స్తాన్
పండి@@
జూడ@@
ప్పుడల్లా
బిల్
బోయ@@
గుణా@@
ధనము@@
నియోజక
అంతు@@
కొంతమంది@@
ప్త@@
క్షత్రియ@@
కాంట్రాక్టర్@@
ఎఫెక్ట్@@
గనే
పోలేదు@@
తెగి@@
ఆకర్షించి@@
మారుతున్న
డాక్యుమెంట్@@
రిషి
అన్
సెర్@@
ధనవంత@@
కోశ@@
కావలసిన@@
బీర్
ఆక్రమి@@
మస్క్
అహ్మద్
మొహ@@
శంక@@
పారు@@
చేయగల
వినోద్
నవంబరు
రవితేజ@@
దిగ్గజ
రాక్
ద్దు@@
గోవా
చేయాలన్న
దూరము@@
పోలి
యార్@@
గేట్@@
వర్షం@@
మిక్స్
నటుల@@
తీర
ఖడ్గ@@
రారు@@
శ్వర@@
పొలం
అనవసర@@
భయము@@
మతము@@
డివిజన్@@
విచ్@@
మ్యాటర్
భృ@@
గాఢ@@
చేపట్టి
ఆకారం@@
రాజకీయాల
పండ్లు@@
శ్వేత@@
రాముని@@
కోటా@@
మీది
అంతరిక్ష
పున
యత@@
శని@@
కాల్చి@@
ఁబడిన
ఇన్ఫెక్షన్@@
రైతుబంధు
ఎడ్యుకేషన్
హ్యూ@@
ఇంగ్లీషు
తెరుచు@@
వెంకయ్య
కాలనీ
పురి
తుందన్న
సింగర్
కుంటాయి@@
సారా
ఫార్మాట్@@
బాయి@@
ఉరి
ఖాతాదారు@@
తడి
మెడ
డన్న@@
సాద@@
కలిసే
ప్రోటీన్
లగ్జరీ
మొన్నటి
కస్టడీ@@
వెంకయ్య@@
స్టిక్
్యము
స్పందిస్తూ
పదార్ధ@@
ఈస్ట్
మాత్రాన
వీరు@@
నంద్యాల
అంతటి
చూపించి
వైపున
సులువుగా
రాత@@
నిచ్చింది@@
సభా
విప్
ట్లనియె@@
దగిన@@
రాకెట్
వుంటారు@@
సాయుధ
రైస్
కాఁ@@
ఎంచుకున్న
పక్షి
డైలాగు@@
ప్రఖ్యాత
విషయమే@@
పనులు@@
అమాయక@@
వద@@
మెల@@
సచివాలయం@@
కొందఱు
శేష
చిట్ట@@
అనుసరించి
విషయా@@
గ్రంథాలయ@@
మిగిలి
గంటా
దోషుల@@
తీసుకెళ్లి@@
కామెడీ@@
వ్రాసి
ననియు
వ్యాకరణ@@
ఆన్@@
విక్రమ@@
రాజేష్
కట్టడ@@
పనిచేసే@@
అనఁగా
త్తె@@
ప్రయత్నించిన@@
తావ@@
ఆఫీసు
మెగా@@
పూడి@@
సన్నిధి@@
గీతా
శైవ@@
పరంపర@@
డిస్కౌంట్
కొల్ల@@
బిల్లుల@@
మోతాదు
వాహ@@
ఆర్ఆర్ఆర్@@
రాన్@@
పీఎస్సీ
గట్ట@@
ఆడే@@
అడవి@@
కొడుతున్న@@
హో
తెల్@@
ప్రాంగణంలో
రికార్డ్@@
తున్నట్లు
చేదు
ఐఏఎస్
అందుకని
తయారవు@@
వర్షాల
అవార్డుల@@
వారాల్లో
సిద్ధి
రద్దీ
కనిపెట్ట@@
సైన్
కిరణ@@
మాదిరి
సాగిస్తున్న@@
థర్డ్
ఇన్స్పెక్టర్
స్కీమ్
లారీ@@
పన్నుల
కవితా@@
ీకరించి@@
మిశ్రమం
క్రిస్మస్
రిక@@
భగవా@@
టెండర్@@
కర్మాగార@@
ఉపదేశ@@
కత్తుల@@
రూల్స్
వెంకటేష్@@
అనుసరి@@
కాడు@@
ముగిసే
ళ్లను
అంచు@@
ధారణ@@
క్రీస్తు
పెంపు
నాలుగేళ్ల
ద్వారం
తుల్య@@
దేవాలయం
ఫండ్@@
ఎగుమతుల@@
గ్రహము@@
జంతువుల
టీఎస్
సౌండ్
పలికె@@
మలి@@
ాంబ@@
తెలియ
ఎవ్వరి@@
డైనమిక్
మహబూబ్
నెల్ల
రాయ
కావాలి
మ్స్
ఫిట్@@
సూచించిన
వన
పాజిటివ్@@
అడ్@@
అక్@@
జోలి@@
తిమి@@
ఏర్పడి
శుభవార్త@@
జడ్జి
మిగుల
బుల్లితెర
క్రొత్త@@
వ్రాసిన@@
కుంటామని
సిమ్@@
స్తాడు
ాలనుకుంటే@@
డియా@@
ఆంధ్రా
ాప@@
పరిహార@@
అసహనం
చేరువ@@
చెబుతూ@@
కౌంటింగ్
పావ@@
నియమించి@@
ట్రాక్టర్@@
పత్రికల@@
పడుతూ@@
స్తారని@@
పరిమితుల@@
పరిపూర్ణ
దాహ@@
సుఖ
వెళ్తే
సతి@@
నిలుస్తున్న@@
చెరి@@
ఉపయోగకరం@@
నాట
అలంకరణ
రోడ్లు@@
సతీమణి
దాసు
నాటౌట్@@
యంత్రం
హృదయం@@
ఈసీ
విశద@@
శృ@@
కొం@@
నొకరు
మహోత్సవ@@
ంతా@@
తగ్గింపు
బైడెన్
దూరం@@
నాత్మ@@
మీఁద@@
మ్యూజియం@@
కలిశా@@
కామన్
నాగేశ్వరరావు@@
యాగ@@
ర్తి@@
పురస్కరించుకుని
కాంక్ష@@
కార్యక్రమం@@
హాజరై
దీయ@@
లక్షణ
లాగి@@
గోల్డెన్
దిగ్@@
దశరథ@@
వేచి@@
పోగా
విలన్@@
చ్చ
సంగారెడ్డి
మసీదు@@
పడేలా
ండా
మరమ్మతు@@
పంచ్
అధునాతన
మనవి@@
పదార్థ@@
నిచ్చు@@
సవాలు
గ్యా@@
దీపక్
కేవలము
తేవ@@
వాయువు
దగ్గు@@
గ్రంధ@@
ఒడిశా
చం@@
జడ్పీ
సర్కిల్
సహజంగా@@
కోకుండా
వాల్మీకి
మ్యాచ్ల@@
పోగొట్టు@@
శిలా@@
మున్సిపాలిటీ
వాచ్
భేదా@@
యాసిడ్
సబ్సిడీ
అమిత@@
ల్లి
వాట్@@
బతి@@
ఁగు
దాటు@@
ఆహ్వానం
క్కి@@
అయన
కటి@@
జానకి
అంతట
ాధిపతి
తారక@@
వాంఛ@@
ఫంక్షన్@@
మసాలా
జంతు
అభిమాన
రిక్@@
ఒప్పందం@@
మంటే@@
ఇంకొక
తై
మేనేజ@@
మర్
స్వరా@@
విసిరి@@
రించారు@@
పెంచడం@@
మిత్ర
ఐక్య@@
ఆశ్రయించి@@
రుగు@@
రాతి@@
మిగిలిన@@
లాల్@@
సమూహం
బుల్లితెర@@
ిస్తాయి@@
నివాళుల@@
లొంగి@@
కలవు@@
సదస్సు
పండ్ల
సుఖా@@
దశలో@@
లేదట@@
పరిశోధ@@
దూత@@
చనిపోయిన@@
క్లాసు@@
సినిమాల్లో@@
అనీ@@
టెన్
జీవన్
గలడు@@
ఆధారాల@@
కలెక్టరేట్@@
ిస్తోన్న
మర్ద@@
చొరవ
కవర్@@
బ్రిటన్@@
సింధు
పటా@@
గణపతి
అవుట్@@
శ్రీహరి@@
భారతి@@
పరంగా@@
సమయము@@
ఉత్పన్న@@
ఫిట్
దౌ@@
విన్నవి@@
బకాయి@@
ఉత్కంఠ
వెళ్ళే
విభాగాల@@
హైలైట్
కూర్చున్న
ెవరో
శ్రీరామ
రావాల్సి
దేవ్@@
రోజంతా
పురోగతి
విడుదలవు@@
ముఠా
కొలెస్ట్రాల్
పుట్టుక@@
ప్రాచుర్యం
రమేశ్
భేదము
కన్నీరు
జగత్తు@@
క్యాచ్
మంత్ర
ట్యాంక్
ాపురం@@
వ్యంగ్య@@
కేష్
దోషా@@
రాజన్న
ఫుట్బాల్
నీల్
ులగు
ఎపి
హుజూరాబాద్
ఒక్కటి
వినాయక
ఇరిగేషన్
వళి@@
శిశు
మెక్@@
గ్రంథ
అనవసరం@@
టైప్
తయార@@
నవ్వు
సర్టిఫికెట్
స్థాయిల@@
మవుతున్న
బీభత్స@@
ాశ్రమ@@
వైద్యుల
పాఠశాలల
ఏర్పడే
నాథు@@
దగు
మొక్కు@@
కరెన్సీ@@
మెట్రో@@
తగ్గట్టు@@
పోలి@@
మది
బహుళ@@
చోట్ల@@
భస్మ@@
లీగ్@@
అనసూయ@@
ప్రబల@@
నిజమే
సాడు@@
ప్రయాణీకుల@@
శయ@@
దుమ్ము@@
్మ@@
ల్ల
సీఐడీ
ుచు@@
కుమారుడి@@
ంపబడి@@
ముగింపు@@
జిల్@@
ప్రకారమే
రోహిత్@@
దర్శి@@
పురాణము@@
ూర్@@
సిద్ధార్థ@@
ఓటే@@
స్టేడియం
కోవడానికి@@
పోతుంది
నిర్దేశించి@@
ప్రతిపాదించి@@
ప్పు
క్రియ
థియేటర్స్
క్లబ్@@
తగ్గి
దుయ్యబట్టారు@@
అవుతూ
ృత@@
అడ్డు
బాధ్యుల@@
న్యా@@
ద్రవ
నిహారిక
గడ్డి@@
రెబల్
చేరే
అక్షయ్
కాస్ట్
బ్లడ్
మియా@@
చెక్@@
బలహీన
సామరస్య@@
ఎక్కడి
పోయాడు
ఉల్@@
ఉంటారు
వాడకం
లాక్డౌన్@@
ొచ్చా@@
పదార్థాల
మిర్చి
ఫిక్స్@@
గ్రామీణ@@
ప్రోటీన్@@
అంతటి@@
దిట్ట@@
రేమో@@
యాత్మ@@
ింది
నిల్@@
కల్పన
బడ్డ
పోల్@@
హార్దిక్
ఆకస్మిక
గడ
ఢీకొట్టి@@
పేరుకు@@
యించు@@
జేసిన
వెఱ@@
వాదుల@@
శ్రిత@@
నేర్పి@@
ఆంధ్రా@@
ఆర్య@@
స్టే@@
ుఁడ
డిసెంబర్@@
టౌన్@@
విషాద
కూలీల@@
నేర్పు@@
కారులు
అరుణ@@
గల్గు@@
పదము
కాళ్ళ@@
మూర్@@
మెంత@@
ాపూర్@@
క్లాసిక్
పురము@@
స్కూటర్
ండ్@@
గోర్@@
శీఘ్ర@@
రేప్
జీర్ణ
జట్ల@@
వాదము@@
నాటకం
డేటింగ్
చేయనున్న
హఠాత్తుగా
డోస్
రేకు@@
ముఖి
సంగమ@@
ఔషధం
సాధు@@
బాగా@@
గురై
దళిత@@
నాయకత్వ@@
యుద్ధము
కల్పించే
చర్చి
లాట@@
పూర్వక
కోచ్@@
కొనుగోలుదారు@@
అసలైన
గురవు@@
కుటుంబాల
మగుచున్నది@@
అరికట్ట@@
ఎవరై@@
ద్యు@@
ఎదురుచూస్తున్న
లీసా@@
స్టర్@@
పొందుట@@
పాటలు@@
సమయమున
త్వమును
ముప్పు@@
చ్చి
మిని
లాండ్@@
సహచరుల@@
రుజువు
అవసరమైన@@
క్యారెక్టర్@@
జాక్
హృ@@
సెంటిమెంట్
అభిషేక@@
తార
డ్యూ@@
నియంత్రి@@
నవ్వుతూ
క్షా@@
చేసుకు@@
పణ@@
ర్హ@@
మ్మా@@
మీనా@@
పరిరక్షణ@@
మహారాజు@@
ేసి
మెద@@
ఉద్భవ@@
మరణించిన@@
సీతారామన్
దశల@@
పక్షపాత@@
ప్లేస్
ఉండవచ్చు
కాంట్రాక్టు
పట్టే@@
పతనం
గ్లాస్
యూనిట్ల@@
సీటు@@
స్టోర్@@
పోవటం
నెరవేరు@@
అనంతపురం@@
బాయి
పరిశీలిస్తున్న@@
కార్యాలయ
వేత్త
పనిచేశా@@
కేటాయించి@@
సాధించడం
చందన@@
ఎంటర్టైన్మెంట్
మంచం
సూర్యాపేట
కమలా@@
మూలంగా
ఎన్సీ@@
సాగుతున్న
జాన్@@
ఒకానొక
కమ్యూనిటీ
పక్కా@@
కిడ్నీ
దార్@@
మార్చుకో@@
యన్న@@
లెల్ల
పదేళ్ల@@
రాయడం
ఆగస్ట్
దహ@@
వాడుక@@
సాహితీ
చుట్టి@@
వాడని
ర్యాంకు@@
సంఘము@@
చెట్ల
సింధు@@
రోగాల@@
సాంప్రదాయ
బాలికల@@
ఎక్కువై@@
కాగితం
అసాధారణ@@
బడా
దర్శన
పటేల్@@
రాసి@@
వైజాగ్
పీసీ@@
ప్రోగ్రామ్@@
లభించిన
అన్నట్టు@@
పరికరాల
ానంతరం
హెూ@@
ఇచ్చారు
కండరాల
విధ
ఎస్ఐ@@
చేతన@@
వైమానిక
వేంకటేశ్వర@@
వాడిని@@
కొనుటకు
ఆటోమేటిక్
జర@@
విలేకరుల
సందర్శన@@
ఓడ@@
పరబ్రహ్మ@@
కామారెడ్డి
లేదన్న@@
వారసు@@
లోటు@@
బయ@@
ముడు@@
సీనియర్@@
సంబంధాల
ఆనంద
షాపు
జాతర@@
ఫైర్@@
కడ
షాట్
కాంగ్రెసు@@
తీరా
కరము@@
నమూనాల@@
అనివార్య@@
పన@@
తడ@@
టెస్@@
విభాగాల్లో
ఈశాన్య
నామా@@
మార్గము
ండ్ర@@
మంత్రము@@
ఎదురవు@@
పెడతారు@@
రించిన
భావోద్వేగాల@@
సత్కర@@
ఫెయిల@@
వాసు@@
నెరవేర@@
సాధించిన@@
పోర్టు
సరుకు@@
తీసుకొని@@
మాసంలో
చూ
కొచ్చిన
సర్కిల్@@
ప్రేరణ@@
ఎయిర్@@
కార్యకర్త
ఫేమస్
త్యు@@
వర్షపాతం
సమా
మంత్రా@@
దగ్ధ@@
డీకే
వాద్య@@
వెళ్ళే@@
ప్రయోజనకర@@
బోల్డ్
శీర్షిక@@
గోపి@@
తిట్ట@@
గోదా@@
ఎట్లా
చేసుకుంటు@@
అధ్య@@
జడ్జి@@
పరిధి@@
అస్త్ర@@
ఉమా@@
సంబంధించి@@
షీట్@@
ిరి@@
కర్నాటక
బాలా@@
ప్రింట్
వ్వడం
కణాల@@
నప్పటి@@
సామ@@
షీ
గోవు@@
ఎన్టీ@@
గేయ@@
రాసిన@@
భూకంపం
బెంచ్
స్టూడెంట్@@
అల్లు@@
జాగ@@
వ్యా
హిట్ట@@
పెన్షన్@@
ంతి
వలసిందిగా
వుండి@@
దనీ
ఆవేదన@@
కలిసొ@@
పాత్రల
గంగా
పంది@@
దార్
సె
ప్రపంచకప్@@
సంబంధము
వెంట్రుక@@
సంక్షోభం@@
జాతుల
తహసీల్దార్
వచనము@@
ప్రోగ్రామ్
సోము
పూజ్య@@
చరణ@@
టిక్కెట్
మరికొంత
కెన్@@
యుండుట@@
ఔట్@@
నరసింహా@@
టల్
హిత
వుంటే@@
జర్మనీ
కొరత@@
బేస్@@
ట్విస్ట్
ఁబడి
చక్కెర@@
ఈజీ@@
మార్గ
పెట్టింది
నూర్@@
మహర్షి@@
జీవితము@@
కులాల@@
కాంట్రాక్ట్
వాదులు
సందేహాలు
కోండి
భూతా@@
తిన్న
శ్రావణ@@
స్టోరేజ్
నీళ్ళ@@
బొమ్మల@@
రాధ
అనేకమంది
పడడం@@
మవుతుంది
చెయ్యడం
పుల@@
తాగునీటి
ఆధునిక@@
సిట్టింగ్
పాల్పడిన@@
హెల్@@
వార్తా
తడు@@
తనము@@
మడ@@
చూడాలి
కాలమున@@
మేమి@@
పట@@
ఎలి@@
గావున
ెడి@@
నొంది@@
మేధావుల@@
బోధి@@
దేవతా
దిల్@@
తగ్గడం
కలపాలి@@
భాస్కర@@
తీసే
ఏఐ
చిర@@
ఉనికి
అశోక్@@
లవణ@@
స్కీమ్@@
కేటగిరీ@@
శశి@@
సీమ
ఆశ్చర్యకర@@
బయలుదేరి
ండ్ల@@
కనెక్షన్@@
పార్క్@@
బోతున్నట్లు
ితే
యుండ
దేవస్థానం
సంక్లిష్ట@@
కేబుల్
పద్దతి@@
శిల్పా@@
చేర్పి@@
యువతుల@@
ఆశీస్సు@@
నాగచైతన్య
అందర్నీ
శారని
ఫేర్
పదేళ్ల
కేశ@@
శీత@@
దెబ్బతిన్న@@
నాశన@@
జార@@
మేకప్
ంటా
ప్రాంగణ@@
శేఖర్@@
తరం@@
సెంటర్ల@@
ముక్తి@@
విశిష్ట
చను@@
గల్
అందించి
ఖ్@@
దాస@@
నిన్ను@@
డీఎస్పీ
క్స్@@
తెచ్చే@@
పడడం
మండు@@
కరణ్
మాధవ్
వస్తూ
వాపు
మిన్
బన్@@
అర్థమై@@
మామిడి@@
ఆకారం
నిజామాబాద్@@
శ్రేణి@@
కార్మికులు@@
ద్య
డ్రాగన్
నిత్యావసర
గ్రేడ్
చేతుల్లో@@
జోరు
టోర్నీ
ేన@@
నేరాల@@
పరిసరాల@@
ముసుగు@@
హృదయం
ఊరి
ప్రభుత్వాల
కంగనా
యది@@
బ్రిటీష్
ఊహాగానాల@@
మిల్@@
గదుల@@
సిబిఐ
విలక్షణ@@
అరణ్య@@
చేస్తోన్న
ఇంట@@
పలుక@@
హైదరాబాదు
స్కిన్
కించ@@
ెప్పుడూ
పర్యంత@@
అస్వస్థత@@
నిర్ధారణ@@
పోయేలా
కొన్నేళ్ల@@
కాల్చి
విపక్ష
పతకాల@@
ుకొని
రంజ@@
చేశారన్న@@
కోణం
కీలక@@
చంద్
కమ్యూనిస్టు@@
సున్న@@
మంత్రివర్గ
టూర్@@
యః@@
భావించే
ఎవరె@@
పురా@@
రోడ్లపై
జేరి
టె
అభ్యసి@@
ఉత్తమ్
నిన్నటి
నడక@@
లక్నో
చై@@
ప్రమేయం
తిరిగే
రిపోర్టు
రాష్ట్రపతి@@
పేజీ
దైనా
తమిళ్
చైర్పర్సన్
సదుపాయం
పిస్తుంది@@
ఫెర్@@
యిడ్
ఎండీ@@
త్సాహ@@
వ్యవధి
మామ
గిన్నె@@
బోయి@@
పోతు@@
ప్రియాంక@@
ప్రభుత్వము
యించి
పురుగు@@
సభ్యుడి@@
పృ@@
సర్వీసెస్
టెలివిజన్
మీటర్
మనోహర్
రాజీ
పీజీ
మిశ్రమ
తాక@@
ండా@@
ఖాతాల@@
రమేశ్@@
యాజ్ఞ@@
దైన
ఈత@@
మడి@@
ధార
లాగ
మల్టీ@@
కాఫీ@@
ట్రైనింగ్
లిపి@@
బొంద@@
రాత్ర@@
ఇచ్చు@@
సంహరించ@@
షీట్
దారులకు
నేట్
యమ్@@
కొంది@@
సునీత
సమాఖ్య
కన్య
హృదయాల@@
ఎమ్
చెప్పుట@@
ప్రస@@
ప్తి@@
తేల్చు@@
బ్యాలెన్స్
పెంపొంది@@
ఊహించు@@
సాకార@@
తర్క@@
చంద్రా@@
కోణాల@@
నమ్ముతున్న@@
మరొకరి@@
భక్త
ప్రియుడు
మందిర@@
ండని
శృంగ@@
బదులి@@
ులై@@
పాక్షిక
పవార్
పదకొండ@@
కౌన్సిలర్@@
పెడితే@@
టాలెంట్
బోధన
మూడవ@@
ంచుటకు
దేవతల
పోషణ@@
హెక్టార్@@
తలనొప్పి@@
తెరి@@
గూడెం@@
హ్యాండ్
పురోగతి@@
చదు@@
వరుణ@@
టవలన
సంఘటనల@@
ఆర్టిఫిషియల్
బెడ్@@
ఖే@@
ఇంగ్లాండ్@@
చుచు@@
కేలరీల@@
చేయగలిగి@@
నొక్కి@@
మత్తు
ునకు@@
ద్రో@@
కాపురం
బియ్యం@@
గురించే
నొందు@@
పప్పు
ఛార్జింగ్
జమ్మూ
డిజి@@
ఆగ్రహం@@
పనిచేయడం
టేజ్
రాబోతున్న
ప్రయాణిస్తున్న
ంటాడు@@
ణో@@
స్తా
వెన@@
మరణాల
అప్రమత్తం
పర్యవేక్షణ
జాప్యం
మారా@@
ఐస్
క్వింటా@@
ఉందనే
కాలి
చైనీస్
మాడ@@
బీసీల@@
పొన్న@@
సంభాషణ
అజ@@
గార@@
వాలంటీర్ల@@
మనేది
బటన్
సుదీర్ఘ@@
నిరాకరించి@@
డను
కొఱకు
ఇటు@@
చరిత్రము@@
జర్మన్
ద్విజ@@
త్రిపుర@@
ఏజెంట్
ప్రసిద్ధి@@
బంధువుల
సార
కారా@@
మెట్లు
డిస్ప్లే@@
హోమ@@
తుఫాను
పుష్పా@@
మర్రి
పడు
ముక్తి
డిపార్ట్మెంట్
ఊరట
పల్ల@@
శివుని
యోచి@@
క్షేమ@@
ఆసియా@@
తస్య@@
పదునై@@
పగ్గ@@
చిన్@@
కెల్ల@@
వనము@@
శ్రీకాంత్@@
నిర్మించి
చుట
రుగ్మత@@
కనిపిస్తా@@
కోణ@@
చార్య
వెస్ట్
గొట్టి
బోధ
చేతిలో@@
ప్రార్థి@@
డాన్
పరిష్కారం@@
నిర్మల్
పెరి@@
చూర్ణ@@
లేదో@@
చూపించే
క్లైమాక్స్
చెప్ప
షనల్
వాత
కోసమే@@
వలనఁ
జట్టులో@@
అభ్యాస@@
కున్నది@@
బాల్య@@
సుత@@
మలయాళం@@
ధూ@@
ఐకాన్
కంత@@
కాకతీయ
ఆకట్టుకునే
వుండి
అభిమాని
కుమారు@@
గ్రంథము
మాది@@
హితవు
భయపడి@@
భలే
కనిపించిన@@
కొనుచు@@
తేరు@@
మనియు
సలా@@
మగ్@@
లెక్కింపు
దింప@@
ఎండ్
యూజర్ల@@
హోల్@@
ప్రబోధ@@
చెంది
సమ్మతి@@
రిజిస్ట్రేషన్@@
వారందరి@@
పోర్ట్@@
ప్రతిష్టాత్మక
ఫిల్మ్@@
రాయితీ@@
విశ్వరూప@@
గోడల@@
వాపు@@
మూఢ@@
కోరికల
పోయాను@@
డము@@
అలర్ట్
భవిష్య@@
తరలించి
కుంటున్నాడు@@
దుమారం
దాన్ని@@
ఎందుకన@@
మహమ్మారి@@
ప్రిన్సిపాల్
జాలి@@
హస్తం
క్యాప్@@
ఆహా@@
బాబూ@@
నిమగ్న@@
నివేద@@
లార్@@
పతన@@
ఆడే
శుక్ల@@
క్షేత్రం
మాటల్లో
యనే
వివాదాస్పద@@
డొక్క@@
వెతుక్@@
ఆకాశం
తగ@@
సరస్సు@@
విశేషణ@@
బాలికల
డైరెక్టరేట్
హౌసింగ్
డిజాస్టర్
సంహార@@
భయపడి
ఆవు
నియమాల@@
గ్రామస్థుల@@
తెలీ@@
ప్లేట్@@
జె
బస
కమెడియన్
ఏనుగు@@
శు
నుండియు
కొట్టడం@@
ైజ్
రాధా@@
నాయిక@@
చర్@@
విప్లవ
పక్షం
శౌర్య@@
గవర్నమెంట్
బునఁ
ఈడీ@@
తని
ట్రేడింగ్
దేని
గంధర్వ@@
రియర్
ల్లు@@
పుట్టగొడుగు@@
సాహ@@
సురక్షిత
ఆశల@@
ఫైట్
విడాకుల
బడలేదు@@
రెన్@@
క్టర్
రెంటి@@
గద్ద@@
ఉద్రిక్తత@@
పాల్పడ@@
సబ్సిడీ@@
పాల్గొంటున్న@@
గోధుమ@@
వాటర్@@
తనాన్ని
స్వప్న
తిండి
వారాలు
స్తుందా
వచ@@
స్థాపన@@
సందర్శించి@@
సబ్జెక్టు@@
సర్వీసుల@@
పోయినా
హాజర@@
పదార్థాలు@@
గాంచిన
పునాది
పద్య
ొచ్చాయి@@
వేయించు@@
వైద్యులు@@
తియ్య@@
స్థాన
మ్రో@@
వీసా@@
నిర్ణయించిన@@
సన్నిహిత
కలయిక
ఎలిమినేట్
ప్రకృత@@
నాల్గవ
రెస్ట్
హిందువుల@@
తులసి@@
పరిచే@@
తుండటం
అసి@@
ఆర్టిస్టు@@
లేత
అన్నయ్య
చేసుకుని@@
చీర
దేవాలయం@@
జాల
ాధికారి@@
సుధా@@
ుతూ
స్మృ@@
కుంట
రద్ద@@
కొరియా@@
సన్నీ
ప్రిన్స్
కొలు@@
చల్
౩@@
మోస్తరు
నెగిటివ్
తులను
కురిసిన
కల్యాణ
గైకొ@@
ధరించి@@
నోటీసు
విధాన
పోవాలని
జగిత్యాల
కమ్@@
ఏవో
మదన@@
శ్రీకృష్ణ
గ్రహణం
ంటో@@
భావం@@
సంకోచ@@
తొల@@
జీవన్@@
సెన్సార్@@
సాధ్యమే@@
వఱకు@@
బంగ్లాదేశ్@@
ఈత
జ్ఞానం@@
ప్రజానీక@@
భాగస్వామ్యం@@
వచన
ఏపీలో@@
కరా@@
లేప@@
నిఫ్టీ
వివక్ష
ఇతని@@
గుడ్డ@@
డైరెక్షన్@@
బోయిన
ఐరన్
చౌక@@
యాచ@@
గలిగారు@@
నతి@@
ఎంతమంది
ఎన్నికైన
సత్వ@@
కట్టబెట్ట@@
నామము@@
సమన్వయం
విద్@@
బలవంత@@
ఎలక్ట్రానిక్@@
ప్లేస్@@
ఎంపీల@@
తీశాడు@@
రానా@@
ఔషధ@@
కులం@@
మఱియు@@
దేవినేని
ముట్టడి@@
పోతే@@
అంచనాల
పెడుతున్న
ప్రదీప్
మేర్@@
మూలము@@
న్నె@@
పొట్టి
స్టాఫ్
ురాలిగా
అసిస్టెంట్@@
సాంగ్స్
నడక
ణు
కాకినాడ@@
సెస్@@
వాళ్లే
మానం
ఎక్కి
రఘురామ@@
సరస్వతి
వీని
బ్రిడ్జి
శివాలయ@@
హెచ్చరిక
కెనడా@@
టెండర్
ఒకదాని@@
అల్పాహార@@
కోవటం@@
కృతా@@
తల్లీ@@
నమ్మి@@
సత్తా@@
రాణా
కొందరి
కొఱ@@
తుందట@@
చర్యలు@@
ండదు@@
సెను@@
నష్టపరిహార@@
అరగంట
పరిమళ@@
వెడల్పు
పెడుతుంది@@
ఆడ
ఇదిలా@@
గ్రఫీ
శిబిరాల@@
అరటి
ఉబ్బ@@
సక్సెస్@@
గ్రహించు@@
వెన్నెల@@
గీతం
వర్గంలో
ంధ@@
థు@@
వీడ్కోల@@
ర్య
విదేశాల
మహేంద్ర@@
భావోద్వేగ@@
అవసరము@@
పోయె@@
పార్వతి
కిన్
భోజ@@
కణజాల@@
ైవ
సమర్థవంతమైన
సోదరుల@@
పర్వతా@@
జేఏసీ
దీవి@@
ఫల
స్మారక
పిన్@@
జోష్
బంధం@@
జయంతి@@
విస్తరించి
మొండి@@
న్యూజిలాండ్@@
లోతు
నేర్చుకో@@
కనుక్@@
కశ్మీర్@@
దర్
విషం
సదా@@
యభి@@
ఫలం
గ్రాఫర్
కొందరు@@
ఇదొక
రాచ@@
రాజ్యము
ఐశ్వర్య
ముండ@@
చూపే
టిక్స్
జలము@@
ల్యాబ్@@
సింగపూర్
తగు@@
ఫెడరల్
కైన
స్పెష@@
పోతాడు@@
అంశాలు@@
పరిశుద్ధ@@
ఫాల్@@
మరీ@@
మేకర్స్@@
అన్నట్టు
భూగర్భ
దినోత్సవ
నలభై
యభిప్రాయ@@
కుదుర్చు@@
డిష్
దాయ@@
ఁట@@
కారి
స్థలాలు
బైన
అప్లోడ్
భరి@@
యస్య
అబద్ధాల@@
యాక్టర్
ఏనుగు
ప్రవేశించి
భవనంలో
భట్
కొంటే
నేమో
గిఫ్ట్
నందన@@
ఉంచిన
షర్మిల@@
మహబూబ్నగర్
పాదు@@
కవుల
యోగం
రుతు@@
ఏలూరు
మెట్@@
గూర్@@
చూపి
ఉద్దేశించి@@
గడచిన
ద్వై@@
మునిగి
కొచ్చి
ప్రవక్త
ద్రి@@
ప్రధానమైన
మొ
రిలీజై@@
సభ్య@@
గిన
బాగుండే@@
ఎప్పుడు@@
ఇండియన్స్
అల్ప@@
లాయర్
ఏర్@@
షోల@@
సౌర@@
చాలని
బాటు@@
ముక్కల@@
హృదయా@@
హాస్టల్
విశ్వామిత్ర@@
బంద@@
బాటలో
ప్రక్క
శస్త్రచికిత్స
రాజన్
ఫీ
వ్యాపారి
అపార@@
నుండీ
తత్
టాస్క్@@
ప్రయాణికుల
ఎంసీ@@
రూపాయి@@
ప్రదేశము@@
డిస్ప్లే
నిజాలు
బల్
గ్రాఫిక్@@
తిరస్కరించి@@
వ్వ
పాండే
పశువుల
ఏల@@
న్యాయమూర్తుల@@
సంక్షోభ@@
కోడానికి
వివాహా@@
వెళ్తే@@
రమ@@
వేత@@
ంటిని@@
పక్షులు
ఛాలెంజ్
జలాల@@
వానర@@
ప్రేరణ
అభిమానం
ఘనత@@
చిహ్నం@@
గంగ
హిం@@
ఇష్టా@@
గెలాక్సీ
బన్నీ@@
న్యూయార్క్
చావు
సౌఖ్య@@
మపి
మాసం
స్తుంటాడు@@
డ్రైవ్@@
ఒప్పంద@@
లెవల్
అట్ల@@
కొమర@@
చెం@@
మీనన్
సామ్య@@
చంపి@@
భవతి
దానికి@@
నంబు@@
పరిపాలి@@
ట్స్@@
ాయుధ@@
లియా
న్య
డాక్టరు
ాల్ని
అద్దం@@
పద్యం
ఏర్పాటై@@
ిల్లు@@
అనంత
అజ్ఞాత@@
కుమారులు
వుడ్
భద్రాద్రి
ఇస్రో
విమానం@@
సుమ@@
మంటల@@
ణము
పర్సన్
స్వరూప
క్కర్లేదు@@
మఠ@@
ములుగు
దేవుడి
రేజ్
ుడై@@
నర్సు@@
అవ్వడం
మొదలె@@
అంతరిక్ష@@
సీపీఎం
సత్త్వ@@
టయు@@
సౌదీ
ద్రౌపది
మహి@@
సమూహాల@@
లావణ్య
లేమి@@
తారా
కాలపు
తాలూ@@
విహార@@
పంచి@@
నిండు
చిన్నప్పటి
బిచ్చ@@
మెరుగు
శీతల@@
శిరో@@
పన్న@@
పె
మహేంద్ర
దామని
ాంగ
ఇదిగో
కరోనావైరస్
కాయలు
నిండ@@
కోసారి
వాఙ్మయ@@
వీధుల్లో
ఆర@@
ఏసీ
దీపికా
మనుష్యు@@
తగ్గ
త్పత్తి
కోర్ట్
రాంబాబు
సుందర్
సాధ్యం@@
యేమి@@
పన్నెండు
మార్గదర్శక@@
వివేకానంద@@
డింగ్@@
వర్చువల్
మత్స్యకారుల@@
రొట్టె@@
హ్యాండ్@@
మట్టం
టైర్@@
చుందురు@@
కోలుకున్న@@
వండి@@
సాధించడం@@
భావాన్ని
బెల్ల@@
సిటీలో
కంప@@
ఇన్ఫెక్షన్
ప్రారంభించిన@@
కాంబో@@
పడవ@@
పట్టిక
పునః
ముత్త@@
వెళ్లడం@@
చొప్ప@@
వేసుకున్న
హరీశ్రావు
ట్రాన్స్
భట్టి
వెంటాడు@@
అప్పల@@
సస్పెన్షన్
నిలకడగా
సాధించే@@
గఁ@@
ప్రకటించి
ప్లేట్
భాయ్
సొసైటీ@@
బుట్టి@@
ఆతని
పుణ్య
అధ@@
వర్స్
జడేజా
గలది@@
షాప్
దొంగిలించ@@
వాసుదేవ@@
౫@@
చెమట@@
పరిణామం@@
కథన@@
జ్వరం@@
చేసుకొన్న@@
సంతకాల@@
వేట
కుంటున్నాను@@
మరచిపో@@
గలవాఁడ@@
శరీరా@@
యుని@@
ారం
అందే@@
సముద్రము@@
పోలిక@@
సరిదిద్ద@@
స్థలం@@
అక్టోబర్@@
హల్
పిం@@
వారీ
కాంత్
ఏది@@
లవ@@
ఛార్@@
విధాలా
జరిమానా@@
మర
సౌకర్యం@@
సాగునీటి
కోట్@@
యుండె@@
కాబోయే
బిందువు@@
వర్తక@@
పింఛన్@@
షేర్ల@@
వర్గం@@
శేఖర@@
యాంకర్@@
ముత్యాల@@
ప్రియుడి@@
పంచ
చైర్
క్రు@@
అగ్రస్థానం@@
తాః
ప్లాట్
ార్థము
నెఱ@@
సీఈవో@@
పుల్@@
రియాలిటీ
గలుగుతారు@@
తేల్@@
కోన@@
తేదీల@@
కోటా
కర్నాటక@@
ఫ్రెష్
సెంటీమీటర్@@
అత్యాధునిక
డౌ@@
లౌకిక
జగ్@@
రోగము@@
చోరీ@@
సూచిక@@
జాతులు
ఆరోజు
ఫ్యా@@
కోల్
హోంశాఖ
ఆయిల్@@
ల్స్
ందర్
అర్ధం@@
పతకం
చర్చించి
ఫారెస్ట్
ట్రీట్
గలదని
బలహీనత@@
ప్రాస@@
ెదరు@@
అమ్@@
యిన్
కార్యవర్గ
పదా@@
వనం@@
నియమించు@@
రూపాల@@
మిన్న@@
దౌర్జన్య@@
ాంశాలు@@
కలి
డార్@@
ంచడమే
మోషన్
వల్లి@@
తాళం
ఎంపి
పెండ్లి@@
చాయి@@
అగ్నిమాపక
దొంగల@@
తీరా@@
ఎన్ఎస్@@
చెందుతున్న
గంటల్లో@@
స్ట్రాంగ్
చివర
కూర
తెలీదు@@
ఇంట్రెస్టింగ్
పత్ర@@
దరు@@
కషాయ@@
ధర్@@
పొమ్మ@@
ఘాటుగా
సిల్వర్
సంపాదించిన
మొహం
నిరుప@@
ప్రాముఖ్యత@@
రోజుకూ
రోల్స్
చ్చట@@
మిల్లు@@
సాల@@
టాపిక్@@
పోని
కట@@
శుభవార్త
ఎంఎస్
బట్టు@@
గ్రంథముల@@
మృతదేహం
అడవిలో
డంతో@@
యాలి@@
వక్ష@@
విధానము@@
ఉండక@@
రన్నారు@@
పరిశీల@@
శృతి@@
నలుపు
రాశా@@
కాంత
వుండదు@@
వార్తల
ధనుష్
నెను@@
దేశమున
కన్నుల@@
నట
మృత
యక్ష@@
వాక్కు@@
సానుభూతి@@
కార్పొరేటర్
వడ్@@
తయారై@@
వారిని@@
యజ్ఞ
అసత్య@@
ఆర్మీ@@
చేపడుతున్న
ఆకు
ద్విచక్ర
ఆచూకీ
రాజమహేంద్రవర@@
య్యి@@
దినం
ార@@
యుండి
ఉంటూ@@
రెమ్యునరేషన్
నడ@@
యుండుట
మాం
నిమిషాల్లో
జేసె@@
బోతున్న
ప్రామాణిక@@
యూనివర్శిటీ
ష్టి
ఒరిజినల్
దర్శనా@@
రాసే@@
కబుర్@@
ాలనే@@
మన్మథ@@
బాలు
సిక్@@
చిలుక@@
గ్రహ
యోజన
ఋణ@@
కొంటా@@
తగ్గించే
నిమిషం@@
అవకతవకల@@
లన్నిటి@@
భక్తు@@
హరణ@@
అల్లర్ల@@
గుణాలు
శ్రీమద్@@
పూలు
యధా@@
అర్థము@@
ాద్రి
మైంది
ఉన్నంత
కారణాలు@@
సామ్
చేశామని@@
యెంత@@
సంపాదించుకున్న@@
గ్యాస్@@
పిట్ట@@
కల్పిత@@
సైన్యము@@
సారథి
భగవద్@@
ములకు@@
గుల
జస్ట్
తానే@@
ర్ధ
శాసనసభ్యుల@@
అదుపు@@
లాగ@@
క్రైస్తవ
ఎమర్జెన్సీ
గట్టు
గును@@
హబ్
అప్రమత్తమై@@
అభివృద్ది
లంతా
కొలత@@
కిన్@@
చేసినట్లు@@
దాఁ@@
టయు
బీహార్@@
నిరుద్యోగ@@
మాఫీ
కొనుచు
వక్క@@
గ్రంథా@@
లయ
తాజాగా@@
మెస్@@
జెన్
తీరంలో
పానీయాల@@
సుభాష్
నైవేద్య@@
కరుణా@@
సిలిండర్@@
అనుమానిస్తున్న@@
రాయన@@
కొత్తగూడెం
సైలెంట్
ఆపరేటర్@@
దవ@@
అయింది
టికెట్ల
త్రో@@
ప్యూ@@
ప్రతీకార@@
సాంకేతిక@@
బిగ@@
పూరి@@
నుండుట@@
విభీషణ@@
ఇంగ్లీషు@@
గుండ@@
నివసిస్తున్న
తవ్వకాల@@
మూర్ఛ@@
ఫా
రాష్ట్రం@@
ఉష్ణ@@
శక్త@@
పరశురామ@@
ారన్న@@
వకీల్
సందడి@@
దానికంటే
విసురు@@
పోతూ@@
సుధాకర్@@
ఆయుర్వేద
కేసి
జెల్@@
చేపట్టిన@@
బర్గ్
ఘాట్
పార్ట్@@
మందిరం@@
దొడ@@
గాలింపు
జేయుట@@
నిమజ్జన@@
విస్మయ@@
విచక్షణ@@
సంతతి@@
రాజశేఖర@@
మధ్యాహ్న
వ్యసన@@
సన్రైజర్స్
పంచాయితీ
ఎఫెక్ట్
సదుపాయాల
రద్దీ@@
చిరునామా@@
గొండ
లక్నో@@
రూపుదిద్దు@@
సంజ్ఞ@@
తట్టుకోలేక
కార్పొరేటర్@@
నిప్పు
రాయణ@@
ప్రతికూల@@
ధ్యానం
ఘోష@@
నిందితుల
తిరి@@
మందికి@@
రేక@@
చదివే
గచ్ఛ@@
ననుభవిం@@
సర్జరీ
వలయునని
చెల్లించి
కార్యం
ంతి@@
ాద్రి@@
కరెక్ట్
ప్రళయ@@
కాపు@@
కేంద్రాలు@@
నందలి
కోల్@@
చోప్రా
ఓనర్
స్థాయిలో@@
నంద
నరేంద్ర@@
రహితంగా
యంద@@
బిల్డింగ్
పత్య@@
అనుభవజ్ఞుల@@
అద్దం
గావించు@@
పూట@@
పురపాలక
మెజార్టీ
తొ
రాజ్యాంగం@@
విమర్శ
దీపా@@
చిన్నా@@
చనిపోయి@@
ాభి
పొగ
కేకలు
చూసుకుంటా@@
మెరు@@
అదరగొట్టి@@
డాలర్లు@@
యేర్@@
కోడ@@
కారకాల@@
నడుము
కాం
వెలికి@@
ఆశీర్వాద@@
మసాజ్
పుతిన్
గ్గా
మించ@@
టర్న్
లిమిటెడ్@@
నీవే
పైడి@@
రజనీ
పెళ్లిళ్ల@@
శిష్యుల@@
తాయో
దొంగతనం
ధరమ్
ందరి
మాది
ఛానెల్@@
రీమేక్@@
సుగంధ
వీధుల@@
విక్రయ@@
హోమ్@@
పుస్తక
కూలీలు
జెస్
తాటి@@
చెడ@@
నల్@@
సైరా
ఛే@@
నగును@@
వ్వాలని
కాపాడే@@
నాలుగైదు
యశ@@
మరోపక్క
తహశీల్దార్
ివే@@
చడానికి
ప్రాధమిక
క్యాపిటల్@@
నిర్మిత@@
మద్రాసు
మొదలగు@@
దను
తిండి@@
ాశ్చర్య@@
తయారుచేయ@@
వాక్
గనుక@@
వర్ణము@@
జాతర
పోయారు
లకుపైగా
అక్ష@@
జిల్లాల్లో@@
ఆవిరి
అన్వయ@@
జేమ్స్
గట్టిగా@@
చేయవలె@@
బ్రతుకు@@
ఆర్జి@@
డిమాండ్ల@@
సీపీ@@
టోల్
కెప్టెన్సీ
ధరణి
జిమ్
నట్లుగా@@
లక్ష్మ@@
గెను@@
వైఫల్యం
క్షతగాత్ర@@
త్స@@
హనుమ@@
ట్యాక్స్
కోవాలో
బూతు@@
రూపమున
పాటల
పాలనా
దొల@@
రస్@@
పొరుగు@@
కామ్@@
మైత్రి
మినహాయించ@@
స్థలము@@
గ్రూపు
మట్ట@@
అమీర్
వేయి@@
అంతర@@
దేశా@@
బ్లూ@@
యుద్ద@@
టెర్@@
వెళుతున్న
కూల్
అనూహ్య
యూరప్
జని@@
పాన@@
టార్గెట్@@
మనుషుల
రూపొందిస్తున్న@@
వినాశ@@
జ్ఞాత@@
ఫైట్@@
యాక్సి@@
మల
కౌలు
శాడు
ించనున్నారు@@
అరెస్ట్@@
లాడి@@
తృప్తి
యాంటీ@@
రోగుల
చ్ఛేద@@
ప్రతిపక్షం@@
ణే@@
యాజ@@
మెప్పించి@@
దండి@@
తయా
వృథా
సెప్టెంబర్@@
మొర@@
కదలిక@@
రౌడీ
హైద@@
ధర్మం@@
నిజము@@
మూత్ర
విత@@
చూశాడు@@
చార్యులు
ఎక్కు@@
ఉపగ్రహ@@
రావిపూడి
అక్కడున్న
సువర్ణ@@
దరిద్ర@@
నటించడం
రేగి@@
డల్
పూత@@
ిచ్చిన
ఇటలీ@@
శాసనము@@
సిఫారసు
సెంట్@@
ందీ@@
ధ్వంస@@
పోసు@@
ఉపా@@
తారనే
ౌ
అర్ధ
మురళి
గౌర@@
లెవల్@@
ఎదుర్కొన్న
డన్@@
రిసార్ట్
సమన్వయ
ఇప్పుడిప్పుడే
టెన్నిస్
హెలికాప్టర్
బృహ@@
బోల్తా
యింటి@@
ండగా
చిల్ల@@
చేరడం
రకాల@@
చలి
మందే
కావటం@@
దొరికిన
వ్యవహరిస్తున్న
విశ్వసనీయ
రేషన్@@
బడ్డాయి
ఏడో
విశ్రాంతి@@
జవాబు@@
దగ్గరి
యెం@@
ముంపు
పఱ@@
గ్రాండ్@@
మద్@@
మనదేశంలో
వుండాలి@@
వనరులు
వ్యూస్
పరమేశ్వరు@@
జమా@@
వశ్య@@
త్యర్థః@@
ఠాకూర్
పరుగు
వేగవంతమైన
సెక్యూరిటీ@@
పేస్ట్
గ్యాంగ్@@
బ్రేక్@@
పోవు
సంసార
కామా@@
పిల్@@
ార్థక@@
చెపుతున్న@@
ఎవ్వ@@
్వా@@
మ్యూజియం
ఆర్ధిక@@
నచ్చు@@
గుణముల@@
రక్తపోటు
క్రియాశీల@@
ఉపన్యాస@@
వ్రే@@
విచార@@
తన్ను
గొట్టు@@
ఉంచడం
బుకింగ్@@
స్వీయ@@
ముక్క
జాతక@@
హోండా
పరిచింది@@
ఐటి
గుణం
మయ్యాడు@@
తరుపున
ఇరాన్
అగ@@
పీఠం
జేపీ
జీవితాంతం
చేరడం@@
మినహాయింపు@@
ండ్లు
భరణ@@
అద్దాల@@
తైల@@
వేత్తలు
అనుబంధం@@
టిల్@@
ప్రమాదకర
బ్రీ@@
గురుకుల
వీర్
ద్రవ్య
నెట్టి@@
స్పాట్
మైందని
రౌడీ@@
ఎంఐఎం
నిర్మించి@@
వంశ
వెన్న
నేర
బొందు@@
ఎడమ@@
ిస్తుంది
ఇంకా@@
పడక
నడుపుతున్న@@
అతిథి
తాయా@@
రుద్ద@@
పెయిడ్
వర్తమాన@@
కలిగించే@@
నెలలో@@
వెల్లి@@
వారాల@@
పట్టణము@@
దిల్లీ
మొనర@@
కానున్న@@
వైశ్య@@
నర్సింహ@@
నటుల
బ్యాగు@@
ల్ప@@
రిషబ్
మీరి@@
ప్రకటించిన@@
అడిషనల్
ఫలానా
ప్రిన్సిపల్
చిత్@@
ంటున్న
వ్యాపిం@@
నృప@@
కొడతా@@
ఓటర్ల
నచ్చి@@
సజావుగా
ాలే
నిలయ@@
ంపు
అనిల్@@
కనిపించడం@@
జాయిన్
మురళీ@@
రకం@@
గెలుపొంది@@
విధుల్లో
దిక్కు
నెస్@@
పోల్
థె@@
జనుల
సిరి
దాన్@@
విపుల@@
లక్ష్య
బుర్ర@@
వాడా@@
ఉత్తరాంధ్ర
చురుగ్గా
ట్రంప్@@
యత్
ఆఫర్ల@@
చేకూర@@
పిత@@
పూరిత
ిస్@@
గద్య@@
పఁ@@
విస్మరించ@@
మాణిక్య@@
ఆగష్టు
వర్డ్
బ్రహ్మణ@@
సారథ్యం@@
యనే@@
తరి@@
చాట్@@
యోగం@@
బండ
రూపంలో@@
బాదు@@
ఇంజిన్@@
నిమిష@@
హోం@@
పేర
మౌన@@
కోదండ@@
కనబడు@@
ఏర్పడిన@@
మల్లె@@
ధ్య
చిత్రంలో@@
వహించి
రైట్
మహర్ధశ@@
ముందస్తు@@
ంద్ర
టిటిడి
చేయఁ@@
పలకరించ@@
నాథ
సుందరి
చేర్చి
అల
గలిగితే
మునుగోడు@@
వాసు
ఎరుగ@@
ఎంసీ
సైడ్@@
గ్రా
స్థానంలో@@
క్లోజ్
ఇందిరా
చక్ర
స్మిత్
శివలింగ@@
కోవాలన్నారు@@
మూర్ఖ@@
తీత@@
మున్ను
చెల్లించే
దెబ్బతిన్న
సందేహం@@
హనుమాన్
నిమ్మగడ్డ
డ్లోన్లు@@
ధావన్
ప్రకంపన@@
క్షిమణుల
శంషాబాద్
ముమ్మరం
సావిత్రి
పక్షాల@@
ధనము
అమల@@
మహాత్మా@@
స్వర్ణ
డిపాజిట్@@
పూత
చిహ్నాల@@
అభ్య@@
జరగలేద@@
ిం@@
యూనియన్@@
డెలివరీ@@
శుక@@
కార్బన్
తగ్గింపు@@
గై
సుందర
చూడ
ఆత్మా@@
రిటైర్డ్
కొలది
ఆమ్
ెం@@
వెస్టిండీస్
బట్టల@@
ున్న@@
మంధాన@@
షెఫాలీ
సూచీ@@
భక్ష@@
పోల్చు@@
ఫిన్@@
ఆక్రమణ@@
చుండు@@
త్రీ@@
శక@@
అతిశయోక్తి
చెఱ@@
ఎక్స@@
సంతస@@
గుతూ
ఆలోచించి@@
దూరమయ్య@@
౮@@
వారందరూ
చొచ్చు@@
వార్నర్
టెక్నిక్
అథారిటీ
బాం@@
ట్రాఫిక్@@
మయ్యెను@@
యర్థ@@
నాద@@
ండగా@@
సంబందించి@@
సందేశాల@@
ప్రేమించు@@
స్థిరపడి@@
గావించి
ఎండ
సమానమైన
సంకల్పం@@
టెంట్
బెట్టిన
జిం@@
రైనా
ఇండి@@
పీఎం
జరగడం@@
రిమాండ్
పతాక@@
ప్రకటించడం
మాయా
సలహాదారు@@
చలన
సురేందర్
అఖండ@@
కంట@@
బుఁ
అంతేకాకుండా@@
హర్యానా@@
కాదన@@
పార్శ్వ@@
౧
లయిన@@
అణు
పడదు@@
స్థిర
రాగ
విరమ@@
పయి@@
పరిణామాల
శూల@@
ఛాయా@@
ఔదార్య@@
ప్రహ్లాద@@
లాగు@@
అవతార@@
దండ
యిది@@
సందర్శించి
రమా@@
ఆల్రెడీ
పక్షాన
ంశ@@
ులైన@@
శుభా@@
రాఘవేంద్ర@@
నిచ్చే
ఆహా
తీగ@@
స్పృశ@@
ఆవిర్భావ@@
వర్ణించి@@
నుండగా@@
మవుతుందని
యితర
జీవీ@@
సచివాలయం
నిర్మల
ఏవీ
తుం
వక్త@@
బద@@
శూర@@
విండో
దంటున్నారు@@
ఎంపీటీసీ
విధముగ
గలుగు
భౌ@@
కాల్చ@@
సోనా@@
గంగుల
రావటం
భీమా
క్రమ
ప్రెస్@@
నెట్ట@@
తయారీదారు
సిక్స్@@
బూర్వ@@
ాధి
కన్
పరాజయం
వేశ్య@@
ఎస్ఎఫ్@@
మొన@@
కుదురు@@
ప్యాక్@@
స్తోత్ర@@
వీటన్నింటి@@
గుప్తా
గర్భిణీ
పరిశుభ్ర@@
సీఈఓ
బాధపడే
రాజమండ్రి
అమలవు@@
స్టో@@
పిక్@@
ధరి@@
కొంచ@@
తంబు@@
జనన@@
యోగము
లైంగిక@@
తొడ@@
విమానయాన
సిగ్గు
బాలుడి@@
కిటికీ@@
గాంధీజీ
ప్రోత్సాహక@@
వంచ@@
బస్@@
ఆన@@
ఆధారం
కుసుమ@@
చన్@@
ధృవ@@
ఇంజన్@@
చేయవలసి
సింపుల్
స్క్రైబ్
యున్నాడు@@
విమర్శకుల@@
ీకరి@@
హైలెట్
మధ్యతరగతి
మోడ్
గణపతి@@
సామగ్రి@@
ప్రవక్త@@
పుట
ఆవా@@
హిమాచల్
ఎత్తిపోతల
నిర్ణయించిన
భార్గవ@@
భయ
నిష్ట@@
హైపర్
మారడం@@
భూభాగం@@
హత్తు@@
ట్రాక్టర్
హరించు@@
మార్
నిరుపేద@@
కట్టడి@@
వంటల@@
వత@@
రూపొందించిన@@
ప్రమాణము@@
దురా@@
ప్రాప్తి
పట్టాల@@
వది@@
సంబంధమైన
పాడిన
డ్రగ్
మోప@@
చేపడతా@@
అంటున్న
పరివార@@
యెడల@@
యుండిరి@@
తమ్
చర్చల
రసాయనాల@@
దీప
బెం@@
ఊపందు@@
గోరి@@
బెల్లం
ఫ్లోర్
పరికర@@
భరద్వాజ@@
భవనాల
యందే
స్కీ
ప్రా
ఏవం
మతాల@@
యిరు@@
వ్రాత@@
సోలార్
ఐసి@@
సరికాదని
రామాయణ
భుజాల@@
సూరి@@
ఆపు@@
బరా@@
దహనం
ేణ@@
మొగ్గ@@
మ్రొక్క@@
మార్చే
బూడిద
బం
నిచ్చారు@@
నూరి
అసం@@
వాజ్
ధ్వనుల@@
కైతే
గుత్త@@
వృషభ@@
అన్నమయ్య
కార్తీక
ప్రకాష్@@
వేం@@
తాత్పర్యము@@
పూర్తిస్థాయి
అల్లాహ్
నిలబడ్డ@@
విషయమున
వీర్రాజు
సమర్పించిన
వేస్తుంది@@
హృత@@
ఆద్మీ
స్టేజ్
వదిలేసి@@
మిడి@@
మెసేజ్@@
యతే
డైట్
నియోజకవర్గాల
దత్తత
కిరాత@@
థీ@@
లేకపోతున్నారు@@
అహ@@
స్థా@@
లలిత
అణు@@
బలము
తట్టుకో@@
శ్యామ్@@
దేశపు
హైవే@@
బారు@@
వైద్యం@@
సులభతరం
ోత్పత్తి
ఫర్నిచర్
రెన్
క్షీర@@
ఆలౌట@@
నమస్కరి@@
గాయం@@
పెక్కు
వెంబడి@@
దత్
బని@@
మల్లికార్జున@@
సేయు@@
తుండడం
భవతి@@
గలుగ@@
అనువైన
మాంసం@@
గుర్తించడం
త్వాత్@@
నవంబర్@@
నటిస్తూ
పుంజు@@
దామ@@
ఎగిరి@@
న్స్@@
లీల
వ్యాధులు@@
హ్యాపీ
ఫ్రాన్స్@@
తదా@@
దేశమున@@
ఆర్కే
కష్ట
హాని@@
పెట్టుబడుల
వ్యాపారి@@
సంపాదించుకున్న
అవే@@
తుపాను
డ్యూయల్
చంపిన
నైట్@@
అల్
బాబ్@@
నియామకం
కథల
వాడుతున్న@@
బిట్
నాగరాజు@@
కామెంట్స్@@
కొమ్ము@@
గోపాల్@@
ాలూ
అస@@
బైకు@@
పీట@@
వృష@@
లెల్ల@@
పిన@@
చెబుతుంటా@@
పురుగు
మేమి
లంచం
సలహాదారు
జేసిన@@
ఆడియెన్స్
తగ్గడం@@
నిలిపి
ప్రభ
థమన్
తెల@@
పంచా@@
ద్భుత@@
సూర్యుని
అలాగ@@
అతఁడు
గండి@@
ఛైర్మన్@@
పాకి@@
యంత
ంపేట
పిక్
శోభా@@
ప్రియా
మంగళ
సన్యాస@@
వున్నా
పిడుగు@@
దాయక@@
అమృత
తెలివి
సెల్ఫీ@@
బెల్@@
క్రమశిక్షణ@@
తటస్థ@@
పాతి@@
శిష్ట@@
వేది@@
సాని
కాంప్లెక్స్
వక్ర@@
జరగాల్సి@@
చెంత@@
మసీదు
మెంటు@@
పొట్ట
యంబు@@
కరో@@
మోడ@@
నరేష్@@
పురుగుల
ఆరంభం
చిన్ని
కూతు@@
కీపర్
అభ్యర్థన@@
గాథ@@
అంతేకాక
సుధీర్@@
ర్జున@@
రచనా
ిద్దరి@@
వేదన
కమ@@
బయల్దేర@@
వరుడు
కండ్ల@@
నయనతార@@
బజార్@@
చేయక
వాదం@@
ప్రొఫెసర్@@
విజయనగరం@@
సూపరింటెండెంట్
దండు@@
గుంట
వెలసి@@
వృధా
స్కోరు@@
ుడ్ని
అమ్మా
చిత్తూరు@@
సృజనాత్మక
ఘాటు
గించి
వేదాంత
గొండ@@
స్టై@@
బెన్
మెజారిటీ@@
రనీ@@
వాంతుల@@
వైర@@
ద్రాక్ష
రాజేంద్ర
దగ్గుబాటి
యిన్@@
రక్తస్రావ@@
లాభదాయక@@
నిమి
ఎయిర్టెల్
మహత్@@
ఆటగాడి@@
భోజనం@@
రసము
దేవుడు@@
ట్లే@@
ప్రవృత్తి@@
దీన్@@
వెండి@@
బీఎస్
రూట్@@
భాగస్వామ్య@@
ఏవి@@
యువజన
హవా
పరుల@@
సాకు@@
రాజధానుల@@
ప్రవీణ్@@
విశాల
నధి@@
దొరికిన@@
ఱి
ముద్దుగుమ్మ
ఆత్మగౌరవ@@
రాజేందర్@@
హనుమంతు@@
గుర@@
పాలయ్యారు@@
యావ@@
కుంటుంది
చుండఁ@@
ఫార్మా
సర
ఈసీ@@
మారుతున్న@@
శత్రువు
ఎదిగ@@
భారీ@@
విక్రయి@@
సతి
పిలుచు@@
భీతి@@
క్ష్య@@
పూలమాల@@
పెద్దపల్లి
అలర్ట్@@
పగలు
బటన్@@
సారము@@
సంక్రమి@@
మున్నగు@@
సీక్రెట్
ఒంగోలు
ప్రాసెసర్@@
వండు@@
ద్వాదశ@@
వుంటా@@
ంటాయని
నెగెటివ్
లయ్య@@
ూరి@@
నాళ@@
పక@@
తులా@@
ేశ@@
ట్రోఫీ@@
వినియోగదారు
విపత్తు
యౌ@@
చారు
ప్రభావిత
క్రీడల@@
నిచ్చ@@
చున్నది
అప్పుల@@
యంటూ
సాంబ@@
సరస్సు
శశికళ
నెన్@@
ఆలయం@@
సంధి
కేమి
కిరణాల@@
మావోయిస్టు
కల్పించడం
సుమారు@@
అయిదు@@
సర్దార్
ఆయా@@
కలిసే@@
వెసులుబాటు
సక్@@
థే@@
కూలి
సిద్ధమైన
లభించిన@@
క్వాలిటీ
ఖాతాలో@@
డీఎస్
వధువు
అలరించి@@
స్వచ్ఛంద@@
భద్రాచలం
నదీ@@
పరుచు@@
డొనాల్డ్
స్పృహ
బెర్రీ@@
శాస్త్రవేత్త
నిమిషం
సభలు
ఉద్రిక్త
డమ్@@
స్కాన్
పల్లవి@@
పడ
రాఘవ
ధరణి@@
ఛేది@@
ఎమోషన్@@
ఎన్నో@@
రొమాన్స్
రాణా@@
సమన్వయం@@
టికల్
క్షేమం@@
సురేశ్
షే
టేబుల్@@
యేత్
పంచుకో@@
మరల@@
హెచ్ఎం@@
ప్రమోట్
చేయాలనుకుంటున్న@@
సంచార@@
పురాణం
ఆఖరి@@
ఇప్పి@@
ఖి@@
పంపే@@
వైపే
ఒంటరి
ఆధార్@@
శంకరు@@
దోష
భావిస్తున్న
భవన్@@
ప్రేమి@@
చేయాల్సి@@
ఉండాల@@
వర్షాలు@@
దాంట్లో
పంతులు@@
వళి
వేల్@@
జ్యోతిష@@
స్థి@@
జల్
ేశ్వర్
స్ట్రా@@
ఆపద@@
వేదము@@
ఉమ@@
కృష్@@
పోల@@
సంవత్సరము
జగ్గా@@
హ్యుందాయ్
అభిమాని@@
నువ్వే
ఫ్యాన్@@
నగరము@@
షధ@@
డయాబెటిస్
గ్లా@@
బర్త్డే
మమత
క్యాంప్
ఫ్లెక్సీ@@
దుమ్ము
థో@@
నేషన్
పాలకుల@@
ావు
అవ్వడం@@
హల్చల్
తాడేపల్లి@@
వెన్
మోటార్స్
మైత్రీ
దిగ్విజయ@@
జన్య@@
భీమ్లా
బహి@@
లున్నవి@@
భాగ
నిలువు@@
డెబ్@@
వగ@@
మెడి@@
కరంగా
మాఫియా
వైట్@@
జీవులు
ఐడియా
శాస్త్రీయ@@
హర
కొరకు@@
నోటు
గుల@@
ప్రొడ్యూసర్
ుడే@@
ఇరుక్కు@@
కర్ఫ్యూ
చతుర@@
కటి
యాం
ముఖంగా
ప్రయివేటు
ఆసన@@
అంబులెన్స్
సేఫ్టీ
విత్తన@@
చక్రాల@@
వాచక@@
శ్యామ@@
వైరాగ్య@@
రల్
వీకెండ్
సంధ్యా@@
ఇన్వెస్ట్
ట్రైన్
తమన్నా@@
శోధన
ిస్తామని
వృత్తా@@
ఫిల్@@
ఉద్రిక్తత
శారు
పుల
డివై@@
ంచాల్సిన
ంచాను@@
బూజ@@
సెకన్ల@@
మూసుకు@@
కృత్@@
కలుసుకున్న@@
కక్ష
యాప్స్
విర@@
ార్థం@@
బాలుర@@
ారట
చార్జ్
తత@@
మిశ్రా
విధముల@@
రెస్@@
చ్చు
నిపుణ@@
పారిశ్రామికవేత్త@@
స్తున్నట్టు
ధీమా@@
బోతున్నాడు@@
అన్నదాత@@
నమః@@
వెడలి@@
గుసగుస@@
కార్తికేయ
క్కున
అవాక్క@@
ండ్ల
కమ్మ
దాంతో@@
ఒక్కటే@@
ణం@@
డీఆర్@@
సిపిఐ
పాండు@@
బుల్లెట్
భయపడుతున్న@@
ట్రోల్
ఆశిస్తున్న@@
నిష్క్రమిం@@
యాన్ని
సీతా
దళాల@@
పండితుల@@
యాక్షన్@@
తారక
సమ్మర్
పీఎఫ్
షియన్
మాహ@@
తక్కువే@@
అణచి@@
నిశ్చయించు@@
చేపల@@
నేపాల్
పక్షి@@
ప్రచురణ@@
వళ@@
గ్య@@
వచ్చును
రాష్ర్టాల@@
భరోసా@@
నిశ్చల@@
యూనిట్ల
కరణ
విధముల
క్వారంటైన్
బందోబస్తు
డక్@@
ఇంటర్మీడియట్
వ్వడం@@
లూరు@@
హార
బ్యాట్@@
పసిడి
ఉద్ధ@@
షారుఖ్
మిగతా@@
సిద్ధ
కేవల
వారాంత@@
నర్సింగ్
ద్వా
రోహ@@
వురు
టప్పుడు@@
కొట్టేసి@@
తపో@@
వీధిలో
సేపటి@@
విమల@@
ప్రజ్ఞా@@
అలాంటప్పుడు
తాళ్ల@@
ఇస్తే@@
దీనికి@@
కొవిడ్@@
అనుసరించి@@
హిరణ్య@@
ితం
సింది
నిర్వహించిన@@
శ్రీనాథ@@
తెలివైన
నాడే
కోని
వినోద
దశాబ్ద@@
ట్రీట్మెంట్
తేరు
రఘురామ
సాను@@
ర్స్
మృదువుగ@@
నేచురల్
లభించు@@
దిశా
గుర్తించిన@@
ప్రతాప్
నయ్య@@
వస్త్రము@@
రగ@@
కోలేక
కధ
ాదిత్య@@
మనేని
కరం@@
పునరుద్ధరణ
నామె
ఉపాసన
ఇన్చార్జి
పోకడ@@
కోవాల్సి@@
చుండు
మైనారిటీ@@
ప్రార్థన
వచ్చె@@
వెయి@@
ఇస్లాం
గుర్రం
కొక్క@@
జాం@@
సూచనల
పంజా@@
ఆవ@@
శ్రద్ధా@@
ందన్న@@
చిప్@@
కసి@@
ప్రసన్న
థా
చేర్పు@@
నిరోధ@@
సేవలు@@
మాస్క్@@
నేపథ్యం
ప్రభా@@
మూత
వాల్యూమ్
ంద్రియ
ఉద@@
గడుపుతున్న@@
సంకల్ప
దేవర@@
బంగారు@@
మతము
రిలీజ్@@
ఇజ్మీర్
పంపిన@@
సన్నీ@@
రంబు@@
వెలువడు@@
గనక
జూద@@
రజ@@
ఇయర్@@
పించారు@@
కీటక@@
మాసము@@
అనుమానాస్పద
వీరా@@
కమీషన్
ఈజ్
సుగ్రీవ@@
పోదు@@
కల్పించిన
తగ్గించడం
నోచు@@
టాన్ని
మేవ@@
సెక్రటరీ@@
యత
జూలై@@
దిక్@@
పెడుతోంది@@
బిసి
పర్ణ@@
యట@@
తేమ@@
కవిత్వం@@
సుబ్బారెడ్డి
స్కోర్@@
కాళి@@
అఖిల్@@
ధన్@@
నపుడు@@
మమ@@
స్తారా
స్థూల
చరి@@
తొలగింపు
స్పిన్నర్
ఒక్కరి
వినతిపత్రం
గ్రాహ@@
కావచ్చు
భావించిన@@
ొచ్చే@@
పోషణ
వాజ్@@
వేధి@@
అచ్చు@@
మండలం@@
చ్చట
వయో@@
చంపేస్తా@@
ఎదుగు@@
అడిగే
హాన్
ఒక్కొక్కరి@@
పెయింట్
చేయడ@@
ఉల్లంఘన@@
కాలక్షేప@@
ఖిల@@
కుమార
దీప్@@
వికారాబాద్
కప్పి
వెలువరించి@@
కలుగజే@@
ంద
మన్నా
ప్రగాఢ
హారం
ప్రత్యయ@@
దేవు@@
వలెను
టూరిజం
సాయంత్ర@@
నృత్య
వతార@@
లకూ
గ్రు@@
మార్చడం
తీసికొని
దావా
మాట్లాడుతున్నా@@
జ్యూస్
ఎఫ్ఐఆర్
త్రై@@
పత్రాన్ని
ంటారు
కథనాల@@
అంతిమ
సర్వస్వ@@
ఇత్యాది
కనిపించబోతున్న@@
కేంద్రప్రభుత్వ@@
ముప్ప@@
టెలికాం
శివరాత్రి
ాదులను
ఞ@@
డంటే
మూలం@@
నంగ@@
లక్ష్మీనారాయణ
వేఱు@@
త్వాత్
జంక్షన్
అక్టోబరు@@
ధారా@@
బుమ్రా
చర్ల
విచిత్ర
ప్లానింగ్
నడిచ@@
కాండ
సన్ని
అనుష్క@@
జని
సుతు@@
పర్వతము@@
నిజా@@
క్లాస్@@
వర్గాలు@@
ద్వైత@@
రాధే@@
లోపం@@
సంధించ@@
బచ్చన్
చిక్కుకున్న
పేమెంట్
నియమితు@@
కోలేక@@
హు
మొటిమల@@
ఆనంద్@@
శ్రీదేవి@@
శరద్
త్వానికి
జగదీష్
దగ్గు
శీ
ద్వారక@@
మనుగడ
లొంగ@@
దళం
రించ@@
కామ్
విష్ణువు
బున
తెచ్చుకో@@
ఆంగ్ల@@
ాయో
సమర్పిస్@@
ఆదిపురుష్
భగవద్గీత@@
పనే@@
బది@@
శ్రీధర్@@
తత్ర@@
బతికి@@
టార్@@
ాయన@@
సర్పంచుల@@
సామ్@@
క్యు@@
ఇంటింటికీ
పట్టా
పంక@@
స్కానర్
కొల్లగొట్ట@@
విక్రమ్@@
చార్జి
నెగ్గ@@
హల్@@
ఫ్రా@@
కించి
డ్రై@@
ప్రతుల@@
రథం
మిటో
సమతుల్య@@
ఇనుప
ందనే@@
ించండి
కుండల@@
చేసుకుంటున్న
శాస్త్రము
ాల్సిందే
రావుగారు
భూభాగం
కాశీ
డివి@@
రేడియో@@
లియో@@
ఆత్మీయ
బడతాయి
ఫలా@@
వారె@@
కోరి
చల్లు@@
అదరగొట్ట@@
శ్వ
బిన్
సుబ్బారావు
డెవలప్
ఫ్రేమ్
ఆధిక్యం@@
వికార@@
తరలిస్తున్న@@
ుర@@
చదివే@@
త్యాగాల@@
పెట్టు
చట్టాల
వేర్వేరు@@
తపస్సు@@
నేమో@@
లక్ష్మణ్@@
యాజమాన్యం@@
వాహనంలో
తరలి
రాధాకృష్ణ
ప్రకార@@
టిక్@@
గుట
అడ్వాన్స్
పర్యటించి@@
ఆత్మీయ@@
మనం@@
తిరుగు
ఉంటు@@
అమల్లో
నాతని
స్తంభాల@@
రాయుడు
ఉపఎన్నిక@@
మించు@@
నిరంజన్
సస్పెన్స్
స్వభావము@@
నీడ
ఉందన్న
కొడ@@
జైన్
ఎగుర@@
విరివిగ@@
భ్యాం
ొచ్చిన@@
వర్కర్@@
టివి@@
ాలనీ
వద్దని@@
రంగాల
ఎన్నికల్లో@@
భూతముల@@
యెల్ల@@
మటు@@
మాజీ@@
ఙ@@
విద్వేష@@
స్థానము
తట్టు
మరిచి@@
యిత@@
పేజీల@@
హాలు@@
వాడిన
ఇట్లా
పాత్రికేయ@@
టెల్
హైప్
ధే@@
పత@@
కుప్పం
పద్@@
రిసెప్ష@@
ట్రాన్@@
సయ్యద్
డ్యూటీ
దళితుల
బోవు
మండలాల
యేమి
చంద్రు@@
పన్@@
క్యూట్
లౌకిక@@
యాక్టివ్@@
కక్ష@@
పెరుగుతూ
భవము@@
కళ్ల
బాగు
ఠా@@
ప్రకటనల@@
తవ@@
రాత్రుల@@
మిక్@@
లుగు@@
ారనే@@
జేయఁ@@
లీగల్
టమోటా@@
రతి
ఇష్టపడే
డయ్యాడు@@
పీపుల్స్
దర్భ@@
అంబేడ్కర్
సతీ@@
రగిలి@@
ఆజ్ఞా@@
మెడిసిన్
వంతుల@@
బద్ధంగా
కెళ్లి@@
నౌక
కరణం
జ్వర@@
యుఁ@@
చల్లార@@
టెన్స్
అవతరించి@@
పురస్కరించుకొని
హడావుడి
టొ@@
మేయర్@@
రహస్యాల@@
గింజల@@
ట్రిప్
ఒకట@@
ప్రయోగించి@@
వేరే@@
విలియమ్@@
మఱ@@
పరిచి@@
కున్నారు
ఎరువుల
కున్నారని
కెళ్@@
సమైక్య@@
యింటికి
పొరపాటు
ఛానెల్
రూపకల్పన@@
మేడ@@
వెలువడిన
క్యాప్
అసభ్య@@
నిలుచు@@
మహిమ
వాసుల@@
సమాప్త@@
టపుడు
య్యె@@
భారాన్ని
అశ్విన్@@
ర్భ@@
ఉడికించి@@
రంగారెడ్డి@@
అధిష్ఠాన@@
సాధించే
లీలా@@
త్యము@@
కణాల
హబ్@@
విభిన్న@@
మంద
తగ్గించి
సార్వభౌమ@@
యోచన@@
నైనను
కావటం
కర్తృ@@
ఆఫీస్@@
కూర్పు@@
యొప్ప@@
దాగి
గణము@@
నిర్ధార@@
త్యం@@
పోర్టల్
వేముల
క్షీ@@
ఒలింపిక్స్@@
విషాదం@@
పువ్వాడ
చెవి
ఉదయ్
న్నర@@
హెచ్చు@@
తావి@@
క్యాబినెట్
ఖ
సరుకు
వేయి
రాక్షస
తన్ను@@
పాపం@@
ార్ధం
౨
దర
మెగాపిక్సెల్
ఈఓ
పెత్తన@@
పనిచేసి
గలదు
తంతు@@
ల్సిందే@@
ఉక్కు@@
సామగ్రి
భైరవ@@
ఉద్ధవ్
యత్ర
కెమెరాల@@
సన్ని@@
పింగ్@@
ఎడిషన్
ఐడీ@@
హుజురాబాద్
వరించి@@
పక్షుల@@
సిమ్
సిన్
ద్ర
అటా@@
ఆనం
అర్హ@@
ధాతువు@@
ఆదిలాబాద్@@
ేతి@@
అందించిన@@
సావ@@
స్వీట్@@
ప్రముఖుల
హెలికాప్టర్@@
దప్ప@@
ఇన్వెస్ట్@@
గమన@@
నోరు@@
నన్నయ
రిజర్వాయర్@@
ీకృత
మమ
కల్పించి
శ్రీకాకుళం@@
ించబడింది@@
వాట్సాప్@@
వికాస్
కాసి@@
చండ@@
ఇచ్చట
అడ్రస్
వైదిక
కాటు@@
హారము@@
మీరే@@
రన్న
ధృతరాష్ట్ర@@
అంక@@
పలువురి@@
బుకింగ్
ప్రకటించడం@@
పద్మావతి
నాకే@@
జ్ఞా
పరారీ@@
వెల్లడించిన
రుగు
సత్త@@
మిత్రుడు
మంత్రివర్గం@@
తౌ@@
మహాత్మా
భూమా
అంకె@@
రుడు
ఆయ@@
దీసి@@
హుస్సేన్
జన్మనిచ్చి@@
జామ్
లెక్@@
త్యాది
జోడించి
అనుగుణంగా@@
జియా@@
త్యా
మైక్రో
జను
కుంటాను@@
చాటి@@
బీఆర్
స్కాం@@
ఇరవై
చిత్తశుద్ధి@@
పడింది
పీఎఫ్@@
టరు@@
రక్షింప@@
రీతిగా
తీతి
సుమ
దారీ
చిల్లర
ించదు@@
చెడ్డ
ఫ్లాష్
ప్రయోజనాలు@@
అక్కడక్కడ
బౌద్ధ
డెల్టా
ఖ్యాతి@@
సర్వసాధారణ@@
సెల్వ@@
భార్యాభర్తల@@
దుబ్బాక
ఇత్యాది@@
సరియైన
రాక్షసుల@@
అనవసర
భగీరథ
టబుల్
జిత్
కొట్టడం
లేవని@@
మాలిన
సత్యా@@
పాటే
గురుకుల@@
మహేశ్@@
విధానాల
కిష్ట@@
శ్
సర్వీసు
చ్ఛ
ఆజ్ఞ@@
మెయిన్@@
ఇంజనీర్
సంపాదన@@
టెండ@@
శస్త్ర@@
ఆతని@@
లిచ్చి
రిపీట్
స్టింగ్
కల్లోల@@
హోటళ్ల@@
ఓడించి@@
మాహాత్మ్య@@
తీయడం
నాతని@@
నిరుత్సాహ@@
పింక్
బోరు@@
పవిత్రమైన
సౌమ్య@@
ఉత్సవ@@
కోర్సుల@@
వర్ణింప@@
సందర్భంగా@@
ల్యా@@
మట@@
బాలాజీ
హేతువు@@
భేద
తీసుకొన్న@@
ప్రదక్షిణ@@
ఆడుతున్న
వీడు
ద్రోహం
గారికి@@
ర్ల
కుమారస్వామి
దుబాయ్@@
గురైన@@
వేటాడ@@
చేస్తున్నా
య్యా
చాటుకున్న@@
రవీందర్
రాష్ర్ట@@
సంఘాలు@@
చెప్పక@@
హంగామా
గుణము@@
ఆంటీ@@
ద్వ@@
బాధితురాలి
డయిన
లేనిది@@
ఎల్పీ
తాగు@@
స్ట్రీట్
ట్యూ@@
మానము@@
చేరుతున్న@@
కన్యా@@
కుంకుమ@@
మయ్యింది@@
ర్చి
వెంబడి
మరుగు@@
నెలాఖరు@@
వెనుకాడ@@
నయన@@
పానీయం
ప్రతిపక్ష@@
సలార్
భుజం
అగర్వాల్@@
పాఠ్య@@
సమకూరు@@
అరుణ
చింత
అన్యాయం@@
నెయ్యి
నిశిత@@
మియా
సహజమైన
కండ@@
పద్యం@@
టెన్షన్@@
రాజధానుల
భవనం@@
కంగారు
రాత
నమ్మిన
స్థాపన
రుణాల
క్రియాశీల
పౌరుష@@
ఇవ@@
సూరి
మర్యాద
కున్నాడు
మైనారిటీ
జిన్
సాధనము@@
బ్యాచ్
డ్యూటీ@@
ఎలిమెంట్@@
నిరంతర@@
మానవుని
గృహస్థ@@
పవన@@
సమావేశాల
భార్యా@@
యుక్@@
అపోహ@@
గొర్రె@@
మభ్య@@
పుడ@@
నెంత@@
ఔట@@
రవీందర్@@
విజన్
రాగి@@
సత్వర@@
పోలీస్@@
రిలేషన్
లియో
ఛానల్@@
కుండుట@@
దోమ@@
ఇట్@@
పరవశ@@
నశ@@
ఒకటైన
స్థావర@@
గ్రామాల్లో@@
శివకుమార్
సలహాల@@
పోయాయని
పత్రం@@
ష్ఠి@@
కూర్చ@@
మనమే
పేట్
జరుగుతూ@@
దిగుతున్న@@
కాన్స@@
బును@@
వినయ@@
మ్యాన్@@
ర్చి@@
సింహ
జోడో
ాధికారులు
మారడం
ఆరే@@
వెంకటేశ్వరరావు@@
పాటూ
పాల్గొ@@
నరసింహ
డౌన్@@
చాక్లెట్
హెల్ప్
నవ్య@@
ఎత్తే@@
చెల్లించు@@
వాక్యం
సేఫ్
క్వ@@
యూఎస్@@
కౌర్
చిరునవ్వు@@
పురోహిత@@
చవి@@
వ్యతిరేకిస్తున్న@@
సాబ్
కొడుకుల@@
విష్ణువు@@
సెమీ
ఇండ్ల
డిఫెన్స్
హాస్టల్@@
జయించ@@
గరుడ@@
ఆడపిల్ల@@
హౌజ్
డీసీ@@
సమావేశ
డవ@@
గన్నవరం
సాహసం
సీసీ@@
స్సా@@
భూపాల@@
కూల్చి@@
ఖర@@
కర్మము@@
ంటోంది
పోరాడి
రాధాకృష్ణ@@
గుడ్@@
మము
అంతేకాక@@
మిక్
ఘటనల@@
సిన్@@
రంజాన్
వీక్షణ@@
పంపి
సంబంధాలు@@
పద్యము
ఫైబర్@@
శయన@@
విప్లవం
రిషి@@
భగ@@
రత్నం
నాయకుడి
రమ్య
వందే
సంఘీభావ@@
డోసు@@
పాదము@@
ఆందోళనల@@
మన్నా@@
మురళీ
సమానత్వ@@
ప్రతిపక్షాల
క్రమశిక్షణ
కల్లు
ఒకరైన
చొరవ@@
మఱియొక
బోధించు@@
డయా@@
శత్రు
మరణాల@@
లేకుండ
తెరు@@
బెక్@@
బ్రతికి@@
జాన్వీ
చంపేసి
న్నూ
పంచాయితీ@@
మద్దతుదారుల@@
ఆదా@@
స్టు
గన్న
కథానాయకుడి@@
రావ్
జంతు@@
సిగ్నల్@@
గల్లంత@@
స్మరించు@@
పడనుంది@@
అమర్
కరుణ
రామలింగ@@
నర్స@@
మెల్ల
చేపట్టే
కటాక్ష@@
వాషింగ్టన్
కామ
ఆమ్లా@@
కండువా
దరి
వులు@@
పూల్
కఠిన@@
వేధిస్తున్న@@
ఆశాభావం
నాగరాజు
నరేంద్రమోదీ
ఆఫ్రికా
జాలు@@
మేడ్చల్
హైవే
పుష్@@
అట@@
ఒకటే@@
సారథి@@
సంపుట@@
ఆరో@@
భట్ట@@
నిమ్మ
చేరిక@@
యాజమాన్యాల@@
చిత్రాలు@@
అథ@@
తేజో@@
మహనీయ@@
నీలి@@
ిచ్చింది@@
ింట్లో
ఉదార@@
పడుతుంటారు@@
కురిసి@@
జెప్పి@@
పరం@@
మాస్కో@@
పడవ
పువ్వు
ప్లస్@@
సంపాదించి@@
ఇంగ్లిష్
దీర్ఘకాలం
టివి
నక్షత్రాల@@
సెంట్
దంటూ
తృణమూల్
పట్టే
దినము
సీడ్
యజమాన@@
హవా@@
నిజాం@@
కలుషిత@@
సమీకరిం@@
జీవుల
శర్వానంద్
దాం
విధేయ@@
పెవిలియన్
ఆవిష్కరణ
రుచుల@@
యణ@@
ఎంపీటీసీ@@
దుకాణం
పరిచయం@@
పట్నం@@
పోషక
శ్రీనివాసులు@@
రిజర్వాయర్
మిడ్@@
ఉద్వేగ@@
యనియు@@
చట
జర్నలిస్ట్
అభి
హాకీ
మార్చ్
కార్తికేయ@@
సమయ
ఫైనాన్షియల్
ధ్యేయం@@
నగ్నంగా
నుంది
చేయాల@@
ఁబడిన@@
యెత్తు@@
ట్లను
లాజికల్
మూసి
అబ్బా@@
ాయన
ానికీ@@
శాలి
గుంత@@
ఆహ్వానించి@@
వంటగది
క్షర@@
ద్వార
పోషక@@
ఉల్లిపాయ
ఆలివ్
జవాన్@@
తాండవ@@
యాత్రికుల@@
రయ@@
వాష్
త్రిష
బొగ్గు@@
వారల@@
మిమ్ము@@
కాంతా@@
పిసి@@
సైన్స్@@
సుమన్
కర్మా@@
చిత్త
వాస
తలపెట్టిన
గల్గి@@
ఏర్పర@@
కమ్యూనికేషన్@@
ఖైదీ@@
గబ్బర్
అత్త
ఉంచే@@
బిలిటీ
యాక్టర్@@
సిద్ధు@@
శమ@@
డన@@
సంపాది@@
ప్రయత్నించి@@
వుతున్న@@
పెదవుల@@
అర్థమవుతో@@
హిట్ల@@
పోయాక
ఇన్ఫర్మేషన్
విక్@@
చుట్టే@@
సాగారు@@
కంట్రోల్@@
చట@@
ఎడిటర్
రూపాంతర@@
ఖైదీ
జెట్@@
నిర్భయ@@
క్లారిటీ@@
శ్లేష@@
మరియొక
వనం
స్థాపించబడి@@
గంజాయి@@
అనుమతించి@@
ఁబడి@@
సంపత్
టార్క్
వైఫల్యాల@@
పర్యవసాన@@
ఖాళీల@@
జల్లు@@
సత్యవతి
దానిని@@
నెలల్లో@@
ధిక
ోన్నత
వ్యాపారవేత్త@@
తీస్తున్న@@
అతిక్రమ@@
షట్@@
మూర్తుల@@
తనయ@@
దాడుల
ప్రేమా@@
బేర@@
గొన్ని
పత్రాల@@
నశింప@@
దేవేంద్ర@@
నాటకం@@
విజయసాయి
మెయిం@@
డీఎం@@
లిపి
నశించు@@
వరము@@
ఉల్లంఘించ@@
నిజమై@@
అనుచిత
తీర్థం
నినాదం@@
విచారిస్తున్న@@
సిమెంట్
దేనని
ఆలోచించు@@
ఆస్కారం
చున్నాము@@
దుంప@@
ప్రవర్తించి@@
సుబ్రమణ్య@@
హుటాహుటిన
వచ్చితి@@
మండలము@@
సోకిన@@
కోట్
పరివర్తన@@
దీప్తి
అపోలో
దూరంలో@@
ఫుట్
ళ్
పరీ@@
అడ్డం
వచ్చ@@
ంట్లో
ఫ్లా@@
పీల్@@
రాజమండ్రి@@
సిద్దిపేట@@
కల్చర్
ఎవ@@
సమన్వయ@@
తగులు@@
కెనడా
పర్య@@
స్కెచ్
పగ
ఛత్ర@@
దేశముల@@
కారణమై@@
గురిచేసి@@
గర్భధారణ
దయి@@
అయ్యో@@
మెట్ల@@
ఇంతా
బ్యాగ్
ఇంజినీర్@@
కాశ్మీర్@@
పబ్లిసిటీ
కూలీ
ఫలాలు
ప్రెసిడెంట్@@
యామి
రెంట్
పాలక@@
పోవుట
సార్లు@@
మణిపూర్
కౌరవ@@
దము
ఎస్పి
వెతక@@
ధనాన్ని
రావాలంటే
సాయంకాల@@
తెలుపుతూ
ఐదవ
సెక్షన్@@
చీఫ్@@
చూడాల్సి
శాటిలైట్
మిర్చి@@
లేనంత
పారాయణ@@
జోగ@@
సంరక్షి@@
ళీ@@
యోః
త్యం
పెళ్లా@@
ఉత్తరాంధ్ర@@
రూఢ@@
భగవాను@@
దయాకర్
సబితా
పౌరుల
బడ్డాడు@@
తలచు@@
కూడి
సుబ్బారావు@@
నిచ్చిన
చేయించుకున్న@@
ఓపెనింగ్@@
లెస్@@
యార్
బాత్
పోలీస్స్టేషన్@@
స్టేటస్
గృహము@@
నూర్
కుర్చీ
అడ్డా@@
భవా@@
జయశంకర్
టవర్
మూడ్
పెట్టారు
తినిపి@@
వానికి@@
రూం@@
మన్య@@
మిది
సూచనలు@@
టకు@@
మాడి@@
తిష్ఠ@@
అక్షర
చూసుకున్న@@
సరిపోయే
ఉపకరణాల@@
వారసత్వ
కిశోర్
ర్వా@@
వెంకటేశ్వరరావు
తాత్@@
కారణమే@@
ఆసరా
నామ్@@
గరి@@
ీకృత@@
ఆతిథ్య@@
స్టడీ
ఋషి@@
మెచ్చ@@
పాపి@@
ట్రిప్@@
కిషోర్@@
పొంగి@@
కోలేని
లజీ
డీసీపీ
నన్నయ@@
సిరిసిల్ల@@
యుగంలో
వందల@@
ప్రారంభించే@@
యేషన్
వంటకం
శ్రీమ@@
విద్యావంతు@@
వెల్లువెత్తుతున్న@@
౧౦@@
ఒలింపిక్స్
తుందో@@
బడ
స్వాతి
పితామహ@@
టెల్@@
శివారు
తక@@
ధర్మరాజు
స్నేహ
సంబర@@
పేలి@@
పాదం
దోవ
పదుల
ొక@@
కురిపించి@@
గ్లో@@
మాలిక్
తలనొప్పి
వాగు
అంతిమ@@
లుండు@@
విద్యార్థినుల@@
దగ@@
తాలూకా
మాగ్@@
విఘ్న@@
మేరకు@@
సిద్ధాంత
గ్రంధము@@
షేక్@@
బాణాల@@
ాధిపతి@@
మెరుగ@@
కొబ్బరి@@
స్ఫుర@@
కేవల@@
దంత
శై@@
స్టాక్స్@@
కావడంతో@@
వారము@@
సిక్స్
పట్టణాల్లో
అయ్యర్
పంత్@@
యడంతో
ద్వారము@@
వెంకటరమణ@@
కలెక్టర్ల@@
రామిరెడ్డి
చతు@@
అకాడమీ@@
జెస్@@
పట్@@
కొరియో@@
నాయనా@@
్ఱ@@
సాఫీ@@
వ్యూహాత్మక
అంజలి
రాముడు@@
విషయానికొస్తే@@
దువు@@
మీటింగ్@@
న్యాయమూర్తి@@
పంపించే@@
ంపక
దీర్@@
ఎటు
పాయల్
క్యూసెక్కుల
చదవడం
శరత్@@
బడుతోంది@@
థై@@
దొర
ధాటికి
దినముల@@
తాయని@@
చంపి
నాలుక
షరతు@@
వాంఛనీయ
అలి@@
వీక్
మందలి@@
బాలుడి
తృతీయ
విజువల్
సమావేశమై
చెప్పుకునే
రేపు@@
ప్రాముఖ్య@@
అడ@@
నశించి@@
ఊపిరితిత్తుల@@
నాయ
ప్యానెల్
ఉర@@
పాలకుల
వైన్@@
మృతిచెంది@@
తరగతుల
జీర్ణించుకోలే@@
వట@@
పడాల్సి
ల్యాబ్
దైన@@
ఆడియో@@
మద్రాస్
మోహరి@@
కబ్జా@@
పారిశ్రామిక@@
వాలంటీర్@@
వెంకన్న
విశ్వాసము@@
మెరుపు
ములయందు@@
ండవు@@
ఆశి@@
సమాస@@
ఉపాయ@@
తొలగించు@@
దృశ్య
కోయ@@
డొక
రాంబాబు@@
సర్టిఫికేట్
సెషన్
ముద్రణ@@
లెటర్
సవాల్@@
గెలుచుకున్న@@
యెంత
ఎన్ఆర్@@
జోడీ
ఉండిపోయి@@
అవుతున్నా@@
పేమెంట్@@
భాషల
అయోధ్య
ఓర్@@
స్తుండటం
మేనిఫెస్టో@@
పాండ్యా
హైద్రాబాద్
గంగూలీ
దృష్టాంత@@
నువ్వ@@
నీలా@@
గుంజ@@
కొట్టే
మర్రి@@
గ్రాముల@@
మెమో@@
అందుకనే
గమ్@@
కవ్వ@@
ద్ది
ప్రతినిధుల
గిట్టుబాటు
బిఎస్@@
రాకెట్@@
రేస్
రైల్
ఛార్జి
వాస్@@
ంచారని
గుండెపోటు
దూ
కాల్షియం
మాక్@@
ఫిక్@@
వారల
గూడిన
గెలిచిన@@
జెడ్పీ
నిరోధి@@
మిడిల్
ఇతరత్ర@@
నేర్చుకున్న@@
పొలంలో
వాదీ
కనక
ాయట@@
లేనిది
బోయె@@
బియా@@
ేతి
చదువ@@
చడం@@
ఆదివాసీ@@
పేసర్
తెదేపా
శ్రు@@
పారిపోయి@@
చక్రం@@
సంబోధ@@
అన్నయ్య@@
గడప
రూపు
దురదృష్టకర@@
మండప@@
కాలేజీల@@
పత్రాల
ప్రకాశి@@
రజినీకాంత్
స్థితిగతు@@
యుగ
వంతం
శాస్త్రజ్ఞు@@
మూట@@
ద్రవ్యము@@
అణ@@
సంగత@@
ప్రతిపాదనల@@
సరు@@
పాపము
లుండ@@
కావాలన్న@@
వాక్యము
నిషేధి@@
పురస్కారాల@@
చెల్లు@@
కల్పించడం@@
కొన్నింటి@@
లందరూ
ప్రాణి@@
వాక్య
వారూ
జనము@@
శము@@
కెరియర్
గణా@@
కోడెల
గూర్చ@@
పింప@@
మౌతుంది@@
హము@@
డ్రోన్
జూచు@@
అమ్మకాల
బీమా@@
చూడు
వద్@@
రూఫ్
రూం
ఆర్థ@@
గోరు
గడిపే@@
డీఎస్@@
రోమ@@
అభిమానం@@
మరలా
విలపిం@@
సునీల్@@
రూరల్ః
పెరిగిపోతున్న@@
ద్దామని
కొంటూ@@
అలసట@@
వామ@@
గ్రాఫ్
బ్రాహ్మ@@
చేర్చి@@
రన్స్
సూత్ర
లిక్
రుణమాఫీ
నమ్మ
రాసే
తత్వం
భావజాల@@
మంటున్నారు@@
జాక్@@
మొద
కళల@@
కేర్@@
లాగిన్
దాల్చిన
సర్క్యూట్
ఏంటని
దసరా@@
విజేత
కాలేదు
డెల్@@
లఘు@@
డన్
అరంగేట్ర@@
సౌధ@@
ఆవిడ@@
మైనార్టీ
శీల
తీసుకురావడం
ాన్
తగినంత@@
లోకము
హర్యానా
గర్భిణుల@@
రక్తపోటు@@
పోగొట్ట@@
బాబీ
శన@@
లెవెల్
కర్ష@@
జేయ
గాయకుడు
వైస్@@
భగవంతుని@@
మల్లారెడ్డి
ఘటి@@
ప్రయత్నము@@
రోబో@@
జరుగుతూ
రొటీన్
ముద@@
నితీష్
ఉల్లాస@@
నెలవారీ
ద్వంద్వ@@
విసిగి@@
లాభాల్లో
మొస@@
దుష్ట
నాతఁ@@
బ్ద@@
ప్రోమో@@
ఎంటర్టైనర్@@
ముంద@@
చైల్డ్
కస్టమ్@@
సీసా@@
గృహం@@
మోయ@@
దిలీప్
తిరుగుబాటు@@
సౌభాగ్య@@
ించటానికి
ఁడే@@
ఆవేశ@@
కిడ్నీ@@
డెవ@@
ొక
సినిమాటోగ్రఫీ
డెక్క@@
సారం
ఇచట
నిలిపే@@
ఖండించి@@
వగు
నున్నారు
పాదముల@@
మ్మా
రూల్
మూలికల@@
సూట్
సాటి
సంతోష్@@
ప్రకాశ్@@
మోపి@@
మిగి@@
కడుతున్న@@
అజయ్@@
అందుతున్న
సాధింప@@
చేత్తో
కట్టడం
విడిచారు@@
లేవీ
రహస్యము@@
అక్కడక్కడ@@
పదార్ధాల@@
రాయల
పాలమూరు
విచారం
తాకి@@
ర్తు@@
బీర్@@
అర్థము
అడిగే@@
సంపత్@@
మార్పుల
నియామక
ఊపిరి@@
ప్రొఫైల్
నడిచి
స్కూలు
హీ
డిక్@@
సంక్షేమం@@
అదు@@
ఐక్యరాజ్య@@
ఇప్పట్లో
కాలే@@
తనము
మంచిర్యాల
పోతున్నాడు@@
ట్టుగా@@
కౌగిలి@@
పునాదుల@@
ముసలి@@
ష్టం
వేస్తా@@
ప్రశంసల
ఫ్లిప్కార్ట్
ప్రయాణించే
పృథ్వీ@@
అల్లి@@
ఎక్స్ప్రెస్@@
తరము@@
చేయిస్తున్న@@
నెగ్గి@@
చదువుకున్న@@
ప్రభూ@@
టికెట్ల@@
బంధము@@
బని
హొ@@
విముక్త@@
జగన్నాథ@@
చేస్తోంది
దైత్య@@
దఱు
విలేజ్
శ్వా@@
నాభి@@
వరదల
క్తుల@@
మహబూబాబాద్
కోరుకునే
గుణము
సారా@@
అధిరోహ@@
అప్రమత్త@@
యాస్@@
కాబోతున్న@@
కుమారుని
ఫార్మా@@
ఒంటి
మంచినీటి
ఊరుకో@@
పోషించి@@
టర్కిష్
ఇస్లామిక్
ప్రోమో
వెదజల్ల@@
వదిన@@
విమర్శల
గ్రి@@
కోన
రావి@@
పరిమితమైన
యుండి@@
ఇటలీ
మైనార్టీ@@
దొరి@@
మఱు@@
తాలూకా@@
కందు@@
చేపట్టే@@
శిబిర@@
ధ్ర@@
బెల్ట్
సూసైడ్
తిక్కన
ోత్తర@@
విలక్షణ
పదముల@@
పార్కు
దనం@@
నమోదవుతున్న@@
బోల్@@
రహదారుల
మము@@
కొప్@@
ేందర్
పట్ల@@
నాల్@@
విన
పూర్వా@@
చొర@@
ఉత్తమమైన
శ్రీరంగ@@
దరు
నిర్వహించడం@@
ద్దాం
సెల్ఫోన్@@
నాలుక@@
సూత@@
పశు
ణ్
స్థ
క్రమా@@
ంటోందని
సంపర్క@@
పర్యాటక@@
రాధిక@@
పొలి@@
పెంట@@
వేతన
క్తం
హీట్
రీతుల@@
ఏర్పరచు@@
స్టాక్@@
దేవతలు@@
కలుగు
కూర్మ@@
దొరికే
రాణ@@
నిర్వాహక
కుంభకోణం
డిలీట్
చెవుల@@
దక్షిణాది@@
కారక
రవిచంద్ర@@
యూనివర్శిటీ@@
హర్ష
ఉమా
హారి@@
ఆర్సీబీ
దువ్@@
ఇండెక్స్
ఫోన్ల
జాన@@
ఇషాన్
కోచింగ్
షిండే
యేత్@@
వినతి
మిక్కిలి@@
సుజాత@@
బారి@@
న్తి
యెవ్వ@@
సర్వజ్ఞ@@
మురళి@@
లోహ@@
సముద్రం@@
వాచ్@@
ఎలాగో
లక్
నామమాత్ర@@
వినియోగ
పాండిత్య@@
ఇనుము
మురిసి@@
ప్రస్తావన@@
గేటు
అట్లా
బూని
లేబర్
దీపిక
పిక్స్
కైన@@
కీలకపాత్ర
నక్కర్లేదు@@
ప్రయోగం@@
నీళ్లు@@
పుష్కర@@
మధి@@
చుట్టూ@@
వాడై
స్తీ@@
సాధ్యమై@@
కత్తిరి@@
కల్ల@@
అనన్య
ఇన్ఫ్ల@@
హాట్@@
ఎస్ఎస్@@
ట్యూబ్
సుగుణ@@
వ్యాఖ్య
దిద్దు@@
అభిప్రాయ
చింప@@
ఎట్లు
అథ్లెట్@@
వతీ@@
సరదా
మూలమున
క్షన్@@
అభినందిస్తున్నా@@
డబుల్@@
వేరొక
బోర్
వాహనంపై
ఇండోర్
పురుషాంగ@@
రాష్ట్రము@@
అమ్ముడు@@
ప్రలోభ@@
ప్రయాణి@@
ప్రధానోపాధ్యా@@
మైక్
బిందు@@
సరోజ@@
వేడిగా
వచ్చారని
సీక్వెన్@@
భుజం@@
వైఎస్ఆర్@@
మెమరీ
రిటీ
యమ్
యాతని
సంస్థాపన
కూరు@@
లిప్@@
మునిసిపాలిటీ@@
నవీన్@@
నదుల@@
సమేత@@
జానకి@@
భోజనాల@@
స్తాను
మాంత్రిక@@
వారియర్@@
విహరి@@
ఐపి@@
విశ్వేశ్వర@@
దగ్గ
దలచి@@
గుట్టు@@
త్వేన
ధూమ@@
ఖ్
ఘ
డైరక్టర్
మానసిక@@
జిల్
వెల్లి
మొండి
బాప@@
ఁడ
భాగవత
గౌతమ@@
పస@@
స్టాండ్
వసతి@@
వుతోంది@@
జయప్రద@@
ఘో@@
దోషి@@
గద్దె
వీరయ్య
గర్ల్
బొంది@@
దానము@@
పరిచిన
విస్
రాగము@@
ప్రతిపక్షం
రామా
లోకమున
మునిసిపల్
సాహో
సాహెబ్
మ్యాజిక్
నాగ్@@
అనీ
రాయితీ
ఎల్లా@@
శాను@@
ఉప్@@
తగ్గే@@
ఆక్సిడెంట్@@
ఏరో@@
దూరమై@@
దాస్య@@
పూయ@@
కాలుష్య
గ్రామ్@@
చెంప@@
శాకుంతల@@
రాధా
రామచంద్ర
నెల్@@
మూలాలు
ల్యాండ్@@
బింబ@@
సమూహ@@
క్రిస్
చెల్లించే@@
ఓపెన్@@
దనియు@@
భాషలో@@
విమానాశ్రయ@@
ఓదార్చ@@
వేరియంట్ల@@
పరార@@
నెక్క@@
లిప్
బ్యాక్టీరియా
మార్గాల
బంగాళాఖాతం@@
ఎఱ్ఱ@@
యుగము@@
కొట్టాల@@
యానంద@@
డిజైనర్
శాస@@
భ్రాంతి@@
ఓటరు
బావ
డ్రాప్@@
జగదీశ్@@
దర్శించ@@
కలహ@@
కమాండ్
ఏదో@@
మల్
బ్రాంచ్
నెవ@@
లేడీ@@
ఆశా
మూసే@@
ప్పటికి@@
నైరుతి
నష్ట
ాంశ
సల్
డీజిల్@@
స్వర
మీరా
వేయండి@@
రచయితల@@
ఎదురైన@@
చెస్
బడదు@@
కాక్@@
అంతకన్న@@
వచ్చారు
పారే@@
విభాగాలు
గూడు@@
జగన్నాధ@@
మరిగి@@
పింఛ@@
నిరూపి@@
సగ@@
త్వరితగతిన
ఇయ్య@@
ఏసీపీ
ఫాదర్
శ్రీరామచంద్ర@@
క్రై@@
పోగు@@
శ్రీనివాసులు
తస్యా@@
ఏకీభవ@@
రిక్రూట్మెంట్
వూరు
అగ్రి@@
జీన్@@
నాగచైతన్య@@
మోడళ్ల@@
రింపఁ@@
ఆపి
షూట్@@
నుద్దేశించి
బ్ర
అన్నపూర్ణ
చేసారు
హస్తి@@
కెంతో
భాను
బున@@
ంచుట@@
ఘ్ర@@
సామాజికవర్గ@@
రాఖీ
ోత్సవం
నోట
కేమి@@
ముఖి@@
ంచబడుతుంది@@
బంధువు
స్పృహ@@
జొన్న@@
వ్యతిరేకత@@
ఆయుర్వేద@@
సింప@@
సంచుల@@
లేకుండ@@
భూతి@@
దూకి
ట్రావెల్
నిల్చు@@
కుంటాం@@
కొచ్చి@@
కబురు
జూప@@
పగిలి@@
భగత్
పొగాకు
నిముషాల@@
విమానాల
రాబడి
రిజి@@
చుండుట@@
రంగనాథ@@
సాంకేతికత
వృద్ధ
చోటా
అరుణాచల@@
చొ@@
భం@@
రఘు
బిల@@
పిల్లి@@
వీరిద్దరి@@
ఎటు@@
లందరు
డార్క్
తుదకు
వీరుడు
పెరిగే@@
మతా@@
విడి
జడ్పీటీసీ
హ్
జన్మదిన
బ్యాగ్@@
తెఱ@@
ధరించడం
భర@@
ంబ
అట్లు@@
ిస్తున్నామని
డౌ
తతః
విసర@@
ఫిజికల్
సూచించిన@@
అఫీషియల్
నున్నా@@
చుకొని@@
ఫార్మెన్స్
టమాటా@@
ఏపి
ాదులు@@
సేకరి@@
గోర@@
చిరుత
వెంకటేశ్
చేతులు@@
దశా@@
హంగు@@
రికి@@
సెటిల్
తీసుకొచ్చే@@
గలిగే@@
తక్@@
మర్మ@@
వాహక
సైజ్
వివరించిన
తరాల@@
రికార్డ@@
రాక్@@
ఛి@@
మనుజు@@
కెం@@
సర్వేశ్వర@@
రిచ్
తామర@@
పాక్షిక@@
గూగుల్@@
నాటకము@@
ట్యాంకు@@
పూవు@@
దీసి
లేదను@@
పంచమ@@
నియమము@@
బలా@@
వశాత్తు@@
హాసన్@@
ర్లు@@
గుడివాడ
సంహిత@@
నిర్వాసితుల@@
్వ@@
కంటిన్యూ
ప్రసార
గౌడ
సంకీర్తన@@
విభాగాల
డబ్@@
కంకణ@@
తీసుకోవాల్సి
స్టూడెంట్
శక్తుల
భారతీయుల
ారి@@
కల్తీ
కాషాయ
క్యాన్సిల్
ధము@@
ేషు@@
నిత్యా@@
డవు
బంతుల్లో@@
ాంతము@@
రౌత్
కోర్కె@@
జీవితకాల@@
సాధక@@
ప్రశాంత్@@
వయవ@@
డబ్బా@@
శుభం
బాక్స్@@
పార్వతి@@
పెన@@
విలువైన@@
కేరళలో@@
రక
పాస@@
నెక్ట్స్
అల్లా@@
క్లినికల్
డాది
ప్రియా@@
నౌ
గీయ@@
ర్తి
అడి@@
లాయర్@@
నియమించిన
భగ్న@@
ఏమో@@
సర్గ
మనుష్యుల@@
ఆకుకూర@@
తిట్టి@@
అమెజాన్@@
లక్షణము
బ్రాడ్@@
సుఖము
పరుస్తున్న@@
నిర్లక్ష్య@@
స్తాన్@@
యౌవన@@
రొమ్ము
వివాహము
లార్డ్
భిషేకం
ఈమధ్య
ఫీలింగ్
నడ్డా
కర్నూల్
ఆమ్@@
పైలట్@@
త్యజ@@
ఇప్పటికి@@
విష్@@
పుట్టినరోజు@@
నటించే@@
కూరు
జీవిస్తున్న@@
ఆర్య
దిద్ద@@
దాఖలైన
భయము
సంపన్న
వాదనల@@
బొట్టు
మాన్యువల్
మొత్తా@@
మాతా@@
ప్యాకెట్@@
విజయశాంతి
వెయ్యి@@
స్థానికుల
ప్రస్థ@@
తెచ్చే
వత్తు@@
తుమ్మ@@
స్వచ్ఛ@@
కోగా@@
ఆజాద్
స్యాత్@@
వెంటనే@@
పిన్
ఎదురైన
హాస్య
గ్రాఫర్@@
మొయి@@
లోకానికి
బ్యాటర్@@
జలుబు@@
సికింద్రాబాద్@@
యట్టి
ధనా@@
జంప@@
బిగి@@
తివి
తృతీయ@@
ఫాన్@@
ప్రధమ@@
ప్రాకృత@@
గ్లూ@@
శ్వాసము@@
దోషము
వేది
పొందుపరచ@@
ఫోర్
ుల్
ప్రయత్నించిన
నిలిపివేసి@@
ప్రవాహం@@
ప్రతిమ@@
అవార్డుల
మౌనం
పండిత
ఎలుక@@
అపహర@@
నిచ్చి@@
హరిత
చిరకాల@@
మాను
శ్వేత
కన్సల్@@
పనిచేసి@@
ంట్@@
ట్రిక్@@
వెడల్పు@@
రాథోడ్
రజత@@
కౌన్సిలర్
టవర్@@
ములతో@@
గోపీ@@
ఉత్తరాఖండ్
వివేకానంద
కలాప@@
కడుగు
తుంగ@@
వదన@@
సంభాష@@
కౌన్సెలింగ్
క్షణాల్లో
ఉపయోగపడే
బోనస్
వసిష్ఠ@@
పేరెంట్@@
సవరించి@@
బాక్సింగ్
దానము
పాతాళ@@
మౌ
తుపాకీ
పరివర్తన
ొచ్చి
ఫాస్@@
నామా
గేమ్స్@@
గృత@@
ఘ్న@@
కేసిఆర్
ంచండి
ఎడి@@
ఎవరితో
చురుకైన
హస్@@
సొరంగ@@
తనకు@@
వార్షికోత్సవ@@
అమ్మాయిల
శాసనాల@@
నెత్తి
వెచ్చించ@@
కేశినేని
వెల్లువ@@
మారే@@
ఢ్య@@
బృ@@
వేగము@@
మెయిల్@@
న్నారు
నటరాజ@@
సవాలు@@
సేవి@@
రమణీయ@@
జలపాత@@
సంఖ్యా@@
సఫల@@
దేహము
చెడి
వ్యవహార
తోందా@@
విమర్శించి@@
బెల్
చిన్నతనం@@
భావంతో
వంశము@@
కథాంశం@@
బీసీసీఐ@@
సంచిక@@
రోల్@@
స్వాధీన@@
యింకా
బెటర్
సున్నా
యద్@@
లైటింగ్
చిత్రపటానికి
ల్లు
వ్యాపించి
టంచు
కాల్పుల
ఎముక
నిర్వాహక@@
నీత@@
తనయు@@
నిష్పత్తి@@
మోక్ష
జాలక
అర్ద@@
లేవనెత్త@@
లాభాల
కొముర@@
వీరుల@@
చదువుకున్న
కనిపించి
నేరదు@@
దేవాలయ
లీన@@
రబ్@@
చెరు@@
కూరగాయల@@
స్టూడియో
పిచ్
క్రేజ్@@
ఆఫ్రికా@@
మర్చి@@
ముఖేష్
సైకిల్@@
టరు
ాడ
సమేత
వ్యవహారము@@
వినూత్న@@
యోధు@@
బోయిన@@
వాస్
ఆద్యంత@@
పాపులారిటీ
్నీ
ఉల్లంఘించి@@
నిరాహార
పేర్లు@@
ప్రకారము@@
మల్లికార్జున
భౌగోళిక
ముగ్ధ@@
క్యాం@@
చూస్తుంటా@@
నారంభ@@
కడు
తొమ్మి@@
డ్యాన్స్@@
సింహం
పైకప్పు
విరాళం@@
మెట్టు
దిగజారి@@
సంబుర@@
కాంట్రాక్టు@@
పుస్తకాల
బంధన@@
లేద@@
తొలగింపు@@
పట్టాలెక్క@@
ర్ద@@
మల్లు
ణాం@@
వ్యాఖ్యాత@@
క్యాపిటల్
నిర్మూలించ@@
గలవా@@
దర్ప@@
నేపథ్య
వాస్తవమే@@
నీటిపారుదల
మల్టీస్టారర్
వృత్తాంత@@
డెవలపర్@@
ఉడికించాలి
మహం@@
పోతున్నారని
సరసమైన
క్లుప్త@@
భూప@@
పిశాచ@@
సస్
యంలో
ఓపెనింగ్
సదు@@
కరిగించ@@
ఆటల@@
సాక్ష్యాల@@
గుణములు
చూచిన
ఫండ్స్
స్పా@@
నైతే
నెటిజన్ల@@
అలియా
కదులు@@
ఏసీ@@
బాటిల్
తీసుకువచ్చి
కలెక్@@
కాద@@
పౌడర్
నుపయోగ@@
నప్ప@@
థర్మల్
వఱ@@
భారతం@@
యజ్ఞము@@
అన్నదమ్ముల@@
నెడు
రెమ్యూనరేషన్
బీపీ
మొదలై
క్షమ@@
నదులు
తల్ల@@
సమూహం@@
చంద్రుని
కార్తీక్@@
దినం@@
లేను
బస@@
తరలించే@@
పీటర్
జరు@@
బట్టారు@@
సుక్@@
అలెగ్జాండర్
హిందు@@
ప్రస్థానం
జరి@@
అడుగడుగున@@
జరు
సైబరాబాద్
కార్యకలాపాల
మెంటల్
వాట్సప్
మహాకవి
సంతోషకర@@
రిజర్వు
మిశ్రమం@@
చప్పుడు
కాపుర@@
అనుకర@@
ప్రేమిస్తున్న@@
అసోసియేషన్@@
వరకూ@@
అహింస@@
పోటెత్త@@
లాడుతూ
నిపుణుడు
కోసి
త్రీ
హార్
అభయ@@
సితార
తెరాస@@
మెజార్టీ@@
ఉద్దేశపూర్వక@@
పట్టుకో@@
సైనికుల
సంపాదన
ఐఎస్@@
రేపుతున్న@@
బండ్@@
వర్తించు@@
సభల్లో
పాదాల
గూఢ@@
దక్కించుకున్న
వైరుధ్య@@
క్రూ@@
స్వరూపము
మద్ద@@
మన్మోహన్
పోర్టల్@@
గొర్రెల
రహస్యం
హారిక
సాన్@@
మధ్యంతర
నింపి
జాలదు@@
వ్యూహాత్మక@@
తరహాలో@@
ఊపు@@
రిపోర్ట్@@
ఉందంటే@@
బ్యాన్
జరుప@@
వేగ
కిట్
గ్రంథం@@
బూడిద@@
యుని
నీయ
జైట్లీ
నివ్వండి@@
ఘాట్@@
బది
గలిగింది@@
లోకమున@@
బుచ్చ@@
జనగామ
మైనా@@
ఉపాసన@@
లోకముల@@
క్య
నొంది
వేస్తున్న
చ్చిన@@
ుడను
ఋషి
రూమర్స్
లుక్కే@@
దొరకడం
నాడి@@
నంబు
పంక్తుల@@
యెవ@@
లేమి
ంచుకున్న
అనుసరిస్తున్న
సీమాంధ్ర
జూబ్లీహిల్స్
విక్టరీ
కవులు@@
పెట్టకుండా
తరఫు
వాడటం
ప్రేమ్
జీఎం
కలిపిన
వియోగ@@
డిశ్చార్జ్
ఆకర్షణ
పార్ట@@
గణిత
ఆర్డినేటర్
స్టార్టప్
ముందడుగు
చెప్పుట
రోజ్
నతఁడు
టివ్@@
పార్వతీ@@
ంటున్నారు
డాక్టర్ల@@
ఎడిటింగ్
పిత్త@@
డాలర్
స్క్
మ్యూ@@
విజువల్@@
బిసి@@
పరచడం
విజ@@
సుపరిచిత@@
దేవర
యున్నాఁడు@@
మద్యం@@
విప్పి
ప్రకటించే
రెవెన్యూ@@
చిక్కుకున్న@@
ాక@@
వార్డ్
ముడిపడి
నికిఁ
మాధుర్య@@
కళ్యాణ
నప@@
నిధులు@@
భూమిక
పోయాలి@@
దేహ
కలిగించు@@
సౌర
కడియం
బిరుద@@
గతం@@
ఫండ్లలోకి
బడుతున్న
విచారి@@
టిన్@@
ాసుర@@
మురికి
వృక్ష
అందఱ@@
ఆతఁ@@
గ్రంధాల@@
మహబూబ్నగర్@@
బెనర్జీ@@
అవలంబించ@@
కన్నీటి
అట్ట@@
హసన్
చర్ల@@
వట్టి
రెప్ప@@
సారించి@@
ఆవిర్భావ
దాచు@@
కలసి@@
యంతయు
మోటారు
పులక@@
పచ్చ
థియేట్రికల్
ఆక్రమించు@@
యంత్రాంగ@@
చూపడం
ండేది@@
సురా@@
గంటలు@@
చరిత్రము
ప్రసరణ
మంగళగిరి
కోహ్లి@@
డల్@@
అహం
అల్యూమినియం
పెంపకం@@
క్వారంటైన్@@
నట్లయితే
పథంలో
కష్టపడి@@
బ్ల@@
సమర్ప@@
చంపేసి@@
దాల్చి
సునీత@@
తులై
సిసి
ఎద్దు@@
గుడ్డు@@
లారా@@
దిగుమతుల@@
సరస్వతీ
షణ్ముఖ@@
ండాలి@@
యార్డు@@
గులు@@
తార్@@
డబ్ల్యూ
తాజ్
చూస్@@
కుందే@@
పేట్@@
స్వస్తి
ాయన్న
క్రీస్తు@@
డుతూ
ఐరోపా
లియన్
ఎలక్ట్ర@@
ఆర్డీవో
గోరి
ఔషధాల@@
రధ@@
ఖరీదు
చుండగా
కుప్పం@@
అతడు@@
ుకునే
ారి
శాన్@@
సోర్సింగ్
కుంటారని
మహ
డిగి@@
గమ్యస్థాన@@
పరిషత్@@
లిన్@@
కుర్రాళ్ల@@
రాల్@@
జలాల
ంపఁ
మంత్రివర్గం
మనః@@
సమాధాన@@
చరు@@
బుద్ద@@
రూరల్@@
ట్రీ@@
పబ్@@
పిచ్@@
మలిన@@
మనే@@
పీపీ@@
నిలిచే
ఐఎఎస్
ఉన్నంత@@
ఆరాట@@
గొలుసు@@
అరవై
కంటెస్టెంట్
గుప్తా@@
క్రిమి@@
బంధ
ధర్
వృద్ధాప్య@@
శ్రేయస్సు
రషీద్
ఫ్లై
గ్రంథాల@@
ఖ్యాతి
క్రిష్ణ@@
ఆకస్మిక@@
కమిటీల@@
చదివిన@@
ద్దీన్@@
గ్రాడ్యుయేట్
గల్పిం@@
గణేష్@@
మొల@@
సిఐ
ముందే@@
షెల్@@
ఆటోమొబైల్
చాలి@@
కుంభకోణం@@
లిఖ@@
షియా@@
తెలిపే
పరిమితం@@
ఊగి@@
మిగులు@@
కుశల@@
సంకేత@@
విభేద@@
హింసాత్మక
బారిన@@
జారు@@
మక్క@@
నోకియా
పునరావాస
సంగ్రామ@@
మాసాల@@
జనరల్@@
తారో
మోసాల@@
హృదయము
సర్దు@@
బ్రౌన్
ఎయిర్పోర్టు@@
హత్యాయత్నం
వ్యాప్త@@
శిఖ@@
గుడిసె@@
గుణపాఠ@@
బాష్@@
ప్రయోగము@@
బ్యాలెట్
సంకేతం@@
స్మరణ@@
రాళ్ల
కుమారుల@@
ైతే@@
వరాహ@@
నాల్గు
సంకల్పం
వాచ@@
శాంతియుత@@
నిలదొక్కు@@
తెరిచే@@
మహో@@
రాస@@
ప్రేమకథ@@
లేదంటే@@
పోతన
అమాంతం
మిలిటరీ
గృష్ణ@@
ఆందోళనకారుల@@
ఫోర్డ్
క్రియా
అహ్మదాబాద్@@
వెంకన్న@@
ప్రతిజ్ఞ@@
ఆరెంజ్
దగినది@@
రంగము@@
స్క్రిప్షన్
తడిసి@@
పరిమితమై@@
రిజిస్ట్రార్
అంధ@@
తరపు
విరేచన@@
మెండు@@
క్లి@@
వెల్లడి
యమ
మేఘా@@
నామకరణ@@
విధాల
రిమాండ్@@
పొడిగించి@@
అడిగితే@@
చేస్తామని@@
సుల్తాన్
తెలిసే@@
ప్రారంభమై
వెడ@@
కిచ్చి
సినిమాటో@@
సనాతన
జంతువు
ఫేస్@@
ఎగురు@@
కొప్పుల
పద్మనాభ@@
నొ
క్యాలెండర్
సాగాడు@@
నతని
సన్న
స్థల
వచ్చుట@@
నియామక@@
ఐక్యత@@
ల్యాప్టాప్@@
జాడ
దల్@@
రములు
స్తాయని@@
ఫిలిం@@
సౌ
వాక్యముల@@
సాక్షుల@@
లావణ్య@@
ఖో@@
డోసు
బ్రిడ్జి@@
వేంకటేశ్వర
విక్రయిస్తున్న@@
అత్యాచారాల@@
స్తుందో@@
పొగడ@@
దృక్పథం@@
వాదము
రవికుమార్
వెల
గాయి@@
యాసిడ్@@
చేశారట@@
మొక్కజొన్న
స్కామ్
కీరవాణి
కలిగే@@
ఆదివాసీ
కరుణాకర@@
ఆర్ఎస్ఎస్
అసలేం
టెక్స్ట్
రింప
క్షేత్రము@@
కేబినెట్@@
అధిపతి
రేఖా@@
మిటి
రోష@@
గుడ్ల@@
కుర్వ@@
ఏడి@@
సెన్సేషన్
నడుము@@
కంత
పోల్చి
అసమానత@@
ిస్తున్నాం@@
రాన్ని
ఛీ@@
౪@@
కద@@
ఆగి
లైన్స్
తీర్చే@@
ప్రతిజ్ఞ
తదనంతర@@
చేయాలన్న@@
చాం@@
పునీత్
తొలగించడం
సరిపోయే@@
త్యర్థః
ఏలూరు@@
మయం
మేడి@@
రెయిన్
అభ్యర్ధుల@@
విపక్షాల
మేరు@@
వర్గీకర@@
తరిమి@@
వైభవం
విదేశీయుల@@
ప్లాప్
దోషం
హృద@@
ించని
రావత్
గన్న@@
ఈటెల
వామపక్ష
ఉదయం@@
నిరూపించి@@
ఉద్దేశ్యం
నాటికీ
కుందాం
కింత
శిబిరం@@
రిన్
బద్ధమైన
ఏమన్నా@@
నెట్టింట@@
నిర్వీర్యం
కాశి@@
అచ్చెన్నాయుడు
చ్య@@
ట్రా
తండ్రీ@@
నచ్చిన@@
వెతుకు@@
సంద@@
ప్రచురిత@@
ఎవర్@@
దుఃఖ
బస్టాండ్
అద్భుతం
ఇతివృత్త@@
ఇమేజ్@@
పెంపకం
ోన్@@
మేక
నమో
రిమోట్
నల్లగొండ@@
ఎవడ@@
లక్ష్మీనారాయణ@@
లంగ@@
టీపీ
సుఖదుఃఖ@@
భూలోక@@
ాంశము@@
ప్యాడ్
ట్రోల్@@
మాటి@@
సత్యము
సాటి@@
ార్
థియేటర్ల
మాట్@@
పర్వం
సర్వీస్@@
డ్రై
ఇంద్రియ@@
త్రం
ఇవ్వక@@
ంజలి
భరిత@@
ములలో@@
నరసింహారావు
ప్రవృత్తి
రాళ్ళు
శ్రద్ద
న్యాస@@
మడుగు@@
సంచరిం@@
రావటం@@
నటు@@
నదియు@@
ప్రాయము@@
ఫిషింగ్
పుత్రుల@@
ఆడవాళ్ల@@
్లా
స్వరం
పర్యటించి
పుంస@@
విశ్వక్
దించు@@
సార్థక@@
ఐఏ
మరణించి@@
యనమల
సుస్థిర@@
మిల్లర్@@
అనుపమ
ేశ్@@
డోర్@@
మంచిదే@@
మూఁడు
న్నె
చేపట్టడం
జెల్
ఈక్విటీ
తిప్పి
పడును@@
ఫైన్
యాన
రీసెంట్@@
ఎస్సై@@
వివ@@
జరిగితే@@
ఏమిటని
ములగు@@
చెప్పటం
విరాళాలు
స్వీకరించి
పడాలి@@
ఆహ్లాద@@
కమలం
దళ
నట్@@
అనర్హత
కూతుళ్ల@@
లాజిస్టిక్@@
కేజీ
వారని@@
దందా@@
ఒలింపిక్
వేరొక@@
తిరిగే@@
లీలా
నైజ@@
జూపు@@
ఎవరితో@@
చంద్రశేఖర@@
ఏటీఎం
మత్స్య
అంతర్గత@@
దాడులు@@
ట్రక్కు@@
రేట్ల
దినోత్సవం@@
బతుకు
లాగే@@
వ్యాపక@@
క్షుణ్ణంగా
గోపాల
అతిథుల@@
మిడి
ట్రూ@@
స్సు
మరెన్నో
సమర్థించ@@
డెబిట్
షియా
బిందు
టై
సెల్ఫ్
తాడని
సోదరి@@
రష్మీ
పేరుకు
వర్సిటీ
లిన
యామ@@
పారిశుధ్య
సవ@@
జేసు@@
తీశా@@
హీరోయిన్ల
విండీస్
కోదండరామ@@
వీడు@@
సచివాలయాల@@
షేడ్స్
నెటిజన్
సమర్పించు@@
ముక్తా@@
సందర్శ@@
సంస్కరణల@@
చతుర్థ@@
క్షణంలో
జవహర్
చిత్రీకరి@@
బూ
సృష్టించి
వురు@@
వరదల@@
లాడే
కమల
ఎగర@@
యామె
అం
విడివిడి@@
అపార్ట్మెంట్
గెటప్
ఆచారాల@@
అణువు@@
బజ్
చైర్@@
పద్యముల@@
ఈవీఎం@@
పెక్కు@@
గిరిజనుల
మంత్రం
కాపుల@@
నిర్మాతల
సడలి@@
కటు@@
తత్త్వము@@
ర్శ@@
్నుంచి
కొయ్య@@
ప్రయోగ
పురు@@
యూకే@@
దద్@@
సంఘర్షణ@@
వర్ణన
ఇజ్రాయెల్
మయం@@
అన్నం@@
ఓవర్సీస్
దశల
వ్యూ
నిరీక్ష@@
ంటని
రైటర్
పర్తి
విశేషం
భట్@@
బ్రా
వినయ్
విల్
మిడ్
చితి@@
చందా@@
సంస్ధ@@
భూములు@@
మరు
గెలుచుకున్న
సేకరించి@@
దహన@@
శత
ంచుట
ఉపాధ్యాయ@@
స్కూటర్@@
ఎఱ@@
రాజి@@
వాదానికి
లగుట@@
పిలువ@@
ధను@@
వుంటుం@@
కృష్ణంరాజు
కోరుకున్న
పక
లాడుతున్న@@
పీడీ
యూర@@
నఁగా
నాలుగ@@
తెలియక@@
సూట్@@
కోపము@@
మృతుడి
దండి
పలుచ@@
బ్యాటర్
ముమ్@@
అభియోగాల@@
సహకరించిన
కష్టపడ్డా@@
జాగృత@@
ఖానా@@
విక్
భరత్@@
సముచిత@@
అవతలి
బీన్@@
కేటాయింపు
రైన
మురికి@@
మభి@@
ఇదియే
సోనీ
దూసుకొ@@
సదాశివ@@
ననుట@@
ఇంకో@@
జగ
అలసి@@
వేధింపుల
నిజాయితీ
స్వత@@
చేసుకొని@@
చేసుకోవాల్సి
లీక్@@
యుండిన@@
రకాలు@@
ఉద్దేశ్య@@
యతని@@
వేమ@@
ధ్యాన
త్రిష@@
ఆటగాళ్ల
సలాడ్
జాన్సన్
ఏర్పాట@@
ండ్రు@@
పురుషులు@@
ఫలాలుఃబృహస్పతి
తయారైన
ర్యామ్@@
ఇంట
అర్థ
ైక
ాత్మకంగా
శాసనం
కార్డుల
బంగాళాదుంప@@
స్వచ్ఛ
అడ్మిషన్@@
పోవాలి@@
మెదక్@@
ఆయుధ@@
సంధ్య@@
కబ్జా
గుండా@@
ప్రొడ్యూసర్@@
ఆదివారం@@
య్యారని
కాలేయ
స్టడీ@@
ంచాల్సి
చిట్టి@@
సోక@@
కంబు
పరమార్థ@@
యుగం
రఘునాథ@@
దేశాయ్
ఇన్స్టా@@
లంద@@
బాధపడ్డ@@
రంధ్రాల@@
చాను@@
పర్వతం
తాడేపల్లి
ష్ఠ
దళితబంధు
స్థాన్
ఏళ్ళ@@
వుతున్న
మయా@@
యనియు
శోష@@
గౌడ@@
స్వయముగ@@
తీర్థ
యాతని@@
సస్@@
రాబోతున్న@@
భరతు@@
క్షమా@@
టేకాఫ్
శుక్రవారం@@
భారీగా@@
ఖల@@
రిలీఫ్
ఎంఎస్@@
తెలిపిన@@
స్కాలర్@@
ధూళి@@
వాణ్ణి
అగు
కామి@@
స్థితిలో@@
నీవ@@
కివీస్
క్రమబద్ధీకర@@
వేసినట్లు
అవడం@@
ఫ్లూ
పకడ్బందీ@@
చమత్కార@@
పిలిచే@@
యాజమాన్య
రికార్డుల
మహిష@@
మహేందర్
కుబేర@@
మార్టి@@
సెట్స్@@
ధనం@@
రైడర్@@
గ్రంథం
గద్వాల
ఎల్ఐసీ
షూ@@
ధార్మిక
క్రాస్@@
పోసాని
వైపున@@
వతీ
హరీష్@@
ఫ్లైట్
ఫిగర్
బడుట@@
మెట్ల
సంతతి
సిగరెట్@@
కేషన్
లింగా@@
రాళ్ళ@@
బొడ@@
తిరిగా@@
కూడు@@
ప్రత్యర్థి@@
వర్సిటీ@@
టీచర్ల@@
పెయింటింగ్
ఐరోపా@@
ప్రభుత్వము@@
సెంటిమెంట్@@
పంది
రించిన@@
జెప్పి
దుస్థితి@@
సేతు@@
బ్రెడ్
ితా@@
మిచ్చి
పిఎస్
తరానికి
దొక
ట్రెండ్@@
గడిపిన
కుంటున్నారు
కొట్టిపారే@@
రాడు@@
ఋతు@@
సంవాద@@
ధీ
ఆదరి@@
ఇన్ఫ్రా@@
సదృశ@@
యొద్ద
ఉచ్చ@@
లివర్
మంజూరై@@
జామున
అచ్చం@@
రితి@@
యత్నం@@
నిష్పత్తి
నటిస్తోన్న
లింకు@@
శేషు@@
పుంజుకు@@
గుంపు
గరు@@
నామము
నూట
జులై@@
పెట్టాయి@@
నితీశ్
అనుకునే
మగుట
రక్షిత
నగరాల
సుందరి@@
ొక్క@@
ఎలక్షన్
బ్యాట్స్మెన్
ఐన@@
సంపాదించి
పోటు@@
ముసుగు
విక్రమార్క@@
గూ
నిర్దిష్ట@@
ప్రైవసీ
ప్లాట్ఫామ్@@
బార@@
శిల్ప
జగద్@@
వారై
సరస్వతి@@
ప్రౌఢ@@
ఖీ@@
ంచుకున్న@@
ప్రోగ్రాం
దేవాదాయ
మేషన్
నెయ్యి@@
మినీ@@
తీసుకొస్తున్న@@
ండ్రు
సింగపూర్@@
ఛాతీ
స్తీ
పోరాడుతున్న@@
శయ్య@@
నిమి@@
బాలి@@
ధాత్రి
కాంగ్@@
విద్యాలయ@@
గేమింగ్
మేల్
సాహో@@
డిపో@@
క్రియేటివ్
పొటాషియం
కర్పూర@@
త్రము@@
షష్ఠ@@
కుంద@@
పీడన@@
క్యాంపు@@
ఊరేగింపు@@
ణే
మూత్రపిండాల@@
ెన@@
వధి@@
రాశిలో
నివాసితుల@@
డిపాజిట్ల@@
బాబూ
నమ్మకాల@@
సంతోష
ఓల్డ్
గ్రామ్
ొ
ముచ్చట్లు@@
స్వీట్
కాస్త@@
అటువంటి@@
గృ@@
విసర్జన
అలంకరణ@@
వికసి@@
ఫికేషన్
గృహాల@@
బాక్సు@@
ట్విస్ట్@@
అందిస్తా@@
కుక్కల
సంతానం@@
వెలికి
రత్నము@@
ైనా@@
గ్లాసు@@
సంయోగ@@
చిత్తము@@
అనాథ@@
పెదవి
నమస్@@
లీటరు
యిడ్@@
లెగ్
వుంటుంది
పలిక@@
గవి@@
ఉండాలనే
మిలి@@
చెరో
ఉత్తరాఖండ్@@
తమిళిసై
జపనీస్
శంకర
ఐడియా@@
డీల్@@
సర్వభూత@@
సిట్@@
పర్మిషన్
తలెత్తి@@
గజపతి@@
తుఫాన్
మొన్నటి@@
జావేద్
కిట్@@
బావి
అరవింద
యదు@@
మనః
బాక్@@
బాపు@@
మంచ@@
మరిచి
గల్ఫ్
బెంగుళూరు@@
తీర్మానం@@
షాపుల@@
మాలి@@
అస్థిర@@
వర్కవుట్
ఈవీ
చిరునామా
యిచ్చిన
ావా@@
బ్యాడ్మింటన్
బాటిల్@@
ఐఫోన్@@
రావణుని
ఫంగస్
రుసుము
వచ్చని@@
జనకు@@
భక్తులు@@
జరుగు
బురద@@
నేటికి
చదవండి
టీఎంసీ@@
బ్రతక@@
ధేయ@@
పృథ్వీ
పేల్@@
మండపంలో
నిడివి
రితి
మధ్యమ@@
బయటపెట్టి@@
సౌరభ@@
సంప్రదించి@@
చిమ్మ@@
వచ్చన్న@@
బిరుదు@@
జ్యూ@@
కూడదని@@
లబ్ది
సేన్@@
క్యాడర్
కుతూహల@@
వికలాంగుల@@
డిస్క్
కత
బీపీ@@
భటుల@@
ాడట
గుట్ట
చార్యులు@@
నర
సంచారం
విద్యాభ్యాస@@
దుకాణం@@
పడతాడు@@
పెళ్ల@@
చిటిక@@
చక్రము@@
కాల్చు@@
హిందువుల
గ్రీకు
బడియున్న@@
రాత్రంతా
యుడు
పూరణ
భరించలేక
ఎన్కౌంటర్@@
మమ్ము@@
ఈటల@@
ప్రార్థ@@
వారిద్దరి@@
బడినది
ైక@@
స్కిల్@@
ముమ్మరం@@
జర్నలిస్టుల@@
ఙ్
యవ్వ@@
ఇబ్బందికర@@
ాడనే
అపార్ట్మెంట్@@
వీరయ్య@@
ఉడికి@@
ాకార@@
కార్పొరేట్@@
నెహ్రూ@@
ప్తి
నోబెల్
బాధపడే@@
తలుచు@@
కనిపించనున్న@@
మబ్బు@@
ఎండు@@
పడిపో@@
ఎత్తుగడ@@
వస్త్ర
శూద్ర@@
బ్రదర్స్
మనుగడ@@
సుగమ@@
సాధువు@@
తలపి@@
లేనందున
బురద
ఉల్లి
న్యాయవాది@@
భావిస్తా@@
యెదుట
ంటిని
ప్రభాకర@@
గున@@
వైపుల
చేజిక్కించు@@
ప్రభృ@@
ురాలి@@
విసిరే@@
మీదట
కదూ@@
పక్వ@@
మంత్రిగారి@@
డీఏ@@
ప్యానెల్@@
ాడి@@
సభ్యుడు@@
దుఃఖము
కవచ@@
టికి@@
సాధ@@
న్యూయార్క్@@
లార్
టైర్
మొట్టమొదటి@@
అహం@@
ఉర్@@
కస్టమర్ల
కుడిగా
అభ్యర్ధి@@
మారిపోయి@@
రెసిపీ
ముందుకొచ్చి@@
తాలిబన్@@
తరచుగా@@
వివరించి
కట్టే
గ్రంథాలయ
అడవుల్లో
అరేబియా
ఊడి@@
ఘటనా@@
ప్రాసెసర్
తగాదా@@
డెంట్
పట్టడం
జారి
బస్తీ@@
లభిస్తున్న@@
అథ
నాచ@@
నీట
అల్ట్రా@@
ాంశం@@
ుడను@@
పాండే@@
అనుకునే@@
పన్నీర్
గణాంకాల
సమాజ్
గోళ@@
పిలువబడే
మృత్యువాత
థెరపీ
వాడక@@
రష్మిక@@
కాజల్@@
జబ్బు
హైలైట్@@
జడేజా@@
గానం
౬
లొన@@
ర్ల@@
కన్నుల
పిలిచి@@
పెన్
సెక్షన్ల
పయో@@
ముకుంద@@
పరీక్షి@@
స్పెసిఫికేషన్@@
విక్రమార్క
సహజీవనం
బయో
ప్రజ్ఞ@@
అతలాకుతల@@
వైద్యశాల@@
పరికరం@@
సుష్మ@@
ప్రతిఘట@@
ఎజెండా@@
క్రికెటర్ల@@
తాగే@@
భువనేశ్వర్
భజన@@
రిస్@@
ప్రాప్య@@
తండు
డిస్ట్రిబ్యూటర్@@
చిహ్నం
కోల్పోవడం
వూరి
సీసీటీవీ
చారిత్రాత్మక
షరతుల@@
జీత@@
కక్ష్య@@
కాంస్య
నెడ@@
సూత్రధార@@
వనిత@@
అవార్డ్@@
భూష@@
రూపక@@
శివాజీ@@
వైల్డ్
ఒకరికొకరు
చిత్తశుద్ధి
హడావిడి
బ్రష్
పోటు
అత
వాషింగ్
నెట్టి
అటూ
తవ
ఆర్డినెన్స్
దీటుగా
మీటర్ల@@
గౌరవి@@
అమే@@
సన
శ్రమి@@
ఆడటం
లొకేషన్@@
టర్మ్
ముద్దుగుమ్మ@@
తుంట@@
కల్ప
ప్రసక్తే
మోటార్@@
చేసిందని@@
థామస్
స్వరూపు@@
సాఫ్ట్వేర్@@
లయము@@
ఆలయంలో@@
బాగ్@@
బూని@@
అవిశ్వాస
నెఱుంగ@@
యాక్టింగ్
బ్లాగు@@
డీజీపీ@@
షం@@
ఎమ్మార్@@
యజ్ఞా@@
కేరాఫ్
తది@@
ాడా@@
ంటుంది
చెప్పేసి@@
గౌతమ్@@
వాసులకు
రిసార్ట్@@
జగపతి@@
ఏకాదశి
గావింప@@
వాయి
నిచ్చే@@
పరువు@@
కోల@@
డియర్
అవాస్తవ@@
ర్యాంకింగ్@@
రవీ@@
ఁడైన
లిక@@
మూలా@@
చెపుతా@@
స్వదేశీ
తెలియని@@
తొండ@@
జెంట్
విసుగు
దుస్థితి
మీరా@@
బీట్
నల్గొండ@@
హస@@
అపూర్వ@@
త్రాగు@@
సహృదయ@@
పెల్@@
మద్రాసు@@
జూడ
ఎన్సీపీ
దర్శనం@@
కాలే
ట్యాంక్@@
మేరకే
ఛాంపియన్@@
మూత్రం
సీఆర్పీ@@
నాయక
వరణ@@
నిశ్చయం@@
వైద్యుడి@@
అవకాశాల
టోన్
పురుషుని
ప్రేమించ@@
బజార్
వూరు@@
ఉంటుందనే
పోచారం
ఖిలా@@
వానరుల@@
పౌష్టిక@@
స్టెప్
శిరస్సు@@
ఆహ్వాన@@
సాబ్@@
సావిత్రి@@
కాల్వ@@
స్వభావం@@
పాలీ@@
ఓపిక@@
మిగుల@@
వెల్లడ@@
వ్యతిరేకి@@
జన్మదిన@@
కున్నాం@@
కష్టమైన
సాత్విక@@
నర్సింహా@@
వాస్తు@@
థర్@@
రాముడి
త్రివిక్రమ్@@
ానాం@@
నిషేధించి@@
ించటం@@
తుని
లోయలో
బంగ్లా
నితిన్@@
మాన్య@@
ఎంఏ@@
బుల్లెట్@@
ప్రాణుల@@
సరిహద్దుల@@
మాత్మ@@
దేహా@@
భాజపా@@
చింతల@@
వాట@@
కృ
తుడు@@
పౌరసత్వ@@
వినాయక@@
కైలాస@@
చెమట
వస్తూ@@
స్పష్టముగ@@
పాలైంది@@
నీట్
ఫన్నీ
రణ్@@
ప్రభువ@@
ాయాం
కౌశల్
కుటుంబీకుల@@
ఒక్కట@@
యడం@@
ప్రకాశించు@@
కెళ్లి
చిచ్చు
స్టార్టప్@@
లతా@@
పడిపోయిన
ిల్లు
గరిష్ఠ@@
కానిస్టేబుల్@@
కుటుంబము@@
బాగ్
రిజర్వేషన్ల@@
గిన్నె
ఐఐటీ
స్నానము
దగ్గరుండి
రచయితల
పృథి@@
భూభాగ@@
మిగులు
నాగరికత@@
స్కూలు@@
లాభము@@
ప్రయాణీకుల
టాలెంటెడ్
అలసట
తీర్మానాల@@
ఇటూ
కంటైనర్
చేస్తో@@
అసౌకర్యం
వలయును
సారు
బుజ్జగ@@
ముఖర్జీ
గణ
వికృత@@
ఎక్కడున్న@@
క్లిప్@@
ఫన్
గైడ్
స్టంట్
గిన@@
యున్
మయ్యె@@
వీణ@@
ఆసరా@@
రావణు@@
సెక్స్@@
దిగజా@@
ప్రైమరీ
నామ్
పాడై@@
భేదం
జేడీఎస్
మాతృ
క్లూ@@
సాంఘిక@@
లేటెస్ట్@@
వెస్ట్@@
శీర్@@
గుర్రా@@
వెంకటేశ్వర@@
ఎగువ@@
ఆండ్@@
డియా
వానిని@@
అలెర్జీ
అధ్యకా@@
సంభ@@
యించి@@
కూతురి
పాటిల్
రుద్ర
విన్నర్
చెయ్యి@@
అయ్యప్ప
పోర్న్
ఉర్దూ
సుర
సహస్ర
నిప్పంట@@
జర్నలిస్టు
త్వే@@
కనిపిస్తున్న
చూద్దా@@
పోలిక
చిన్నారుల
అహ్మదాబాద్
పీఆర్సీ
ఎట్టి@@
లియోన్
బెన్@@
ఓడించి
గులాబీ@@
తత్పర@@
యిచ్చి
రిజర్వేషన్ల
పోయాడని
సాహి@@
జవహర్@@
చరిత
సూర్యాపేట@@
ప్రశ@@
పరచి
మొదలయిన
పద్దతి
చం
పేలవ@@
రబ్బరు
దగును@@
రీస్
సోమి@@
ధరా@@
ఆహ@@
చాలాకాలం
దౌ
మౌంట్
జింక@@
అడ్వాన్స్@@
ఫిర్యాదుల@@
శిల్పా
మతాల
జెంద@@
మమ్@@
నువ్వే@@
సాపేక్ష@@
ఓపిక
లైసెన్సు@@
రూపాలు
స్నాక్@@
సీజన్ల@@
చేయుచు
కమెడియన్@@
ట్రీ
దాచి
టెక్నీషియన్@@
ఛాంపియన్
పోయినా@@
రాణించి@@
అంబానీ@@
గంటి@@
కేన్
యోజ@@
ించాలని@@
అనుమానిత@@
ఫీల్డింగ్
బడే@@
జలుబు
ర్యాంకు
రాధన@@
పేస్
ారం@@
ఏటీఎం@@
అందిపుచ్చు@@
భీం
టాన్@@
నడుపుతున్న
యుండిన
యుత
బిట్@@
వ్యాస
ఆడుతూ
రాముడి@@
కలవడం
నిర్వహ@@
తలంపు@@
చెదను@@
మినిస్టర్
స్కిల్
ఎన్డీఏ
ద్రష్ట@@
కృత్వా
మేళ@@
టెంట్@@
జయి@@
క్ట్
విచ్చలవిడి@@
విభజించబడి@@
స్రవంతి
సీఆర్@@
కదలికల@@
భో
వయ్య@@
నదుల
దూడ@@
ఫింగ్
బ్రెయిన్
చలన@@
అంటు
మొగ్గు@@
కోక@@
సిస్టం@@
ంచె@@
జరా@@
బిర్యానీ
అయ్యో
పరిటాల
మూలాల@@
యాః
భంగిమ@@
సాంఖ్య@@
మండి
రెల్@@
చెప్పక
చంద్రుని@@
హైకమాండ్
బోవ@@
సంవత్సరముల
వేవ్@@
మన్నన@@
నాయకత్వ
సవ్య@@
బ్యూ@@
మ్యాప్@@
తుపాకుల@@
సంప్రదించి
విరమించు@@
జోడించి@@
నాళాల@@
క్వార్టర్
కడుక్@@
రాధే
బఱ@@
రాములు@@
ధర్మజ@@
థైరాయిడ్
తారకరత్న
మెటీరియల్
సామ్రాజ్య
పన్నుల@@
భిలాష@@
యువకుడు@@
చూడటం@@
విషెస్
బ్రాణ@@
క్షణ
స్నేహితుడి@@
ఏంటంటే
శక్తిమంత@@
ఫార్మాట్
నగల
పాదం@@
కూడి@@
గండి
పావన@@
ఉప్పల్
హర్
పలుకు
టీఎంసీ
రాజశేఖర
పిలిచే
గడు
ఇంతే@@
కౌలు@@
దనియు
వారంలో@@
గూడి@@
ుడితో
అచ్చం
దాల్చి@@
వ్యూ@@
చేసుకుందా@@
రాములు
భూపాలపల్లి
స్ధాన@@
ట్రాన్స్ఫర్
ఆవేశం@@
కలిప@@
పూర్వీకుల@@
కాళి
పొరపాట్ల@@
నందువల్ల
తపన
ఋత@@
ఐసీ@@
రిజల్ట్
ండడం
నీర@@
జార్ఖండ్
ఖండము@@
చిరి@@
పొంగ@@
స్పెయిన్
క్రమక్రమ@@
సోమవారం@@
ఫైల్@@
స్వాతి@@
బహ@@
అప్పుడప్పుడూ
నమో@@
ించబడిన
డమంటే
తెలిసే
రిటైర్
ఖనిజ
ర్యాంక్
ఎస్ఎఫ్
బంజారాహిల్స్
కుదరదు@@
డిస్
అల్పపీడన@@
మహర్షుల@@
ఆల్రౌండర్
ోడు
ట్టియు@@
జోనల్
రంటూ
గారూ
వః
హరు@@
అప్పారావు@@
కాసేపటి@@
ఆయు@@
సారాంశం
వెతి@@
పొగడ్త@@
పదవ
ధర్మరాజు@@
అటవీశాఖ
మనీష్
బెర@@
ంచక
స్టా
గార్డెన్
వాటిక@@
చ్యుత@@
వ్యాపారవేత్త
రెన్స్
అనర్హు@@
అమర్చి@@
ాధిక@@
పండిన
కించి@@
శస్త్ర
మజ్జ@@
వెలువరిం@@
టీఎంసీల
రాయల్స్
సారము
సివిల్@@
బాండ్
డేమో
బంగ@@
పూర్తై@@
టైన్మెంట్
స్టేషన్ల
ర్యామ్
కపట@@
టమాటా
జోగి@@
రెవిన్యూ
ఇరువురు
ముందంజ@@
వాట్
ఫాదర్@@
భక్తుడు
చేయూత@@
కూరి
ఫార్మ@@
కాగిత@@
నందిని
దృక్పథ@@
వాక్యం@@
అచ్చు
తంగ@@
గిలి@@
భాషల్లో@@
లెఫ్టినెంట్
పీఎం@@
చిరుత@@
సమాంతర@@
నటించిన@@
తెలుగుదేశం@@
నిశ్చయము@@
రక్క@@
యమ్మ@@
టోక్యో
నష్టాల్లో
కదలిక
కండి
నాసా
దలఁ@@
కాంపాక్ట్
దాయ
ురాలి
బహుమాన@@
దీవుల@@
పార
ధీటుగా
రాశుల@@
కూడిన@@
దూసుకుపోతున్న@@
తగ్గే
సీక్వెల్@@
ఇట్లు@@
మానస
కలశ@@
జనంసాక్షి@@
పరిణయ@@
తాడి@@
సుబ్బారెడ్డి@@
కలుగ
చందర్
అచ్చట
దడ@@
రుత్@@
ముద్రగడ
చూస్తుంటే@@
బైట@@
టేక్
సందు@@
ప్రయత్నిస్తున్న
ఫ్రెండ్స్@@
హెల్త్@@
గుడు@@
బ్రియ@@
పంపిస్తా@@
చవితి
సాంద్రత
ాంబ
మహారాజా
నరికి
ఆవి@@
తుని@@
దిశానిర్దేశం
రంజిత్
పరిశుభ్రత
సెకన్ల
ులను@@
సందిగ్ధ@@
సంక్రమణ
ఆగు@@
దూషణ@@
జనన
గుఱించి
వేద్య@@
రెసిడెన్షియల్
తక్కిన@@
ర్చిన
రథము@@
సేవింగ్@@
పీవీ@@
అంబులెన్స్@@
సంధాన@@
బీద@@
జోడ@@
వనపర్తి
శ్రాద్ధ@@
దొంగతనాల@@
వేదా
తట@@
దౌత్య@@
చేసినట్టు@@
కడిగి@@
జంక్షన్@@
స్వరాజ్య@@
నాధ్
మారెడ్డి
వారాహి
స్పిన్నర్@@
థీమ్
ఆదిపురుష్@@
నాగర్
తండ్రుల@@
రికార్డింగ్
నివాళి
కడగ@@
ఉడికించాలి@@
మొట్టమొదట
కలిగె@@
పూనమ్
సాహితీ@@
పడటం@@
దయ్య@@
పగటి
మొక
ఇంటర్నల్
మనము@@
అధ్యాయ@@
బారి
ఎంపీడీవో
కంటూ
పుత్@@
మకర
ఉంటున్నా@@
రాచకొండ
మునీంద్ర@@
కరం
పరే@@
డాక్టరు@@
చప్పట్ల@@
కసరత్తు@@
పునర్నిర్మాణ@@
బేసి@@
స్టేట్మెంట్
లాఠీ@@
మృత్యువు@@
రమణా@@
గౌరీ@@
చైన్
నాకే
దుఃఖం
ఊరట@@
ించాలి
హెల్మెట్
పడని
సిర్@@
వాదుల
ించవచ్చు
నేర్చుకున్నా@@
కొలను@@
న్నాయి
జంప్
స్కీ@@
పయని@@
మెల్లి@@
సాక్షాత్కార@@
స్త్ర
జాత
హాన్@@
కింగ్స్@@
వేర@@
ఇన్సు@@
కలుపు
ఖరారై@@
పునాది@@
అవతారం
చార్యుల@@
ోపాయ@@
అమ్మే
హైబ్రిడ్
ఉద్దేశంతో@@
ెన్@@
విడదీయ@@
శ్రేయస్@@
మోసగి@@
మాధవి
లైగర్
షారుక్
రక్షించే@@
బిలియన్@@
ాలే@@
ించుకొని@@
పుత్రుడు
మేనేజ్మెంట్@@
ఎది@@
ప్రేక్షక@@
మ్యాచ్ల
క్లిష్ట
నెంత
కారీ
టూరి
కష్టతర@@
ఉందట@@
రాయుడు@@
ప్రశ్నించిన
చేయాలనుకున్న@@
పబ్లి@@
సేంద్రీయ
మాతృభాష@@
విధానము
పిచ్చ@@
ాలనీ@@
ఆల్కహాల్
సుజాత
దమ్మ@@
డంటే@@
శివుని@@
నీళ్ల
యతే@@
స్వరము@@
ఖా
భారతీ
ధృ@@
న్నిటినీ
పెరు@@
నేపథ్య@@
ోత్సవ
లైబ్రరీ@@
వారసుడు
పింఛన్
భావింప@@
సైఫ్
నటించనున్న@@
లయం
ఏడవ
వేణుగోపాల్
ప్రశాంతత
పూజారి
చన
అంగీకారం
రచించి
ధృత@@
అతిథులు@@
కోక
ఇటాలియన్
కంగారు@@
క్రీమ్@@
సజీవ
తగ్గించుకో@@
విహిత@@
టాబ్లెట్
పెంచిన@@
చేయబో@@
రావడంతో@@
పరిచా@@
ఫ్లే@@
బాక్టీరియా
చిత్రా@@
శ్యామల@@
స్వరం@@
లేశ@@
టాయిలెట్@@
బాధితురాలి@@
నట్లయింది@@
వ్రతం
ఉపకరి@@
స్మిత@@
ప్రైవేటీకరణ
దించి
నామె@@
వైష్ణవ
పుస్తకము@@
వేలి@@
వారసత్వ@@
మాహ
స్టాగ్రామ్
ఆర్యన్
గుదు@@
వంతులు
ముఖము
జోస్యం
వాళ@@
ట్రోఫీ
పరిసరాల్లో
రామేశ్వర@@
హోరెత్త@@
స్సా
నంద్యాల@@
గణతంత్ర
మనుమ@@
య్యాయి
న్నియు
సిన్హా
జిత్@@
సిసి@@
ఒకింత
మాఱు@@
పిసిసి
నప్పు@@
మాడు@@
మకాం
చలం
విగ్రహ
షూటింగు@@
ఇంటిగ్రేటెడ్
ఆకృతి@@
ఆధ్వర్యంలో@@
పోని@@
కనుగుణ@@
ిద్దరి
బాల్య
జేరు@@
అఫ్
సంగారెడ్డి@@
సమాజ్@@
ఈరోజు@@
ఉన్@@
సన్న్యాస@@
పరీక్షించు@@
మలబద్ధక@@
వేళ్ళ@@
హ్యాండిల్
దూర్@@
యథార్థ@@
వేప@@
శివసేన@@
వినోద్@@
టాం@@
గూడదు@@
ఆరవ
కొలత
సతమత@@
కాశ్మీర@@
కలువ@@
వేడుకల
ఇండో@@
టోర్నమెంట్@@
ాచార@@
రెస్క్యూ
నాథన్
సంతోషి@@
పోతుందా@@
టీసీ
చేయాలను@@
లంచ్
పర్యటించనున్న@@
ఉష్ణ
తీరిక
నగల@@
తత
చరణా@@
మందిరం
భీమా@@
దప@@
సముద@@
న్తి@@
తప్పిన
పొందడం@@
ంటేషన్
సిక్
జ్యూస్@@
చాటి
గోల్స్
ఫలితం@@
శౌచ@@
నగ
చేయలేక@@
చేరువ
ఇవ్వాల@@
పిన
తనానికి
గూటి@@
వైకుంఠపురము@@
యాజమాన్య@@
పెళ్లై@@
హెచ్డీ
దర్శనము
పాట్@@
చెట్ట@@
ఉంచడం@@
వేగం@@
అమ్మకం
గిరీ@@
నాణేల@@
నమోదైన@@
రంజన్
దర్పణ@@
ప్యాడ్@@
బ్యాడ్
రాజయ్య
లేషన్@@
పించే@@
ఆరబో@@
ోపా@@
నట్లయితే@@
రైడ్@@
నాయకుని
గడుస్తున్న@@
ప్రమాదాల
త్తమ
నియమ
ఉల్లి@@
తొలగించే@@
పోటీదారు@@
మాటాడ@@
గాధ@@
జేరి@@
గర్భ
ికి@@
రించు
గుడా@@
అణిచి@@
త్తము
ఆర్ఎఫ్
అసదుద్దీన్
పిక్సెల్
సంఘటనల
కంట
తత్వ
కన
స్లాట్
పడుకో@@
హత్యా@@
ెత్తు
యామె@@
అసత్య
విరాళం
ధనుర్@@
శిఖా@@
శంకరా@@
జీఎస్టీ@@
సువాసన
జెడ్@@
బె
సంతుష్ట@@
ప్రయోజన
పరిష్కార
ధామ@@
మెయి@@
స్టీవ్
డాగ్
ఉంచిన@@
ఫ్యూచర్
ధార్@@
డనియు@@
యింటి
బిక్కిరి
కనువిందు
కారుడు@@
నాల్
ఒంగోలు@@
వారిద్దరి
కల్గు@@
సరిపెట్టు@@
వర్కౌట్
జేయుచు@@
నిలువు
మ్యాప్
కుల్దీప్
గంతు@@
బ్రదర్
బృందావన@@
పామ్
సుదర్శన్
నిత్యావసర@@
పట్టాభిషేక@@
ప్రయత్నించి
విమర్శకుల
దనాన్ని
జీవితము
అంటి@@
ఆశ్చర్య
నృసింహ@@
జరిపిన@@
గొంత@@
చుచున్న@@
ర్గ@@
ండటంతో
పేరే
పదే@@
వసతుల
గాయాలు@@
యున్@@
సుందర్@@
టుల
రకరకాల@@
బంధించి
మహాసభ
బద్ధ
తుపాకీ@@
పడాల్సిన
మాతా
సాల్@@
నేపథ్యం@@
ఆరా@@
కెంత@@
శల్య@@
గణేశ్
కరపత్ర@@
ట్యాగ్@@
అవడం
విరాట్@@
కలం
ఫోరం
ప్రవచన@@
ఐటి@@
సూచక@@
మిష@@
ఛాంబర్
రోగ్య@@
అధ్యయన@@
ధన్
లెండ@@
మానము
ఖరీదైన@@
మిస్స@@
సువర్ణ
మధ్యవర్తి@@
శిశు@@
మూడ@@
యింత
కోవచ్చు
తరాల
యిట్ల@@
పవ@@
ఏడా@@
ఛేదన@@
దలి@@
ళా
ఖ్య
వింటే
నాక్@@
ధ్రువీక@@
షడ్@@
వెన్నెముక
బ్లూటూత్
కావ్యం
లేదే@@
స్తవ@@
డియో@@
పరచి@@
ధనిక
ాచారి
ఎస్యూవీ@@
సగానికి
నైనా@@
సత్కార@@
ెడు@@
రిప్లై
స్పేస్@@
తొమ్మిది@@
ప్రతిచర్య@@
గగన@@
కటా@@
శిరీష్
గుడ్లు@@
మాలిక@@
శారీరకంగా
విరాట@@
తరు
హుందా@@
రచించి@@
ఇంతకాలం
ఫెస్టివల్@@
స్థాపించి
ఎనిమిదో
నుండగా
దినేష్
ఎలక్ట్రికల్
పిక్సల్
కలెక్షన్ల
ఎన్డీ@@
పురము
అహ్మద్@@
సల్మాన్@@
పరలోక@@
లేకపోయిన
ఖైదీల@@
నారా@@
ఇప్పుడే@@
తంతు
రేణు
గుడ్డి@@
పుట్టింటి@@
పంచదార
సత్యాగ్రహ@@
నేతి@@
పూరీ@@
వ్రాయు@@
లావు@@
జనార్దన్
యమా@@
తెల్లవారు
మయ్య
అంగరంగ
ఎన్కౌంటర్
అన
తరలించిన@@
మొదలగునవి
సబ్బు@@
ొచ్చిన
రాడ్@@
చిదంబరం
ఆక్రమించి@@
టెస్టింగ్
గుజ్జు@@
శిథిల@@
దుర్గా
మహిళా@@
పొట్ల@@
గర్భవతి
సోనియా@@
నేరం@@
అవుతూ@@
సామా@@
జిహ్వ@@
లోక్@@
స్తున్నాయి
కుమారుడి
మోసపో@@
మొక@@
ప్రయత్నము
నియో@@
మెంటరీ
దేశి@@
ఎల్ఈడీ
రామ్మోహన్
కంస@@
మీరె@@
బౌండరీ@@
నడిపే
శాసనమండలి
స్టన్
నాటడం
గేర్
తిరుగ@@
బొగ@@
స్తన@@
భావ్య@@
చిక్కి@@
ద్ద
కోమల@@
క్యాబ్
రవింద@@
ఆనవాయితీ@@
రసాయన@@
నిర్మింప@@
వసు
లిఖిత@@
రాబడి@@
వివాహిత
బ్యాండ్@@
భాగమున
సహనం
నన్ని@@
ధీరుడు
కావ్యము
కోల్పోతున్న@@
నిమగ్నమై
జవాన్
సంవత్సరంలో@@
లైక్@@
రానివ్వ@@
జన్మభూమి
స్పెషాలిటీ
ఏరు@@
యున్నది
ాన్నీ@@
చును
పండుగల@@
నన్ని
కాంట్రాక్టర్
పెళ్లయి@@
రజనీ@@
రిటర్న్@@
ఎక్కడికక్కడ
పావు
దొర్ల@@
అల్లం@@
ినీ
లింగం
ఏడవ@@
మల్లి
తోటల@@
స్థలాల
నిరుపేద
చెంచా@@
ంచెను
ద్వి
బండ్ల@@
బొమ్మల
ఇస్తాంబుల్@@
మీర్
యొన@@
శాసించ@@
గుణాల@@
చక@@
ఐటెం
మేనేజ్
విజ్ఞప్తి@@
యత్ని@@
ఎన్డీయే
న్నచో
వెలిబుచ్@@
ధూప@@
పౌర్ణమి
వలసిందే@@
నెట్టే@@
భిక్ష
నిర్వి@@
కృతుల@@
ప్రణయ@@
స్థావరాల@@
ఉపాస@@
క్యారెట్@@
ఎస్యూవీ
జగిత్యాల@@
వెక్కి@@
కంచ@@
దేశాలు@@
వెస్టిండీస్@@
వైసిపి@@
లీకేజీ
కరణము@@
నష్టాల
స్పూర్తి@@
అడ్డుకున్న
మైఖేల్
వూ
రక్ష
స్కై@@
తరిగిన
పూల్@@
శ్రద్ద@@
ఎన్నుకున్న@@
వాత్సల్య@@
తీసుకున్నా
బెనిఫిట్@@
సప్త
తుమ్మల
చూపించే@@
అవా@@
సూది
ద్వీపం@@
మనదేశ@@
పూరణ@@
దళం@@
అంకారా
కలియుగ@@
మహేందర్@@
పడుతోందని
సోడియం
బూత్
భజన
సెగ్మెంట్@@
మొకటి
సిహెచ్@@
ఉజ్@@
నీలి
వాషింగ్టన్@@
ంచీ
దత్త
టువంటి@@
తెప్పించు@@
గానో
సమకాలీన
మూఁడు@@
లక్ష్మీదేవి
డబ్ల్యు@@
జీవక్రియ
లజ్జ@@
వరపు
మైలురాయి@@
మాస
గుర్తొ@@
అలుము@@
గలిగె@@
రాజేశ్వర@@
కోల్పోయిన@@
ార్చన@@
బుర్@@
కోలుకున్న
శేషము@@
బిక్
ఉత్సవ
జీవా@@
శార్దూల@@
ాలతో@@
కామాంధ@@
చంద్రిక@@
టరీ@@
అయ్యర్@@
కెల్ల
అక్కర@@
కాబోతున్న
యొద్ద@@
తట్టుకోలేక@@
ఆశ్రమంలో
చిం@@
పలుకుతున్న@@
కియారా
ప్యాలెస్
కాళ్ల
కీపర్@@
నీల
న్యాయం@@
నిలువ
కపిల@@
ఇష్యూ@@
ాధికార
ద్ధి@@
రణము@@
లబ్ధ@@
లాలూ
గుడ్డ
క్తా@@
సద్గుణ@@
పట్టిన@@
వలసినది@@
తాగిన
శానిట@@
అస్సాం@@
టూల్స్
రమ్
ళీ
పశ్చాత్తాప@@
బోనాల
కీలకం
ఏక్@@
గమ
యస్య@@
విప్@@
నోవా
కొఱకు@@
తదా
అనిపించే@@
సమేతంగా
ఊత@@
తన్మయ@@
రేపిన
పువ్వుల@@
నాలుగవ
అవిశ్వాస@@
బాట్@@
సైట్ల@@
పర్ఫెక్ట్
పురోగమ@@
శేషా@@
నడిచే@@
శ్లేష్మ@@
సిలికాన్
అమ్ముడ@@
రాత్రే
ఘు@@
వృత్తాంతము@@
హార్మోన్
ఐదుగురి@@
పూరు@@
బిహార్@@
లోపము@@
కొనడం
ఖండ
దధి@@
విలసిల్ల@@
జనక
మణిరత్నం
కులము@@
అత్య@@
షెడ్@@
సంచి@@
వాసా@@
పురాతన@@
లిక్@@
రసవత్తర@@
తరంగాల@@
శనివారం@@
కెమెరాల
మొనర్చి@@
వెలువడి@@
తీస్తే
కుందామని
గరుడ
ఫార్ములా
షేరు
మానదు@@
విద్యాశాఖ@@
గ్రహము
మల్లా@@
సూర్యోదయ@@
సూర్యుని@@
సమ్మేళనాల@@
యేక@@
టమాట@@
చిన్నపిల్లల@@
కౌంట్
శాంసంగ్
ర్థం
దర్శనము@@
సారాంశం@@
కేషన్@@
పోస్టల్
రాజేష్@@
షన్స్
శుచి@@
తక
నెత్తు@@
టామ్
ఆధిపత్య
సుగంధ@@
సెలవి@@
ఐసోలేషన్
సుప్రీం@@
యుండున@@
అంతరించి@@
ఏమంట@@
శిబిరం
నవమి
నిబద్ధత@@
పఱచు@@
గుట్టు
కరిగి
డ్రింక్@@
దావా@@
ద్వీపం
సనాతన@@
విలయ@@
పూడ్చ@@
జీతం@@
మనసా@@
తత్త్వ
ఆరేళ్ల
కావాల్సిన@@
గేషన్
పడకల
నతని@@
త్రోవ@@
బ్రేకప్
సెగ@@
రత@@
పెంపొందించు@@
లేము
యుదయ@@
చీల్@@
ద్రవం
దురద@@
కరువు@@
ైః@@
యిం
ర్ధము@@
విశ్వవిద్యాలయ
బ్రెజిల్
టీఆర్
మస@@
కనిపిస్తూ
గాడిద@@
కుంగి@@
పాముల@@
ఒకసారి@@
పోలిస్తే@@
వారసత్వం@@
గలిగాడు@@
భీమ్
ప్రక్షాళన
దుకాణ@@
చర్చించే@@
సెటప్
గృహీత@@
ంటారని
వచనం@@
రాలేదు
సైతము
కొత్తగూడెం@@
కాగితాల@@
పట్టుదల
బలవంతం
వార్నింగ్@@
వెలయ@@
ప్రవాస@@
స్టాండర్డ్
తపన@@
ఉడక@@
మట్టు@@
ఏమను@@
నడిప@@
ఎంతో@@
ననుసరించి@@
రత్నం@@
వ్వకుండా
వాడిన@@
వాస్తవిక
కృత్రిమ@@
జెప్పిన
ఎండో@@
శ్రేయస్సు@@
దళ్
ఉచ్చు@@
వ్యామోహ@@
ించాడని
ఖన్నా
నవ్వుతూ@@
సహేతుక@@
పాప్@@
ఇష్యూ
విధుల
సైజు
దారులు@@
మీనా
రియో
స్రావం
సుదూర
మెంబర్
షమీ@@
వనా@@
వంగి
మాసి@@
ులయ్యారు@@
మెట్
ప్లాట్ఫారమ్@@
లింగం@@
జామ్@@
రక్తనాళ@@
నెగటివ్
నిరాకరి@@
కాస్టింగ్
ఆర్టిస్ట్@@
ఎస్ఎస్
తినడం@@
పరోక్ష
శొ@@
ఏపి@@
డిగెను@@
తొలగించడం@@
యూరప్@@
లెక్కి@@
ంపేట@@
రెం@@
ఎల@@
వేములవాడ
అరవింద్@@
స్స
పంతులు
కుదుర్చుకున్న@@
సృజి@@
స్ట్రోక్
క్తం@@
దందా
చేయలేక
మళ్లి@@
ూడదనే
అస్సాం
చిత్తు
పురాణం@@
మమత@@
ంచుకోవడం
సంక్లిష్ట
మయా
వీళ్ల
చుట్టి
భిః@@
చార్యుల
భూతి
స్ట్రక్చర్
ముగిసే@@
నెఱుఁగ@@
నమ్మా@@
శశి
శ్రేయ@@
అధ్యక్షత
చెపు@@
కుట్ట@@
రెండి@@
గర్ల్@@
లేడు
కలెక్ట్
ఫణి@@
సమూహము@@
స్థైర్య@@
ిణీ@@
త్వర@@
కుంభ
మిశ్ర@@
సీరియల్స్
చిట్
ఎన్వీ
ఆధ్య@@
పేరొందిన
కొనసాగింపు@@
ఉల్లంఘన
పెరుగుతూ@@
సెట్టింగ్@@
మనవ@@
అగ్రికల్చర్
చాక్లెట్@@
బిడ్డల
టాస్@@
ఇలియానా
లిస్టు
క్రైం
బాంధవ@@
మరువ@@
అశోక@@
తమ్ముడి@@
వెళ్తూ
థ్రిల్లర్@@
నుండ
తిక
నాయన@@
ీకరించి
బెడ్రూం
రముల@@
మాటికి
కెమిస్ట్రీ
రమ్@@
పంపుతున్న@@
మత్య@@
పూర్తయిన@@
పొదుపు@@
టైనర్
ఉపనిషత్తు@@
చల
౭
పబ్
యేసు@@
లెన్
తగుల@@
వట్టి@@
మాక్
సిఐ@@
శౌర్య
ఆయి@@
కొద్దిసేపటి@@
యయ్యె@@
ఆదరణ@@
౧౨@@
వగు@@
చలికాలం@@
ప్రయాస@@
ాంధ@@
సోడా
జలం@@
ంచె
ఫ్రై@@
బుమ్రా@@
అతడే
సవరించు@@
ఓడ
తీర్ధ@@
హెచ్డీఎఫ్సీ
ఉపేక్ష@@
ఈశ్వర్
రేణ
జైన@@
పాప్
పెట్టె
బెయిల్@@
కక్క@@
స్తులు
ఇంద్రు@@
చీజ్
సుల్తా@@
త్ప@@
క్లౌడ్
పంపడం
డయి
మిర్@@
అరె@@
నాయుడి@@
వారము
డల@@
పంపించి
చెక్కి@@
తారని@@
అధినేత్రి
గ్రూపుల@@
ెం
పఠాన్
ాయ్@@
ఫిన్
కవిత్వ
తుంటాడు@@
టమే@@
వెలువడ్డ@@
గుళ్ల@@
కొన్నాళ్ళ@@
దగి@@
బెంగ@@
సమ్మేళనం
సూప్
పోతాయని
హేమంత్
గోల్డ్@@
ఠాక్రే
పదివేల
ఉక్కిరి@@
తల్లీ
ఇవ
తవ్వ@@
ధోని@@
సుగ్రీవు@@
పీక్@@
పోవటంతో
దశాబ్ది
సిగరెట్
చాతుర్య@@
మంచిర్యాల@@
అధిపతి@@
ఏడేళ్ల
జూచిన@@
ఫిష్
ట్రయల్స్
చంద్రబాబునాయుడు@@
అనువుగా
ఉల్లంఘి@@
ంచక@@
రేవు@@
ఊహించిన
వ్లాదిమిర్
ప్రయా@@
విచారించి
ఊపు
అనకాపల్లి
ఖర్చుల
మంగళవారం@@
గఢ్
హన్
యూకే
ృత్వ@@
అసలు@@
డాక్@@
నెర@@
గురువారం@@
సమర్ధించ@@
యశ్@@
ఎస్ఆర్@@
చెద
విడ
కార్తిక@@
వంతమైన@@
ఉర్ఫీ
మెరుగుపర్చ@@
షాం@@
వెళ్ల
నేపాల్@@
తెనాలి
్స@@
వేడ@@
దూరము
పరాభవ@@
నియో
షరీఫ్
లీజు@@
అనుట@@
ధ్యే@@
చంద్రుడి@@
పురా
పటి@@
సతీష్@@
దర్శించి@@
బ్యాచ్@@
తిలక్
ణో
ఎలక్షన్@@
యష్
కాపాడే
ధ్యాస@@
స్టోన్
నర్థ@@
లేం
ఊహ
సిస్టం
వెల్లుల్లి@@
బాధ్యతల
చందమామ
మంజూరు@@
ంజలి@@
అత్యాచార
భావి
పారుదల
జున్ను
సాగాయి@@
స్ఫుట@@
ఇబ్@@
చేరుకునే
బచ్చన్@@
శతకం
భగవానుడు
శోభిత@@
టేషన్@@
పట్టుకున్న
ఎనర్జీ@@
శారద@@
యొ
చౌహాన్
పాలైన
చెప్పాలి
నరేంద్రమోడీ
హోల్డర్@@
రుతుపవనాల@@
దంటే
కావాలని@@
అచ్యుత@@
పునర@@
దస్@@
పాశ్చాత్య@@
భరితంగా
నిర్జ@@
సహచర@@
సాన్నిహిత్య@@
ద్రోహ@@
సమాంతర
ఇరాన్@@
చ్యతే
యువకుల
నడచు@@
నాక్
కల్పించిన@@
బాపట్ల
లభ్యత
నక్షత్ర
నాదర@@
చుక్క
మేధ@@
చెందడం@@
పాలా@@
గణేశ@@
పసిఫిక్
వయసున్న
తుందనే@@
అమ్ముతున్న@@
సంతృప్తికర@@
తదు@@
లాటరీ
యాక్సిడెంట్
షమీ
ంపబడి
మార్పిడి@@
జెక్@@
తొలగించే
నివేది@@
ఎలిమినేషన్
జార్
లారెన్స్
ొచ్చి@@
అమర్నాథ్
వుడు
డైరీ@@
విపత్తు@@
స్టీరింగ్
నారింజ
బంగ్లా@@
మాటే@@
వచనం
చున్నాఁడ@@
నఁగా@@
పొందు
వామన@@
రపు
రేణ@@
యతని
అపూర్వ
నోర్@@
ప్రచురి@@
నిలయం@@
యంత్ర
గణిత@@
జనరేషన్
పర్యటిస్త@@
భాగాల
సచివాలయ@@
బేబీ@@
ట్రయల్
మల్ల
సంగ
సాహసాల@@
క్షణం@@
రూపముల@@
రీల్స్
నియన్
మెగావాట్ల
చిత్రీకరణ@@
చిలుకు
అవతరించ@@
కుంకుమ
పడాలని
తొక్కి@@
ఫలితాలు@@
నింపే@@
కాన్సెప్ట్@@
వర్ధిల్ల@@
సాధకు@@
పోషకాహార
లెక్చరర్@@
సైజు@@
డనే@@
ఉద్యానవన@@
అద్వానీ
ఁడగు@@
గ్రహం@@
కారణమ@@
కర్ర
క్రిప్టో
పదాల
రచించిన@@
శూ@@
కాంప్లెక్స్@@
నిరూపిత@@
యనఁ@@
నాదెండ్ల
శతాబ్దాల@@
మోత
అసైన్@@
మానవుల
మక్కువ
కావలసి@@
సాగర
మిలటరీ
జాలి
అదొక
తేజస్సు@@
వైకుంఠ
కేజ్రీవాల్@@
జినల్
రేగు@@
బ్స్
వృ
సిటిజన్@@
కనెక్@@
స్థి
కావలి@@
గనుల
బౌల్@@
దింపు@@
అతు@@
పించే
పుర్@@
నిమ్మకాయ@@
కుంటానని
చోడ@@
డాన్@@
అమ్మమ్మ
విత్తనాల
కావాలో
ఇండస్ట్రియల్
ందేనని
అలంకర@@
నాగబాబు@@
రత్@@
ఎంఆర్@@
భవత్@@
చిరకాల
త్తర
పము
కరి
రక్షించే
సమైక్య
హేయ@@
పోయాలి
ట్రస్టు
గ్లాసు
బైఠాయ@@
ఉగ్రవాదుల
గూడు
లోపము
కానుక
బడుగు@@
సాని@@
కాంటాక్ట్
ఈనాటి
సీతమ్మ
శరణ్య@@
కన్యక@@
కొంటారు@@
పేలుళ్ల@@
అరుపు@@
క్రాంత@@
ముత్యాల
వైర్
కాడ@@
మాన్యు@@
యంగ@@
రాజ్నాథ్
తప్పడం
పదార్ధాలు
జానీ
గదులు@@
లెజెండ్@@
ణః
ఉయ్యాల@@
ఆడపిల్లల@@
మద్ది@@
విలవిల@@
ఉస్మా@@
కళ్ళ
ప్రకటిస్తున్న@@
ఎరుపు@@
గణ్య@@
స్థలికి
బాంబే
లారా
మిగిల్చి@@
ఆకుపచ్చ@@
వాసం@@
అరబ్
సముద్రంలో@@
ఫాం@@
హైటెక్
గలరా@@
ుడూ
చక
ధర్మపురి
బోగీ@@
ధాన
జూపి@@
మాటే
పీఆర్@@
మిచ్చు@@
కూర్@@
నాడి
ప్లెక్@@
రామిరెడ్డి@@
కర్ణ
బతుకమ్మ@@
నమస్కరించి
పతక@@
మిట్ట@@
పర్వం@@
కేంద్రీకృత@@
మరణము@@
సంత
ప్రధానమైన@@
తన్ని
వంతులైన
అప్గ్రేడ్
వలయ@@
పాఖ్యాన@@
విధింప@@
శ్రీరాముని
ఇటుక@@
తీసికొని@@
అందుచేత@@
పగుల@@
గుఱ్ఱము@@
విద్యార్థిని@@
సేకరిస్తున్న@@
రనే@@
అన్నపూర్ణ@@
వ్యతిరేకించి@@
తాంబూల@@
కావు
స్తాం
శనగ@@
నరాల
నెమ్మ@@
కౌశిక్
యోచిస్తున్న@@
తోనే@@
కోవాలన్న
కూలీల
సేతుపతి
ఆడబిడ్డ@@
వేలాది@@
కట్నం
సత్తు@@
వాడై@@
నేత్ర
ైశ్వర్య@@
కట్టిపడే@@
పాస్పోర్ట్
లందుఁ
రాంచరణ్
వడు@@
విజయనగర
పోషకాహార@@
బరమ@@
ఊరేగ@@
వసి@@
ఛంద@@
గాయత్రి
వారమే
పోతున్నది@@
జ్ఞాని@@
అవశేషాల@@
స్తున్నాము@@
ప్రాబల్య@@
ప్రాకార@@
గిట్ట@@
ఏకాగ్రత
బాబర్
ఫ్ర@@
బడ్@@
నృపా@@
షూస్@@
అనుపమ@@
పోవడంతో@@
ధర్మశాస్త్ర@@
మీడియ@@
టట్టు
వింటి@@
పూర్తిచేసి@@
బాగుగ
ప్రొఫైల్@@
ఒత్త@@
రూట్ల@@
చెర్రీ
యజ్ఞం
హైడ్@@
శాక
చార్జింగ్
జీవనశైలి@@
లాభాలు@@
బాలిం@@
యిందు@@
శ్రద్ధా
గడియ@@
ఆవుల@@
సర్జరీ@@
ఉత్పాదక@@
ఆద్య@@
మిలియన్@@
జ్యోతిష్య@@
చిప్
త్రా
పోజు@@
దుశ్@@
హాలు
నలిగి@@
రామ్చరణ్
శాంత
ప్రావీణ్య@@
విధమున
దొంగల
ప్రాయంగా
నక్క
ొచ్చే
పేదరికం
క్కర్@@
విచ్చేసి@@
వయ్యా@@
కొడుతూ
చెప్తే
పేజీల
టటువంటి
విట్@@
దీర్ఘకాలం@@
దేర@@
మొద@@
ధాన్యాలు
గొలుసు
పదార్థ
డబ్బుల
తక్కువగా@@
లతా
లాగి
తట్ట@@
సెన్సేషనల్
కావల్సిన
బజారు@@
ఉన్నతాధికారుల
మిక్స్@@
జ్ఞేయ@@
సాగెను@@
క్వీన్
చొక్కా@@
విడనాడ@@
వర్ణించు@@
అసూయ@@
ముసల@@
టమోటా
రక్తం@@
రైల్@@
యుందు@@
మిశ్రా@@
లక్షణాల
ణ్ణి@@
గాఁగ@@
శతాబ్ది
ప్రవృత్త@@
ుడా@@
స్యాత్
నడిపిస్తున్న@@
భావోద్వేగ
వివరింప@@
ఫాస్ట్@@
చోళ@@
జన్యు@@
ఫ్రేమ్@@
ధిక్క@@
సమయము
ఈజీ
సీతారాం
చింతించ@@
కడిగి
ఉత్సవాల
ఫీడ్
రాజయ్య@@
కోరే@@
సూపర్స్టార్
సంగతే@@
బాసి@@
కీయ@@
తింటున్న@@
లాస్య
జాయ@@
సతత@@
గ్రాహ్య@@
సుమంత్
ద్రావిడ@@
కావ్యం@@
గోడల
తాగే
ధారణ
ముద్ద
తీయ
స్నాప్@@
బండా@@
మేడ్
ఏమీ@@
భూమిక@@
సర్వ్
విశిష్టత@@
న్యాయము@@
అమ్మి@@
వరస
కలది@@
సుకృత@@
రిక్వెస్ట్
శంకుస్థాపన@@
ష్మ@@
పూర్తయ్యే@@
సంఘర్షణ
బేధ@@
నడుమ@@
మల్లన్న
సీరియల్@@
సపోర్ట్@@
భువి@@
వింగ్@@
యథాతథ@@
బుర@@
మమకార@@
చ్చె
ప్రధానమంత్రి@@
శోభ
ోన్నత@@
మెన్స్
దేహం
ప్రశ్నా@@
ట్రిబ్యునల్
యత్నం
బానిస
సాయిధరమ్
అవ
స్విమ్మింగ్
అవలంభ@@
స్వాహా@@
హృతిక్
క్రీడల
పిత
జగపతి
బతికి
ర్త
నివేదించి@@
తుడు
సంవత్సరముల@@
గజా@@
హెగ్డే@@
వినయ
భగవత్
పింగళ@@
తీతి@@
బెజవాడ
శోధన@@
చక్కదిద్ద@@
జెర్సీ@@
ోత్సవం@@
క్రీడ
వినిపిస్తున్న
నాగరికత
లబ్ధి@@
అస్తిత్వ@@
కోడలి@@
అవార్డ్
వచనా@@
వద్దా@@
ీశ్వర
సాధించా@@
తులసీ@@
పళ్ల@@
బెంగుళూరు
రైళ్ల
నేతల్లో
మాక@@
క్వాడ్
చ్యతే@@
గొంద@@
నివాసాల@@
అనాది@@
తాః@@
వియా
డివిజన్ల@@
రన్న@@
మార్కు
ఉపన్యాసాల@@
నెక్కి
భ్య
అర్జీ@@
ద్ధ
జోస్
క్యాంపస్@@
నంతనే
సంచార
నొనర@@
క్షిపణి
ర్యము@@
ప్రశంసల@@
డిసి@@
ాణ@@
ష్టం@@
చౌరస్తా@@
తగ్గట్టు
రకాలైన
సురేఖ
సంకీర్ణ
వామపక్షాల@@
మంగళగిరి@@
అమరవీరుల
లక్ష్మా@@
రాబో@@
జరిపే@@
బెదిరించి
కొట్ల@@
సుడిగాలి
జగత్తు
నడుస్తూ
కొట్టారు
కమీషన్@@
జిత
ప్రసక్తి
స్పాట్@@
ఆంగ్లం@@
పదును
రామోజీ
చర్చించిన@@
వెంక@@
పునరుద్ధరణ@@
తీయడం@@
లుగు
శాస్త్రిగారు
చర్చించిన
స్కోప్
భూకంప@@
రూము@@
టర్నింగ్
రజనీకాంత్@@
కార్బోహైడ్రేట్@@
తరలించే
రెట్ట@@
ఇన్పుట్
స్పర్శ
ఏక్
రుద్దు@@
వర్గము@@
బకాయిల@@
రించెను@@
అంగీకరిస్తున్న@@
కమ్యూనిటీ@@
లఘు
మండపం
సరికి@@
కలర్@@
కావాల్సి@@
భవ్య@@
హారం@@
సోకు@@
ఊపిరితిత్తుల
నగ్న
వేస్@@
డ్డి
స్వాముల@@
హరితహారం
ఫ్రమ్
కాప్@@
గ్రహాల
ఇంజినీర్
అసభ్యకర@@
యూహ@@
కారిడార్@@
ంచటం
నిలబెట్టి@@
ఆవిర్భవించి@@
పము@@
ఎక్కడు@@
సందేశం@@
దిమ్మ@@
ైవ@@
ఆస్వాది@@
యుందురు@@
వేంకట
ఇరి@@
లేనంత@@
తీసుకువస్తా@@
ాప్య@@
మెటీరియల్@@
మృత్యువు
మాఫియా@@
శునక@@
యిచ్చి@@
పేపర్ల@@
హరిహర@@
స్వాహా
నటులు@@
వశాత్తూ
మద్యపాన@@
పొయ్యి
వంత
సంతాన
దళాల
ద్యం
కాశము@@
పంపే
ఆచార్యుల@@
మున్ముందు
పాలకవర్గ@@
గోయల్
ాలకు@@
క్యాప్షన్
సూత్రం@@
రోమన్
కన్నీరు@@
పాల్పడుతున్న
యోధ@@
షిఫ్ట్
ఎయిర్లైన్@@
శాసనము
యెన్న@@
ఎన@@
పడగా@@
మూలి@@
చికాకు@@
పదవుల
కమిట్
య్యది
లాడి
కనుల@@
ఒక్కరోజు@@
దుర్లభ@@
జరీ@@
డీసీ
క్రితం@@
వర్గీయుల@@
లెత్తి
యంబు
ఉమామహేశ్వర@@
తమదైన
ఉచ్ఛ@@
శ్రీరామ్@@
మరచి@@
సిర@@
అంతంత
స్నేహపూర్వక
కుమారులు@@
దఫా@@
బర
వన్నె
అతిక@@
గొడు@@
నాట్య
సంతానలేమి
వంతులు@@
మలయాళం
క్లినిక్@@
రెబ్బ@@
మీట్@@
ఏండ్లు
నొప్పుల@@
ఉలిక్కి@@
చోప్రా@@
నిర్మూలన@@
ఎంసెట్
మల్లిక@@
సభలో@@
యర@@
ప్రతిస్పందన@@
కోరుకుంటా@@
ధమ@@
స్విచ్
చేసుకోవాల్సి@@
ప్రయోజ@@
వండ@@
దూసుకుపోతున్న
నచ్చే@@
క్షణము@@
తదితరుల@@
సాధ్యమవు@@
భార్యా
వారసుల@@
ఉరేసు@@
ననుట
శ్రియ@@
లీన్
రెయిన్@@
బట్ట
వార్నర్@@
అమర్@@
గ్రఫీ@@
వేమన
చెక్కు
బాల్యం@@
తమతమ
నందఱ@@
నడిపే@@
పదార్థము
చూడలే@@
వర్షపు
ఐన
ధాయ@@
సలాడ్@@
స్థాయ@@
సంభావ్య
బయలుదేరు@@
పుండ్@@
పదబంధ@@
యుమ్
చంద్రశేఖర
స్పెషల్@@
సారూప్య@@
వైవీ
రాధిక
ఖరీఫ్
విత్@@
ఖర్గే
వ్యక్తీకరణ@@
బాగుపడ@@
శశికళ@@
బ్యూటి@@
మోపు@@
డిపార్ట్మెంట్@@
టక్
వెహికల్
కెసిఆర్@@
వెడ్డింగ్
కలప
స్క్రీనింగ్
ప్రసాద
వేదం
నిందితుడి
ఫారం
గౌరవనీయ@@
్లా@@
ముద్రణ
ఎనిమిది@@
సెలవుల@@
జాలు
వీవీ
భృత@@
భై
రాసుకున్న@@
కంబ@@
వృత్తము@@
వొక
సోర్స్
తాపత్రయ@@
సెక్టార్@@
పల్లవ@@
చీమ@@
౧౯@@
మౌళి@@
అమూల్య@@
టెంప్@@
వీసీ
పూర్తయ్యే
ల్యాండింగ్
వెంచర్@@
దెచ్చి
కాన్ఫరెన్స్@@
డిపో
కనుమరుగ@@
భాగస్వామ్య
వది
త్తే@@
గెలిచే
వ్యవస్థాపక
జొచ్చి@@
దెలియు@@
కాంచన@@
మాంద్యం
స్పెయిన్@@
జరగాల్సి
రాదని@@
పక్షుల
లాగున
తలెత్తిన
నిరాడంబర@@
గాలుల@@
దిగజారు@@
పనిచేసిన@@
మహాశ@@
పుంగవ@@
గూఢచార@@
థర్
దొరికే@@
పుర్
వేణి
చున్
విరామ@@
ప్రశాంత
పెర@@
సుజనా
మోకా@@
ఫీల్డ్@@
అపరాధ@@
తీపి@@
వేత
బుధవారం@@
బహుముఖ
బోలె
గఱ@@
రౌద్ర@@
ర్మ@@
శతకము@@
ఇర్@@
ప్రారంభించే
దెల్@@
త్మ@@
థ్రిల్@@
భూసేకరణ
దిగ్భ్రాంతి@@
గమనించి@@
సరళ
భోక్త@@
మొనర్చు@@
ముంపు@@
స్టాక్స్
రిక
దీపావళి@@
ఎగరే@@
టైల్
శేష్
బూస్టర్
స్ప్రే
లివి@@
హరిశ్చంద్ర@@
ట్లనెను@@
వడం@@
శ్రోత@@
కమీషనర్
సామెత
ర్షి@@
ఇస్తూ@@
కీర్త@@
భవించి@@
కల్లు@@
నాటిక@@
ాకార
గొడుగు@@
యాస
వరుణ్@@
నిర్భయ
చిచ్చు@@
స్విట్జర్లాండ్@@
ఎంఎల్@@
రించే
కృష్ణయ్య
తిరుగుతున్న
తొలిరోజు
పలుకుబడి
పాండ్యా@@
ఆచితూచి
అద్వైత@@
సడలింపు@@
విప్లవాత్మక
ఎనలేని
వుతాయి@@
షాప్@@
ఆర్గనైజేషన్
గురూ@@
వయోజన
అభిరుచి
ప్రియురాలి@@
లింగము@@
ఛాంపియన్షిప్
మచ్చ
బలరామ@@
ల్లీ@@
గోపి
ఎన్జీ@@
పౌరాణిక
నెన్ని
కెటిఆర్
భూపతి
పేగు@@
తౌ
అదో
నింద్ర@@
ప్రశ్నల
ప్రిపేర్
జెల@@
నినాదం
చేయడమే@@
సమీర్
షోరూమ్@@
పాధి@@
దుర్గ
తోందన్న
మండ్@@
నలుపు@@
కుండెను@@
ప్రకటనల
కాలేయం
లెటర్@@
ఖజానా@@
కాండము
ప్రచురణ
మారుతీ
షకీ@@
చుండుట
డిప్లొమా
మీఱ@@
గించి@@
అవినాష్@@
సేవకు
దృక్పథం
మూలము
పల్లా
ఆలీ@@
విలీన@@
ఐస్@@
నాఁటి@@
తంబ@@
గుర్తించడం@@
వైయస్ఆర్
చుండిన
కుట్రల@@
ళం@@
భారము@@
స్టాండ్@@
మిదం
విషయమే
వందనం
రికీ
పండితు@@
మాప@@
భగవద్గీత
పీకే
సారాంశ@@
ధావన్@@
జెర్@@
క్ర
అగ్నిప్రమాదం
స్తానని@@
ాచారి@@
ఉద్యోగస్తుల@@
బెండ@@
కమల్@@
పుత్రిక@@
మహానటి
విడిపోయిన
అప్పారావు
దుస్తుల
డాల్@@
ప్రొడక్ట్@@
గింప@@
సాగే@@
ించారని@@
లొకేషన్
లెన్స్@@
యమునా
కేశ్
వ్యక్త
వివాహము@@
రాయడం@@
ఒకప్పటి
బ్లాస్@@
రెహమాన్
జరిపే
రచనా@@
అభినయ@@
చాలన్నారు@@
రోషన్
ైక్య@@
కేటాయించిన@@
ఎకరం
ఖం@@
భగీరథ@@
మేడారం
గ్రాం@@
మనోహర్@@
ొద్దు
దిగే@@
దొక్క@@
విచారకర@@
తుఫాను@@
ఎండ్@@
వేతనం@@
చెంత
గ్రే
పవర్ఫుల్
ఆడిట్
కార్పోరేషన్
పడతాయని
ఇంతకు@@
పోవడాన్ని
గాయాల
జైళ్ల@@
పరిహారం@@
మేటి
భీకర@@
ఆదేశించిన@@
లన్నియు@@
చమురు@@
కనుప@@
షత్తు@@
భ్యః
స్వభావము
ఊరిలో
స్మిత్@@
నమ్మే@@
కొనసాగే
వర్తమాన
గడం
నింగి@@
వనిత
పీసీ
విద్యుత్తు@@
తిట్టు@@
చందర్@@
దానిపై@@
నేటికి@@
మరచి
ల్య@@
వాడా
కోస్తా
వేసింది
పరిచి
యుత్తర@@
యాగం
బక@@
మార్చడం@@
దేశభక్తి
కౌన్సిల్@@
పోయానని
గద
యూవీ
కురు
తేలిగ్గా
ఫ్రూట్@@
సత@@
ఆక్సిజన్@@
తాటి
అదీ@@
కత్రినా
గార్డు@@
షెడ్యూ@@
దెలిసికొ@@
రెజ్లర్@@
ఆత@@
సాలిడ్
వేలమంది
ఇందలి
చెయ్యడం@@
టిల్
దుఃఖం@@
ధ్యానం@@
త్యము
ోత్పత్తి@@
వాహనం@@
వాసుల
స్మాల్
అమెరికన్@@
పండితులు@@
చనిపోతే
పడుతు@@
భ్రాంతి
సీనియర్ల@@
పరిచాడు@@
బాబాయ్
సెకండరీ
డ్రైనేజీ
మెర@@
కల్చరల్
స్వస్తి@@
జగన్మోహన్రెడ్డి@@
అంచు
చంద్రబోస్
అగ్రరాజ్య@@
ప్రాక్@@
తేషాం
నియామకం@@
ఓవర్ల
కలియ@@
కమాండర్
ఉద్దేశించ@@
నిర్మించిన@@
సన్యాసి@@
కాల్స్@@
హమ్@@
చిహ్న@@
ననేక
పరిశుభ్రత@@
తెలిసిందే
రుసుము@@
గైర్@@
పాస్వర్డ్@@
ఏనాడూ
చప్ప@@
పోరాడిన
కొనడం@@
వెళ్లు@@
యట్టి@@
ుకోవచ్చని
మెప్పి@@
వారాలు@@
విత్తన
నిరసనల@@
తరువు@@
ఆత్మకూరు
హరించి@@
య్యి
విఘాతం
సంబంధి@@
త్యాహ
జీవించే
వేషము@@
గుణం@@
ట్లేదని
శబ్ధ@@
మదర్
చున్నావు@@
రత్నాకర@@
తీసుకురావడం@@
యాప్ల@@
భార
మాలిక్@@
డంత
డ్యామ్
ఫోరెన్సిక్
ఎదుటి
జరుగనున్న
సైనా
మాలి
వెంకటేశ్@@
ధాతు@@
తరలిస్తున్న
రండి
శీతల
వ్యాయామం@@
తాగునీరు
వివరణాత్మక
స్టాప్@@
ప్రేగు
కలలు@@
బస్సుల
బేసిక్
నుండుట
తగిలి
అంధకార@@
సీట్
వ్యాజ్య@@
మల్లి@@
సైక్లింగ్
వయస్క@@
సర్క్యూట్@@
మహారాజా@@
ఇతఁడు
వీక్షణ
కార్తీక@@
పోరాడుతున్న
అరాచకాల@@
ప్రకటించే@@
కన్ఫర్మ్
ఎప్పుడెప్పుడంటే@@
జనము
జర్నీ
ెన
సంక్షిప్త@@
దాగి@@
సింగి@@
ఎన్ఎల్
నరకం
సుకుమార్@@
దేవుల@@
బొంబాయి
తున్నారు
రైటర్@@
కొంప@@
సీపీఐ@@
చేరా@@
తార్
ధు
దక్కిన
కంగా@@
దివాకర్
అక్బర్
ల్యాప్టాప్
చేయలేకపోయా@@
అనంతర@@
కాంబో
ప్రవర@@
వెతికి@@
శివుడి@@
టాయిలెట్
పాడ్@@
అసమ్మతి
రిజిస్టర్@@
జోన్ల@@
స్పష్టత@@
నియత@@
వేంక
అంగీకరించిన@@
మొలకెత్త@@
దారా@@
కృశ@@
సహాయము
త్త్వ@@
ఛేంజ్
సరోవర@@
అతడ్ని
చికాకు
దాయకం@@
పేషెంట్@@
యింట
చెలాయి@@
ఎస్వీ
హనుమ
ఎపుడ@@
గెలవడం
యులు@@
హిస్టరీ
పెడుతూ@@
తేలిక
సూర్యనారాయణ@@
జరుగనున్న@@
టచ్@@
కఫ@@
పేలుళ్ల
టోల్@@
మళ్ళి@@
కెమికల్
నేరగాళ్ల@@
ఫీల@@
యింగ్@@
శూద్రు@@
ట్రోలింగ్
రిలీజ@@
తత్వం@@
నైతి@@
ఏవి
ండేవారు@@
శబ్దం@@
మిలి
ాలూ@@
తీయాలని
ధూమపానం
క్రిస్టియన్
కయ్య@@
దమ్ము
శాంతిభద్రతల@@
చింతన@@
స్నాన
మనస@@
సాం
శుద్ద@@
కెర@@
ఇల్లా@@
చెప్పుకోదగ్గ
తరలింపు
రైతన్న@@
సానియా
వేస్తామని
జైన
సమన్లు
లభించడం
పొం@@
ఏల
బాషా@@
ఛాలెంజ్@@
కలిపే@@
వేశారు
బికినీ
అరికట్టే@@
బ్యాట్స్మెన్@@
ఇంజినీరింగ్@@
రాజన్@@
ప్రపంచము
కళ్లు@@
కుర్ర
అధ్యాయము
క్వార్టర్@@
పంపు
కెన్
మణిపూర్@@
దమ
చర
యాంటి@@
యస్యా@@
ఆపరేటివ్
ప్రత్తి@@
పరిశోధనల@@
తల్లితండ్రుల@@
శాక@@
పడుకున్న@@
గైడ్@@
జంగా@@
భాగమైన
ఆధ్వర్యాన
పరిత@@
యడ@@
జేర@@
వచ్చాయి
పేలు@@
వైదొలగ@@
కంఠం@@
క్యాంపస్
దీంట్లో
నినాద@@
థి
వేళల్లో
పంథా@@
స్ట్రీమ్
బ్యాక్టీరియా@@
శః
పఁ
డ్రీమ్
క్రాంతి
శ్రావణ
తమిళ్@@
లాస్య@@
దించారు@@
మీమాంస@@
స్టీల్@@
చుచున్న
పీరియడ్@@
సూద@@
దాటే@@
విసర్జి@@
కాఁబట్టి
మురుగు
గ్లింప్@@
వచ్చాడు
సిలి@@
అప్పజెప్ప@@
ఎయిమ్స్
పరులు
నిలిచే@@
ిణీ
గద్వాల@@
వేషం
ఈస్ట్@@
చేయబడి
రోడ్లపై@@
శో
బౌన్సర్@@
పారిశుద్ధ్య
మాంసాహార@@
అలంకార
దురద
జామ@@
జీవనశైలి
జోక్@@
అరటి@@
నాటికి@@
ప్రైవేటీకరణ@@
ఇమెయిల్
త్య్ర@@
చూద్దాం
ఏఆర్
టూరి@@
మోనో@@
ఇంద్రియముల@@
బెదిరించి@@
లోపు@@
మార్నింగ్
కన్వీనర్@@
మవుతున్నది@@
స్వార్ధ@@
తుడై
లోచన
నిర్గుణ@@
రెచ్చిపోయి@@
సిరియా@@
ునికి@@
హడావుడి@@
ఓకే@@
ఉంటాయని@@
చైవ
ఫ్రంట్@@
వస్తున్నా
యింద్ర@@
ఆయోగ్
పౌరసత్వ
ఋజు@@
అసుర@@
ంచును
ధూళి
టూరు
ఆయుధం@@
పట్టణం@@
భిన్నమైన@@
భరితమైన
సైరా@@
విత్తు@@
యశోద
ినీ@@
సిద్ధించు@@
ంచాడు
సూచిక
లేజర్
వెన్ను
వలదు@@
పోక@@
కమలాకర్
వాల్మీకి@@
నరికి@@
వధ
ేతర@@
పేదరికం@@
యుక్తి@@
ట్రాక్ట్
బందీ@@
యాదవ@@
కొన్నేళ్ల
పిటిషనర్
లోకేశ్@@
నెం
హైడ్రో@@
హరీ@@
చంచల@@
భయంకర
యెరు@@
యినా@@
కోలాహల@@
ఎఫ్డీ@@
వినిపించు@@
టెంపుల్
అల్ట్రా
అనంతరం@@
మలినేని
అబ్దుల్లా
తామ@@
చెందడం
తారన్న
కింత@@
ోత్తర
తరలింపు@@
స్మగ్లింగ్
సహాయము@@
రోశయ్య
మెలి@@
ధరించే
పిటీషన్
చెప్తూ
స్కంధ@@
మఱల
ఆనందము@@
విశ్వనాథ
సువాసన@@
కోవింద్
ధేను@@
కోతి
ఆకాశము@@
భ్రమ
తయా@@
ఫలాల@@
యాంగిల్
మోర్చా
అంజలి@@
నిస్సహాయ@@
యుఎస్
ఫలితము@@
నొకటి
చోటికి
దిబ్బ@@
మంత్రము
కాట్@@
ణంబు@@
చరిత్రకారుల@@
యెక్క@@
సంభోగ@@
మందగించ@@
నపుడే
అటవీ@@
యాడ్స్
పాండవ@@
భూకంప
పోక
హేతు
ర్థ
యాడు@@
సౌతాఫ్రికా
మరియ@@
సీట్@@
ఫిల్
స్టిల్@@
హారతి
కంటైనర్@@
రవిశంకర్
నెడు@@
విగ్రహము@@
పీఠిక@@
వెడల@@
రస్
ద్వారం@@
పల్నాడు
విద్యార్హత@@
ఏండ్ల@@
పొలాల్లో
ధైర్యము@@
ప్రోత్సహించే@@
ముందుకెళ్ల@@
ఆశ్రమ
కాకపోవచ్చు@@
వ్యయ
మేళా@@
రథ
గమనిస్తున్న@@
నదియు
నాయా@@
నరసాపుర@@
వ్యాకరణ
పట్టాభి@@
టాన్
ానికై@@
ఫెయిర్
గోపిక@@
కూడగట్ట@@
రనౌత్
పడుచు@@
విపత్కర
కనిక@@
సిక్కు@@
ఆరాధన@@
పళని@@
శవాల@@
స్వాగతి@@
రావడమే
మల్లారెడ్డి@@
మేధస్సు
గట్టిన
చేసితి@@
సస్య@@
తత్వము@@
ఫ్యాక్ష@@
మోనాల్
కట్టిన@@
టేప్
మోటో
దన్ను@@
నవ్వి
సందీప్@@
దర్శకుడి
లాగు
కష్టాలు@@
వివరిస్తున్న@@
ఆలియా
బయోపిక్@@
ఛార్జీల@@
ఐడీ
ొద్@@
కేట్
యెల్
వస్త@@
ప్రారంభమైన@@
వాతా@@
నెన్నో
భాసి@@
కోనసీమ
అట్లాగే
సనా@@
వంశా@@
ఓడి
పిడి
మాటలాడ@@
మణుల@@
చికెన్@@
లక్ష్మీనరసింహ@@
సద్గురు@@
బ్లాగ్
లాండరింగ్
తుడిచి@@
ప్రస్థానం@@
ప్రణీత@@
త్తం
గెస్ట్@@
మ్యూజిక్@@
శతాబ్దాల
వర్షా@@
ప్రొద్దు@@
భోగ
విప్పి@@
చిత
నిరూపణ@@
చేతన
ఖుష్@@
ఎంఎం
పిఎస్@@
మారణ@@
పోజ్
కేఫ్
సలార్@@
నిర్మల్@@
పురుషుని@@
ఎల్పీ@@
గద్దె@@
ర్పణ@@
గరిష్ఠ
వింద@@
ఎండి
చొక్కా
ండటం
నివసించి@@
గోరంట్ల
సూత్రము
యులర్
మంతయు@@
గుడ్న్యూస్@@
దేవరాయ@@
బ్రతుకు
ధోరణు@@
పేస్@@
ఫ్రాంచైజీ@@
పాయము@@
ఎక్స్పో@@
ఇనిస్టిట్యూట్
కత్@@
చప్పు@@
ముత్తు@@
అవసరమైతే@@
బ్రకట@@
ెనని
అనిన
రీచ్
యత్ర@@
క్యాచ్@@
పరుస్తాయి@@
బ్యాట్
యెఱుంగ@@
రూపాయ@@
శ్య
నామరూప@@
శరణాగత@@
కొంగ@@
అయ్యప్ప@@
మయాంక్
పర్వము@@
వాహక@@
భాగంలో@@
వర్త
తైవాన్
బోసి@@
ెవ్వరూ
డైమండ్
అక్షరాస్య@@
వీరుల
నాగిరెడ్డి
పితా@@
విలాసము@@
అభ్యర్ధి
బోర్డ్@@
విజ్ఞ@@
జగతి@@
మహి
వేడెక్కి@@
సభ్యురాలు
నలుమూలల
బయి@@
ముగ్గురి
పేస్ట్@@
వేదము
రెండింటి
ఎదుగుదల@@
ఇంద్రకరణ్
చుఁ@@
బ్రాడ్
మన్నారు
ాడో@@
జన్యు
ించడానికి@@
లాట
చేఁ@@
ాలలో@@
నడుం
సవర@@
ఎర@@
తనకే
చేయబడి@@
బడుతున్నారు@@
అభిరుచుల@@
ఎగిరి
లెంద@@
ఛత్తీస్గఢ్@@
రామలక్ష్మణుల@@
రత్
యచ్చ@@
స్నానాలు
లీటర్@@
శప@@
బీబీ@@
టోపీ@@
బంధించి@@
టైల్@@
మెటా@@
లేమీ
ఠాకూర్@@
నిరంకుశ@@
దేశ్య@@
అండ్@@
రావడ@@
నిష్
వాణీ@@
జగతి
శకున@@
బుద్ధిమంతు@@
తింటూ
సహిత
ఎండు
నాగార్జునసాగర్
తంత్ర
అభ్యుదయ
విదుర@@
బలోపేత@@
ఘర్
అపాయింట్మెంట్
గుఱ్ఱ@@
వందన@@
మేనల్లుడు
ఆసన్న@@
క్లెయిమ్
మాయె@@
నివేదికల@@
యాంత్రిక
రనీ
వర్తి
జాలము@@
వాటన్నింటి@@
కరము
చెల్లుబాటు
నెడ
మొప్ప@@
తిరిగొచ్@@
న్తర@@
డిటెక్@@
ఈశ్వర
సర్దుకు@@
పీడి@@
చిరునవ్వు
గేజ్
గవర్నమెంటు
పందెం
గర్భంలో
మిచ్చి@@
బహుశా@@
మారుతి@@
యెహోవా@@
ఇనుము@@
వారణాసి@@
ప్రూవ్
ఇత్యా@@
జేర్చి
బీటా
అయోమయం@@
చెన్@@
హుస్సేన్@@
ప్రవేశి@@
సప్లై
తీర్చి@@
లడ్డూ@@
పౌరసరఫరా@@
హంతక@@
ఎద@@
హిజాబ్
సెకండాఫ్
ఖుషీ
శ్యాం@@
వేల్పు@@
శోభన్
సంస్కరణ
మొహం@@
కల్పిత
వైచి@@
పెట్రోలియం
కప్పి@@
కొందర@@
చెల్లి
ప్రతిష్ఠాత్మక@@
కాటు
శుక్ల
వ్యక్తీకరణ
పెడ్@@
అధ్యక్షుడి
సూర్యనారాయణ
మిచెల్
లంకార
దీపాల@@
కవల@@
చక్రాల
ఖైరతాబాద్
వ్యవస్థల
షెల్
పురుషోత్తమ@@
బయలు@@
వంగ
సమర్థు@@
ష్ట్ర@@
వింటూ
తీస్తా@@
దర్శ
ఆంటీ
నాట్యం
వైట్ల
సేసి@@
అనిత
చేయబడ@@
వేసె@@
ఁట
కామన్@@
షార్ట్@@
దుర్తి
నమోదవు@@
పురాణము
విపరీత
దినేశ్
దాత
కొరు@@
సీమాంధ్ర@@
ఫార్ములా@@
టెండూల్కర్
కట్టుకున్న
ంచాలనే
ద్వంద్వ
వర్ణి@@
మరుగుదొడ్ల@@
పట్టాల
ఐక్యరాజ్య
చేసాడు
పునరావాస@@
జులు
త్రిపాఠి
రంట@@
సౌత్@@
ధరించిన@@
్ణ@@
తత్వా@@
లాటిన్
అరాచక@@
రామగుండం
లజీ@@
అఖిలపక్ష
ఆకట్టుకునే@@
తిక్క@@
ఇంజనీరింగ్@@
నేషన్@@
మానవతా
పదాలు@@
ట్రైన్@@
మైతే@@
నిరంజన్@@
సందర్శన
ద్ధి
బెంచ్@@
పిమ్మట@@
మసాలా@@
ఉపక్రమ@@
తీర్చి
గడ్కరీ
స్వార్థ
వారణ@@
సాయిబాబా
టిఆర్
పుల్లా@@
పోయిందని@@
గర్భాశయ@@
యాదాద్రి@@
చరణ
చరించి
దక్కడం
కచ్చితమైన
లనియు@@
అంత్య@@
వైదిక@@
ఇంద్రియ
ష్వ@@
సజ్జన@@
షాం
భట్టు
స్తం
పుట్
ప్రతిదిన@@
మైసూరు
నామం
బృహస్పతి
పెయిన్
చీలి@@
జెప్పె@@
దృక్@@
గ్లోబల్@@
సంయమ@@
ఋతువు@@
ఆచర@@
ప్లాస్టిక్@@
పాతిక
దీవెన@@
యావరేజ్
చుకుని
అరుణ్@@
ప్లాన్ల@@
ోక్తి
యద్య@@
పార్వతీ
ామి
మొట్ట
బడుచున్న@@
భద్రాచలం@@
కైక@@
ఐక్య
పాండ్య@@
డ్వాక్రా
సర్వర్@@
నటీనటుల
టౌన్ః
పండితుల
ఒవైసీ
సెన్
పద్దతుల@@
దండం
యనుభవ@@
వింటున్న@@
కేటాయించి
మందర@@
తంబు
లిన@@
శార్@@
ఎవడు
చరమ@@
ఉమ
తుల్
టియా@@
డిస్నీ
విగ్రహం@@
చదువుకో@@
నాత్మ
హౌజ్@@
తాత్పర్యము
మెట్టు@@
సౌజన్య@@
అనిశ్చిత@@
ఛాలెంజర్స్
దర్శించి
దృఢ
పెరుగ@@
వొక@@
దేవుఁడు
మాఘ@@
వీరులు
పంద@@
వెహికల్@@
పుట్టె@@
తెలి
దోడ్@@
హిమా@@
కౌసల్య@@
ెనో
ావ్@@
నిర్బంధం@@
ఏకాభిప్రాయ@@
ఐఏ@@
హాం@@
ఫిల్టర్
జింగ్@@
బ్యాడ్@@
వీపు@@
చకచక@@
బస్తీ
మూల్యాంకన@@
ప్ర్రాణ@@
నర్సరీ@@
చాయ@@
వ్యం
శోక
మంజూర@@
విడుదలయ్యే
యత్నించి@@
లాభము
ాభిషే@@
మూత్రపిండాల
సబ్జెక్ట్
నక్@@
జూనియర్@@
జెప్పఁబడి@@
పీడిత@@
సేయు
పోలింగ్@@
జెప్పిన@@
సంస్థాగత
దనము@@
వాడకం@@
క్రాప్
ప్రతిష్ట
పరము@@
కామేశ్వర@@
ఉపఎన్నిక
వేషం@@
గాయకుల@@
ఇన్స్పెక్టర్@@
మెకానికల్
గార్డ్
యూత్@@
చూపించి@@
సంచిక
యూజీ@@
హాజరయ్యే
జీవు@@
వాదులు@@
సంస్కరణల
లెజెండ్
ఆచరణ
చెంచా
కాస్ట్@@
లేరని@@
ప్రేమ్@@
అన్నదాన@@
పడితే@@
ప్రార్ధ@@
దవ
టెక్నిక్@@
చార్జీల@@
దహన
ంటంటే@@
పెంచేసి@@
ఇవ్వబోతున్న@@
కాషాయ@@
కుమ్మక్క@@
మిళితం
షురూ
కంపోజ్
నాట్
కార్డులు@@
రవికుమార్@@
పెట్టాడు
గోవింద
రాహు@@
అవుట్పుట్
అప్పీల్
ఈగ@@
టీటీడీ@@
గౌరీ
జోషి
రచి
విద్యార్ధి
కాలినడక@@
స్పీడ్@@
ధైర్య
ఓరియెంటెడ్
నార
మన్మధ@@
పద్ధతుల
ఒపి
ఐక్యత
హస్త
స్మరణ
నంబర్ల@@
సాగిస్తున్న
చేశారంటూ
ధాన్యాల@@
శత్రువుల
యతఁ@@
దెలిసి@@
రణము
టెలిగ్రామ్
భూతం
యప@@
మనా@@
జ్యా@@
వన్నె@@
కారకు@@
వెడు@@
సుప్రసిద్ధ
ఝా@@
జన్మము@@
క్యూసెక్కుల@@
పోవటం@@
ఆప్త@@
సమయాల@@
కెనాల్
యథావిధిగ@@
ట్రాప్
తిక@@
టప్పటికి
ధనుష్@@
లక్ష్మీదేవి@@
నెన్న@@
వానర
ఆదాయాల@@
ఇండియన్స్@@
జీబి
ఫోజు@@
దఱు@@
ఇన్సులిన్
ధం
ఫీలవు@@
యశో@@
శీర్షిక
ముసలి
చేయుచుండ@@
ఉధృతి
గూడూరు
ప్రాణము
గ్యారంటీ
మత్
అమాయకుల@@
పాటించి@@
ఆరోపణల
బిజీ@@
బక్@@
సమృద్ధి
సెలక్ట్
క్యాష్@@
అట్లా@@
ఛార్జి@@
విజయవంత@@
గ్రహీత@@
వుడ్@@
యూజర్ల
సమయంబు@@
చారి
కట్టె@@
పరచడానికి
ముంచు@@
మొన్న@@
కనిష్ట@@
నిరత@@
బాలాజీ@@
పొక్క@@
ఐసీఐసీఐ
సంఘము
ఐఐటీ@@
బలపరు@@
దాహం
సామాన్యుల
ఖై@@
టెస్టుల
మూర్ఖు@@
యేడ్@@
జెడ్పీటీసీ
రోమా@@
బొక్క@@
కూత@@
వినతి@@
నిలప@@
అంతా@@
దప్పి@@
డీఎంకే@@
శే
దానయ్య
పొడిచి
ప్రొటెక్షన్
శతాబ్ది@@
షియన్@@
వారట@@
జాకెట్@@
వివేక
స్టేట్మెంట్@@
వేఱు
లభింప@@
అవలంబి@@
గిరిజన@@
ప్రైవేటు@@
సెక్టార్
మకర@@
బుద్ది
క్రోమ్
ఇద్దరు@@
జనాల
ధాన్యాల
ఎముకల
యాసంగి
చేయుచు@@
స్కాట్@@
బిపి@@
ఉంచే
ఇందిరా@@
డాలర్@@
సత్
జటా@@
త్రో
న్నూ@@
మహమూద్
మచ్చు@@
జానా@@
ఎదో
వత్తిడి
నాధ
మునఁ@@
మూడ్@@
గొంత
పయి
స్పెక్@@
ఆరాధన
లైసెన్స్@@
పోలీ@@
శ్లోకము
ఇందిరాగాంధీ
గుజ్జు
అందడం
రంభ
వ్యాపారుల
బాణం
మిత్రుల
ఉపసంహరణ
గ్రేడ్@@
నిషేధం@@
కావాలను@@
కనెక్టివిటీ
ఇందిర@@
రేపటి@@
కుంట్ల
వ్రతము@@
యొద్దకు
నగరి
సామి@@
సిటి@@
జబర్దస్త్@@
అన్వేషణ
వాలంటీర్ల
శ్రేయా@@
పరంపర
రచనల
ఒకదాని
గురజాడ
ప్రార్ధన@@
అనన్య@@
శ్లాఘ@@
మరమ్మతు
చిలక@@
కాలర్
టాబ్లెట్@@
చ్చాయి@@
కోరుకో@@
బడుచున్నవి@@
జెయింట్@@
మాక్స్
కైంకర్య@@
ఫార్మ్
స్ధాయి@@
కార్యవర్గ@@
పొది@@
వసూళ్ల
హెచ్ఓ
కుమారస్వామి@@
చెందే
నన్నె@@
తలవ@@
రెగ్యులర్@@
ముదిరి@@
చెన్నా@@
అచట
ఇత్@@
పెడతామని
శస్త్రచికిత్స@@
సాధనాల@@
ఆధి@@
సయిత@@
మేర@@
నేరాల
పట్టడం@@
రిటర్న్
మార్షల్
పెదాల@@
ఆతృత@@
చెబితే@@
స్విచ్@@
దిగ్భ్రాంతి
క్రొ@@
ప్రాయశ్చిత్త@@
ఏదైతే
నోప@@
యూపీఏ
డీజే
ఉదంత@@
రిజెక్ట్
బాధపడు@@
పరా
తీగ
తిన్నా@@
వివాదాల
తిన
యర్థము
బొంది
ఇన్స్@@
సెమీస్
నమ్మే
యేల్
పతివ్రత@@
కాదన్న@@
లైబ్రరీ
సమానము@@
అవాంతర@@
జియా
ధరణీ@@
యీత@@
భగవానుని
టైప్@@
బంధువు@@
పరిణామ
అక్షరాల
మెరిసే
ఐఎఫ్@@
వేయుట@@
గ్రాడ్యుయేషన్
గజ్వేల్
శంక
గార
ఇంట్రెస్ట్
జైపూర్@@
గ్యాలరీ@@
బీట్@@
రావి
ఎసి@@
స్వా
ఉదంతం
మాట్లాడుతున్న
త్వే
యోగీ
చేసుకుంటూ@@
దెలుపు@@
చాటే@@
దుకాణాల
రఘునందన్
ల్యూషన్
నటు
కడుగు@@
మర్డర్
రిన్@@
తొలిగి@@
కర్మల
మఱియొక@@
ద్రుత@@
లబ్దిదారుల@@
రాజుల@@
సారస్వత@@
ిత్
కార్ట్
ప్రసరి@@
రాగం
టపా@@
వోలు
సీజనల్
బీఎస్ఈ
నీరజ్
ఉద్యమకారుల@@
చూచుట@@
చలేదు@@
అగ్గి@@
దుర్భర@@
డ్రగ్స్@@
ధార్మిక@@
పొరలు
తీస్@@
యాత్మ
విజయలక్ష్మి
యిచ్చిన@@
బలవన్@@
కరమైన@@
బతికే
వుండు@@
స్టవ్
రక్తపు
జవాబి@@
క్లె@@
పూర్తయ్యాక
మూసు@@
విక్ర@@
జలమయ@@
గలిగితే@@
పూలమాల
ప్రమాణము
అవుననే
సత్తి@@
ముంచె@@
పిలిచిన@@
ప్లె@@
బ్రెజిల్@@
లక్ష్మణ
అందించి@@
స్మార్ట్వాచ్@@
రంగులు@@
వండి
సింగర్@@
మర్తి
కూర్చుండ@@
బెట్టడం
్యతే
బైన@@
ప్రశస్త@@
ఆశాజనక@@
లైవ్@@
సరుకుల
ఉమ్@@
పొంగి
ాంక@@
విశ్వాస
రూమర్@@
చేదు@@
చిత్రహింసల@@
అడివి
చెను
యుండును
కోలా@@
ఫాబ్రిక్
పార్ట్నర్@@
బోరు
సెలక్షన్
లాంగ్వేజ్
వెడలి
డాక్టర్ల
హరిత@@
గర్జ@@
ఫ్లవర్
సౌఖ్యము@@
పవార్@@
సగం@@
లౌ
జరీ
ఆడపిల్ల
య్యాయని@@
సహాయకుల@@
మేటి@@
వాదాన్ని
పారిజాత@@
ఫలించి@@
షిండే@@
నైవ
అద్బుత@@
ఏవం@@
వజ్రా@@
గ్రహీత
ఎముకల@@
ఏజ్
మాల్యా@@
చక్షు@@
చూశాయి@@
నన్నిటిని
బోలి@@
చొప్పున@@
పత్రము@@
తగ్గట్లు@@
చెల@@
యావత్@@
వాడడం
లొక@@
స్వయంచాలకంగా
వ్యాప్త
క్లేశ@@
బందు@@
వధువు@@
మొసంగ@@
నిరోధక@@
టైటాన్స్
కాసేపట్లో
బాధ్య@@
ఆర్టికల్@@
కార్యం@@
పేషెంట్ల@@
కూచు@@
మించిన@@
మిలియన్ల@@
ఆముద@@
త్మా@@
డిఎ
గుర్రం@@
మార్కెట్ల
గ్రహణ
బొబ్బిలి
తప్పిపోయి@@
స్పిన్
అర్చన@@
లక్క@@
రాబర్ట్
దండ్రుల@@
నేతి
విభజించి
స్టాలిన్@@
సాధు
గోచరి@@
తండ్రీ
మంతటా
నిరంతరాయ@@
హత్యల@@
మణిశర్మ
గుండు@@
రెక్ట@@
వర్గీకరణ
ఫాం
కణ
నామం@@
వేతన@@
వంచి
హోస్ట్@@
ఇంపార్@@
చలనం
బ్లె@@
దుర్వాసన
రిస్
డిశ్@@
వినికిడి@@
కలకత్తా
ధర్వ@@
క్రే@@
బేర్@@
కిల్@@
వ్యోమ@@
నిరసనకారుల@@
కర్మఫల@@
భాగములు@@
కొట్టు
లాంఛనం@@
రయి@@
కాపాడిన
ంచమని
బిగ్బాస్@@
క్లీ@@
హిట్టు
రెంట@@
ఎంసి
మిల్క్
ముస్లిము@@
భయానక
సేయ
మ్స్@@
డీలర్@@
అయ్యన్న@@
అవతల
ధ్యా
ఉండాల్సి@@
డైవర్@@
లెఫ్ట్
తడవ@@
లందలి
నిలచి@@
వేయు
లంకా@@
బొడ్డు
ఆప్టిమ@@
రచ@@
అభ్యర్థన
ప్రాణి
బుక్క@@
జాస్@@
మెషిన్
రాజీవ్@@
కాలిఫోర్నియా@@
నెన@@
శ్రేష్ట@@
ఉద్ఘాటి@@
భాగ్య
ఉత్ప@@
పడెను@@
దారం
గిరాకీ
గాత్ర@@
శ్రావ్య@@
హము
నెలాఖరు
కదిలే
కంప్లైంట్
కాశ
వేయవచ్చు@@
చట్టసభ@@
కూలీ@@
పోలిన
పడుట@@
భై@@
వృద్ద@@
నచ@@
ఋగ్వేద@@
బాధ్యతాయుత@@
రావణాసుర@@
టన్నులు
ద్వయం
బుద్ధ
మరణము
ప్రధమ
నిర్మిత
రక్తదాన@@
శౌ@@
డనై
మందిరము@@
వెంకటేశ@@
మిస్టరీ@@
హిల్స్
మద
కమిటీల
సెప్టెంబరు@@
గృహం
విరుద్దం@@
దేవేంద్ర
పల
ద్రౌపది@@
అన్యోన్య@@
చంపిన@@
మీడియం@@
ఫ్లో
వృష్టి
తలా
పృధ@@
హరిహర
పడ్డారని
జోసెఫ్
మేకర్
వెతుకుతున్న@@
టిఫిన్
ేందర్@@
అమాయక
ఆకృతి
సూచించు@@
మిన@@
సమ్
పారదర్శక
గొడ@@
బడియె@@
రుక్మిణ@@
మిత
మెషీన్@@
నిశ్శబ్ద
సురేశ్@@
మరికొందరి@@
నఁగ@@
నిమిషాల్లో@@
తుందన్న@@
ప్రతాప్@@
హృదయపూర్వక
అజెండా@@
ఐరన్@@
టైన
విడ్డూరం@@
వాటాదారు@@
దాచ@@
ఆయకట్టు
రావణ
శాయ@@
కాక్
గేల్
త్రిపుర
మెడిసిన్@@
కచేరీ@@
ప్రవేశం@@
విలాస
ఆటిజం@@
మానవుని@@
పిఆర్@@
పట్టీ@@
సభకు@@
బొబ్బ@@
మెచ్చి@@
మాఱు
రామరాజు
బోటు
నివేదికల
ఎదురవుతున్న@@
కాండము@@
ప్రశంసి@@
ెలా
యిక్కడ
ల్లీ
వగైరా
విచ్
ప్రశాంతత@@
స్వయ@@
బాషా
ొక్క
పుష్టి@@
కస్టడీ
క్షోభ@@
మీదున్న
ప్రొటీన్@@
మహమ్మదీయ@@
బడుతుందని
దించే@@
లెన్నో
శతృ@@
వీర్@@
ఆకాష్
ఏడ్చ@@
ుణ్ని
లనేక@@
కిటికీ
పస్@@
రాఘవేంద్ర
పోయాయి
వెల్లువెత్తాయి@@
గుర్తుండి@@
పించాడు@@
లిచ్చి@@
సరికొత్త@@
వర్గీయ
గిఫ్ట్@@
కోల్డ్
సొగసైన
కలకత్తా@@
వేణి@@
ఎగ్జిబిషన్
నిరోధకత@@
జగదీశ్
గ్రిడ్
చర్చించి@@
బాపు
ఇంక్@@
ంటోన్న
మోడల్స్
బ్రిడ్జ్
అంగుళ@@
ణ్వ@@
విహార
మ్మి@@
గళం
చాంపియన్
ాళ@@
మానేసి@@
స్నానం@@
గెటప్@@
పలి@@
ుడూ@@
నడచి@@
మానవాళి@@
పంప్
ోక్తి@@
మహిత@@
డనియు
చేస్తుందన్న@@
త్యాహ@@
ఓఎస్
ప్రశ్నించిన@@
లైక్
ధృవీకరణ
ప్రత్యు@@
పేగు
ప్రజ
క్లయింట్
తెల్లవారు@@
డానికీ
భీమవరం
కంటతడి
మంజు@@
ఈఎంఐ
పారా
చారని
గర్భాశయ
ఎరువుల@@
ఈతని
హ్య
దాన్నే
మూడింటి@@
పట్టుబడ@@
ఏడేళ్ల@@
పంచి
వైద్యారోగ్య
సల్ల@@
చుకుంది@@
రాజే@@
మాటల్లో@@
ెత్త@@
సృష్టికర్త@@
ష్టమైన
కూలీలు@@
ఎలుగుబం@@
అశ@@
కొనవలెను@@
చెర్@@
కర్మయోగ@@
అనుమానాస్పద@@
కుమారుని@@
అడ్వెంచర@@
ఎటాక్
కోపము
అవధ@@
కలా
వ్రత
క్రిష్@@
జెందు@@
శామ్సంగ్
అనియు
నిన్నటి@@
నినది@@
జైపూర్
నాలా@@
లాగ్
బెదిరింపు
టవలన@@
కొలవ@@
ప్రాతినిథ్య@@
సరుకుల@@
జయం
ఎంఆర్
క్లినిక్
ఫ్లిక్@@
లాటి
పతీ@@
మహానుభావుల@@
అఫిడవిట్
బొట్టు@@
రోమ్
పాణి
త్మా
ాధికారుల@@
రచనలు@@
స్రవంతి@@
మనోజ్@@
పూలు@@
ఫింగర్
కెమికల్@@
వాణ్ణి@@
అందే
లవంగాల@@
విధించిన@@
కాళీ@@
మెట్ట@@
వెనకాల
లేటి@@
ఖర్@@
ఆమ్లం
దగ్గ@@
భర్తృ@@
పులివెందుల
మేష@@
గగ్గో@@
పెట్టేసి@@
చారం
దగ్గరై@@
లెగ్@@
దంటున్నారు
ఎస్ఈసీ
పొందగల@@
కావలి
వటమే
పక్షాల
వ్యం@@
అధ్యయన
ఫలం@@
నాల్గు@@
ఎంపిడిఒ
బియా
నగరపాలక
జేడీ
హరీశ్రావు@@
పరిస్తి@@
నందున@@
ఒత్తిళ్ల@@
తిక్కన@@
ప్రయోగాత్మక@@
బ్రహ@@
పోవాల్సిందే@@
దాకా@@
క్వాడ్@@
కాటమ@@
విమానాశ్రయాల@@
యించు
తీస్తున్న
మేలి@@
సెట్టింగుల@@
స్థానాల
యూరి@@
సీఏ
మళ్ళీ@@
బిల్డింగ్@@
పేటీఎం
మార్కుల
గేయ
జ్ఞత@@
గట్టె@@
రామన్న@@
తెలుఁగు@@
సుకున్నారు@@
వికారం@@
యజ@@
డార్
ఆపిల్@@
వచ
జూపల్లి
మాట్లాడటం@@
పీహెచ్సీ@@
వెచ్చించి
లేక్
ఆర్జీవీ
టోర్నమెంట్
బిల్లుల
మంచం@@
ప్రింట్@@
వందే@@
పించు
సూద్
గజ
శకుంతల@@
వెంకీ@@
శిలా
నాడ@@
పదిమంది
కామన్వెల్త్
వూరి@@
కూల్చివేత@@
ప్రోటోకాల్
ఆడిన@@
డెప్యూటీ
పియర్
డైలీ
భగ
రేసు
బోర్డర్
భోళా
జ్యేష్ఠ@@
గెలిచే@@
అసోం@@
బిగ్గరగా
వంచన
షేర్ల
మరమ్మత్తు
కోకిల@@
శ్రామిక
యాదగిరి@@
మెడల్
సుశీల@@
ఒడిదుడుకుల@@
బోనాల@@
కాదనే
ఉసిరి@@
పన్నా@@
తాదృశ@@
కొవ్@@
తెలుసుకొన@@
బ్యాంకర్@@
వెజ్
కబడ్డీ
నాయిక
ఫిలిమ్@@
నెరవేరి@@
భాగములు
చిలుక
సప@@
రోగం
నారదు@@
రామచంద్రారెడ్డి
మాటు@@
ఆప్యాయంగా
గాయమై@@
మూగ@@
తలంచు@@
కండక్టర్@@
కేగి
హైడ్రోజన్
ఆగ్నేయ@@
నివారిస్తుంది@@
సర్టిఫికేట్@@
సంస్కరిం@@
ఫస్ట్@@
రుజువై@@
స్కై
స్తుతి
చీక@@
కొస్తే
గళా@@
జర్నల్
మేఘము@@
స్టిక్@@
మటన్
మూక@@
భీమ్@@
సహింప@@
కొట్టా@@
హెచ్చు
ఎడ్యుకేషన్@@
తాన్@@
దఫా
వార్తల్లో@@
దృ
అహో@@
అనుకొన్న@@
శిల
కలకలం@@
కామారెడ్డి@@
డ్రింక్
డనీ@@
రసాల@@
పిన్న@@
యేతర
బాల్యం
సంకేతం
మొదలయి@@
కలత
పునరుజ్జీవ@@
చున్నారు
పెయింటింగ్@@
డబ్బే
ుకున్న
సమిష్టి
భవము
చార
ఫాలోవర్స్
మూటగట్టు@@
చాడు
తర్పణ@@
సోల్@@
కాంత్@@
రాలి
పురావస్తు
తెలిపి
తెరిచి@@
విజ్@@
దుర్గం
రాజపుత్ర@@
ఒబామా
పీఠం@@
పెట్ట
తత్త్వము
పంచుకున్న
ఎక్కే@@
నరీ
రెమ్మ@@
దొడ్డ@@
గుర్తింప@@
షేధ@@
టోకెన్@@
కుర్రా@@
కిల్
హంస
బాండ్@@
పత్రాలు@@
సోపాన@@
చాణక్య@@
కాల్వ
ఔషధం@@
సమర్థత@@
గర్భవతి@@
కరువ@@
రైజర్స్
స్కామ్@@
పోషిస్తున్న
జోహార్
గదుల
బాణము@@
కార్గో
మనుజ@@
గార్డ్@@
దేశమంతట@@
ఎరుక@@
వదిలారు@@
అర్బన్ః
కార్తీ
నలంక@@
ఉప్పెన
కాంతుల@@
చేసుకోవాలన్న@@
ముక్త
స్టేజ్@@
అధిగమ@@
నక్సలైట్@@
సైన్సెస్
వర్ధన్@@
పడుతుంటే
బాష@@
సింహా
జూమ్
గొడవల@@
ఆతిథ్య
తామర
సొమ్మ@@
జేశారు@@
నెటిజన్ల
వేటు@@
తీసుకొచ్చే
పటిష్ట
మేనమామ
బయటపడే@@
కొచ్చిన@@
ల్స్@@
నటించబోతున్న@@
మానుష@@
వరము
రాజస్తాన్
పట్ట
జార్ఖండ్@@
తలిదండ్రు@@
ఫౌండేషన్@@
ప్రాణాంతక@@
భాగముల@@
వెన్నుపోటు
పూరు
రొమ్ము@@
కొత్తిమీర
ంటుందా@@
చలం@@
షూ
కట్టుకున్న@@
సుకుమార@@
ఉక్త@@
సెలబ్రేట్
అడ్రస్@@
వనవాస@@
జమ్మ@@
రోబో
సరస్వతీ@@
నెఱింగి@@
మనవడు
అబద్దాల@@
బెంజ్
వికారము@@
హృద్య@@
దీపము@@
చెరుకు
బాయ@@
పురు
శ్రీలీల
పాడే@@
ఏకాంతం@@
మలి
వేల్
నెలరోజుల@@
సుధ@@
ఏంటీ
సురేఖ@@
కోల్పోవడం@@
అవుతు@@
అధ్యాయము@@
వివరము@@
కామ్రేడ్
గెలిపించు@@
డిప్@@
వయ
రాబట్టు@@
యుగ్@@
నాధు@@
సింగరేణి@@
బస్టర్@@
బలై@@
తలదాచు@@
క్షా
హ్రీ@@
ఆదినారాయణ@@
శయము@@
నవసర@@
సిపి
ఆడియన్స్@@
్షేప@@
కెంత
మిస్టరీ
ైజేషన్@@
శివకుమార్@@
వెదుక్@@
మృత్యు
చేయూత
పాలిటిక్స్
కాళ్లు@@
శారద
ఎస్టి@@
ఎండగట్ట@@
సోమ
లాడిన
ద్దర@@
వాళ్లే@@
భూషణ్@@
నిందు@@
మించు
కేంద్రీక@@
కాల్షియం@@
తాయనే
బర్న్
చిందు@@
షీల్డ్
అంగన్వాడీ@@
వ్రాయబడి@@
ప్రోత్సహించి@@
శిక్షా@@
టెట్@@
దేశ్
నీయం@@
కార్యరూప@@
లగడపాటి
చున్@@
జన్మించిన@@
కెర్@@
వస్త్రం
అబ్దుల్లా@@
సమీక్షి@@
పూర్తిచేసి
అత్యుత్తమ@@
వేదముల@@
వంటూ
మనుషులు@@
వాడుక
వైఫల్య@@
మానిటర్
నకుఁ@@
తీసుకెళ@@
స్తూనే@@
వేటి@@
ప్రతిష్ఠ
చ్ఛిన్న@@
ఫ్లిప్కార్ట్@@
హామీల
పండించే
నవీకరించ@@
న్యా
భూపతి@@
పాలమూరు@@
డమూ
సెలబ్రిటీ
అగస్త్య@@
జ్ఞాని
చేశారనే
యాంకరమ్మ@@
రణరంగ@@
అవయవ@@
మిల్లీమీటర్@@
ఇరికిం@@
సురేంద్ర@@
సమ్మా@@
సెంటి@@
బెట్టుకొని
చవిచూసి@@
య్యేలా
చిత్తము
నిఘంటువు@@
శతకాల@@
ఆర్ఎస్@@
విభాగాలు@@
వనరు@@
హిల్@@
ఫార్మసీ
దండీ@@
శాంపిల్@@
చిగురు@@
ఆగమ@@
ఇక్క@@
సైంటిస్టుల@@
వడ్ల@@
మమ్ము
రోధ@@
తధా@@
కాదంట@@
అనంతర
కప్పబడి
బాధపడి@@
దానివలన
రుజువు@@
ఏకా@@
పులివెందుల@@
టోటల్
కురవ@@
విరామం@@
చల్లి@@
సత్యసాయి
జోగి
౮
సమాఖ్య@@
మాదిగ
యితే@@
గ్లూకోజ్
వృథా@@
ప్రాణాయామ@@
మర్త్య@@
తీగల@@
సామ్రాట్
సంపుటి@@
మేమిటి@@
సదుపాయాన్ని
రూపా
ఆవిరి@@
ధం@@
మేట్
భాగమే@@
సంధ్య
షాపుల
నిష్ఠ
గోడు
కొద్దిసేపటి
ఆరంభించి@@
దీర@@
రేవ@@
సెల్ఫోన్
జానపద@@
అడ్డగ@@
చరణము@@
పగుళ్లు
రూపొందుతోన్న
సర్జికల్
మంత్రిత్వశాఖ
యోగుల@@
ప్రావిన్స్@@
బెర్రీ
వేశ
వార్డుల@@
అమె@@
వైచి
వాక్కు
నచ్చజెప్ప@@
పోట్ల@@
కొన్నాళ్ల
ఎట్లా@@
ఆగడాల@@
విజయలక్ష్మి@@
ప్రాణాంతక
ఉష@@
చారము@@
చేసుకుంది
వర్తించే
నీరస@@
చల్లబర@@
దనే@@
ప్రవర్త@@
దిగుబడుల@@
పూర్వము@@
సుద్ద@@
కరుగు@@
క్లోజ్@@
దర్నీ
అందుతున్న@@
ట్రెండింగ్
ఏలి@@
సేసి
పైనా@@
కాన్వాయ్
కెప్టెన్సీ@@
సెన్స్
శకం
సిల్
కాలమే
జీత్
వాక్యాల@@
వచ్చనే
దశకం@@
కిశోర్@@
జిక్క@@
కట
ఉప్పెన@@
అంజ@@
గలవు
పోలీస్స్టేషన్
విశ్రాంత
స్పానిష్
దేహం@@
ఓఎస్@@
ఆకర్షించే
కాళ్ళ
జలము
యండి
భద్ర
బీబీసీ@@
హేమ
తెలిపే@@
ఏబీ
చేస్తుండటం@@
కనుమ@@
ఖాళీల
పొరల@@
జేతు@@
ఉమ్మడి@@
ఎంప్లాయి@@
సౌందర@@
వారియర్
దార్ల@@
మార్గాలు@@
మాధవి@@
నేతలంతా
పైకప్పు@@
శాపం@@
సమూల@@
తస్మా@@
ఆరుగురి@@
ఉత్తమ్@@
లిఖిత
దెచ్చి@@
ట్రావెల్@@
పల్కు@@
లేకున్న
తదితరులు@@
దింపి@@
ముసాయిదా
దూరంగా@@
వణుకు@@
ఏడాదిన్నర
ఆపాదించ@@
లహరి
గౌతం
జింక్
ప్రజెంట్
ఠాగూర్
ఫక్@@
సోనూసూద్
యాంధ్ర@@
మీనన్@@
నరాదు@@
వద్దా
టార్క్@@
బోర@@
మహాబల@@
౧౭@@
పద్మావతి@@
వేగవంతం@@
గజాల
కనిపెట్టి@@
కన్నె@@
వీటన్నిటి@@
ుడిగా@@
అందివ్వ@@
త్సవ@@
మహల్
ఇమా@@
మనఁగా
నర్స్
భయభ్రాంతు@@
జీపీ@@
ఇషా@@
దిగే
కృష్ణయ్య@@
సంకల్పము@@
పౌరులు@@
వాసులు@@
వృష్టి@@
జనిత@@
నీశ్వరు@@
స్థానాలు@@
అత్యంత@@
వార్తా@@
షిక్@@
అనివార్య
స్థూప@@
నంతటి@@
అచట@@
నవ్వే@@
కలం@@
వ్యర్థ
నీవే@@
విచారము@@
క్రౌ@@
ట్లని@@
రాధన
వస్తుందన్న@@
స్టోక్స్
వధూవరుల@@
లేవనెత్తి@@
కోవలసిన
డెడి@@
విధించడం@@
వెట్టి@@
అతిధి@@
తండా
సాధ్య
గానో@@
చూపే@@
అగ్రనేత@@
ూర@@
మురుగదాస్
గారణ@@
చార్జీ
సాంస్కృతిక@@
ఉపకరణ@@
రియో@@
ప్రతీతి@@
మోట@@
మొహమ్మద్
నైజాం
వ్యతి@@
సుంకర
మెట్టి@@
దేవుళ్ల@@
దారుడు
నంబరు
షాహిద్
జాబితాలో@@
ఆకర్షిస్తోన్నమెరైన్
వారీ@@
గతుల@@
మెహర్
శక్తిని@@
ఇన్స్టా
టంచు@@
వృత్తుల
మెగ్నీషియం
సృజన@@
పాపాల@@
చీరల@@
దేశభక్తి@@
యూఏఈ
విల్లు@@
ఓనర్@@
బిడ్@@
వేదం@@
నామినేటెడ్
అభిజిత్
కొణిదెల
హజర@@
దినుసుల@@
ఎస్టేట్@@
నోటు@@
బూన@@
ట్రామ్
మఖ@@
ఛాంపియన్షిప్@@
ఠి@@
చాలాకాలం@@
పరిషత్తు
జోష్@@
విభూతి@@
చరా@@
పడటానికి
సత్వర
రాయల@@
గార్డెన్@@
ఒలి@@
రోడ్డెక్క@@
యోగ్యమైన
పెరట్లో@@
సింగిల్@@
హోల్
నవ్@@
డయల్
క్తము@@
సాంగత్య@@
హడావిడి@@
ుతారు@@
దొడ్డి@@
రథం@@
పకార@@
కోతి@@
ధ్యాయ
ఇరుకై@@
జేయుట
ఎన్సి@@
ఇన్నేళ్ల@@
దుఃఖి@@
డెయిరీ
మెచ్చి
ముర్ము
తుర్క@@
గుండ్ల@@
షర్ట్
గలవారు
ాపి
శకట@@
తెస్తున్న@@
ముస్తాబ@@
లందఱు
టట్లు@@
పీత@@
స్టాండింగ్
ాధీన@@
సంభ్రమ@@
ఫినిష్
బిన్@@
చూపుతూ
సర్వర్
తగినట్లు@@
నిల్చి@@
ఖగోళ
దాదా
దాదా@@
హైపో@@
స్తంభించి@@
తాప్సీ
స్క్రిప్ట్@@
గుప్త
యాసంగి@@
శ్మశాన@@
గుమిగూడ@@
ఇంగ్లీష్@@
వేగి@@
యతీ@@
ఎలక్ట్రో@@
బోరిస్
ధనుస్సు
శము
తెలుసని
మధ@@
ముందర
చేయబడిన@@
ఉమెన్@@
వివరించిన@@
గవ@@
దిద్దుబాటు
సంహ@@
అవరోధ@@
ఎంపీల
తీర్చే
గొడ్డలి@@
వయ్య
ఫిరాయింపు@@
పెక్@@
టోన్@@
ళం
సుమన్@@
ధాటిగా
ఏకత్వ@@
ప్రదీప్@@
క్రెడిట్@@
గ్రాంట్@@
రాగము
తేలడం@@
కేఫ్@@
గణన
పేక్ష
అనియు@@
వచ్చె
తప్పక@@
అంపైర్
జాము
నెంచి
వీక్షకుల@@
కనిష్ట
ెద
చానల్@@
అంతు
దీనిని@@
దిగ
అంపైర్@@
నోడల్
అలవాట@@
మక్@@
అలజడి
జూడఁ@@
పేరొ@@
కాగితం@@
ఇంచు@@
పరాజయ@@
సోషలిస్టు
ఎంఎం@@
నమ్మకము@@
అట్టహాసంగా
పుజారా
విద్యార్ధి@@
రేగ@@
రాలే@@
హయాంలో@@
ఫ్రీక్వెన్సీ
వ్యర్ధ@@
విచారం@@
బోర్ల@@
ానంతర
తపస్@@
పదవీకాలం
మాచ@@
రోజ్@@
రాగం@@
ఆఖరు@@
ఘట్టాల@@
హెచ్చుతగ్గు@@
ఎడిషన్@@
సిఫారసు@@
కణ్ణ@@
పురుషోత్త@@
జీహెచ్ఎంసీ@@
పెట్@@
టిమ్
పెద్ది
కోరడం
భీ
అలాంటిదే@@
ముద్రిత@@
గురయ్యే
జేసే
పిలువబడు@@
ొద్దని@@
పట్టె@@
నివాసము@@
సూచీ
పందుల@@
ఇఫ్@@
చారిత్రక@@
ఏకాగ్రత@@
బెదిరిస్తున్న@@
ప్రభుత్వాసుపత్రి@@
వెల్లం@@
ోడు@@
నాయన
పీజీ@@
శాఖల@@
ఇన్ని@@
జగము@@
ఖాతాల
సాన@@
విముక్తి@@
లీవ్
ఫ్లోర్@@
సాగించిన
బలగం
శై
అడ్మినిస్ట్రేషన్
జానారెడ్డి
ద్విపద@@
ితా
సుమిత్ర@@
అంకిత
దార
నున్నది
ాయంటే
ాదిత్య
ఉపకార@@
జీవక్రియ@@
మలేరియా
పెండ్@@
కోరు
ఓటిటి
చూపించిన@@
నడిరోడ్డు@@
కలుగుచున్న@@
రామన్
తదను@@
బంధుమిత్రు@@
సెటి@@
డిప్రెషన్
దిగడం@@
ుణ్ణి@@
గలవారు@@
హెచ్చి@@
పాడుతూ
నీరసం@@
యజ్ఞం@@
పట్టుబడ్డ@@
డైట్@@
కొద్దిమంది
రాజేశ్వరి
లేదంట@@
హరణము@@
పాట్
పశ్చా@@
పుట్ట
జల్లు
పిట్
పీటర్స్బర్గ్
యాక్ట్@@
బుట్టు@@
ఎన్నుకో@@
పొత్త@@
బ్రతుక@@
గంత@@
అండదండ@@
విషయానికొస్తే
భార్యాభర్తల
రావాలన్న@@
మహాభారత
పురానికి
నూహ@@
బాటలో@@
నాఁటి
నరసింహారావు@@
నాక
మినహా@@
ఎగ్జామ్
డంత@@
మజా@@
వర్స్@@
పచ@@
విధించడం
గ్యారెంటీ
ణ్ణు@@
వైశాల్య@@
బడతారు@@
ఏర్పడ్డ
ేసి@@
హిల్
సమర్థించు@@
వర్ధన్
వీళ్ళ
అతనే
హైస్కూల్
కన్వర్@@
ఎస్వీ@@
వచ్చుట
ోద్యమ
ఫర్డ్
కేటాయిస్తున్న@@
పూర్తయ్యి@@
కమిషనరేట్
నారి@@
పాంచ@@
పర్యటిస్తున్న@@
దెంచి
సాము@@
యాతఁ@@
పాఠము@@
మిల్లి
స్టేడియ@@
చందు@@
ఏవేవో
మొత్తము
ంజ
ఆరేళ్ల@@
ఉదహరి@@
రాజగోపాల్@@
కారిడార్
యాదగిరి
పొటాషియం@@
వృధా@@
పత్ర
మింగ@@
విష్ణ@@
గింజ
విమోచన
శ్రీనగర్@@
ఆధిక్యం
నీవె@@
రమున
సాధికారత
స్రావ@@
కిందటే
డయిన@@
నీల్@@
బలుక@@
ముగిసిన@@
ప్రథ@@
సహితము@@
మహానాడు
ానికై
మస్ట్@@
యానా@@
పొట్టి@@
అంతకంతకూ
చేరుకోవడం@@
తిరగడం
సమావేశంలో@@
నిఘా@@
బడుతూ
కోగా
పంజా
గున
సంధ్యా
రంబు
గంగి@@
వెంకటరమణ
రొం@@
పీఏ@@
నాగేంద్ర@@
శరణు
పోవచ్చు
ోచ్చ@@
సిఎం@@
భండ@@
హన్సిక
బస్టాండ్@@
పాటించి
హైపర్@@
ఎస్ఆర్
దేమి@@
సమర
అడగడం
ప్రాప@@
స్తుల
జేఈఈ
హైస్కూల్@@
సహజమే@@
రెచ్చగొడు@@
ాడి
ఆస్తులు@@
విఫలమైన
దిరుగు@@
బలహీనత
ఆస@@
మృత్@@
వికేంద్రీకరణ
ఆన్సర్
పోతన@@
అనుభూతుల@@
మెఱుఁ@@
ఆలయాల
పట్టాభి
వెళ్లిన@@
కంపి@@
తరము
వచ్చినప్పటి
వాంగ్@@
కూర్చున్నా@@
భీష్ట@@
కేతు@@
డెల్
శామ్@@
ఫిల@@
వాసము@@
ఫౌం@@
తద్వ@@
తలసరి
థీ
యల్ల@@
క్లస్టర్@@
కండ్ల
ృత్య@@
కొంటున్న
అగ్రహార@@
డిసెంబరు@@
సింగిల్స్
అరెస్టయి@@
కెవ్వరు@@
యశోద@@
బీరు
కవితల@@
డాగ్@@
తుడవ@@
చిట్టి
వంగి@@
మోహన
తెప్పించి@@
పోతుంటే
పుదీనా
బాటిళ్ల@@
జంగమ@@
శిల్పి
మరల్చ@@
నారీ@@
లేచిన
ఎగ్జామ్@@
క్యారెట్ల
రకము@@
ఆచరణాత్మక@@
శంభు@@
౧౩@@
వెదురు
తాన్
ఆరబెట్ట@@
ఆడా@@
సైకిళ్ల@@
తన్న@@
చిరాకు
వేస్తే@@
స్వాతంత్ర@@
బొప్ప@@
పతాక
భరత
అవతరణ
విభావ@@
ఋషులు
శరణు@@
పడకూడద@@
యాదృచ్ఛిక@@
వచ్చో
పుత్రా@@
జమ్ము
అందక
జనంబు@@
కరవు
అమావాస్య
ఖలి@@
డెడ్@@
లింగు@@
వేప
సుదర్శన@@
సంఘ్
విధం@@
జయలలిత@@
ఆయనే@@
బాధి@@
ఫీవర్
పుట్టుకొ@@
అధ్యాయం
దుబ్బాక@@
పతుల@@
పాటుపడ@@
ఛాన్స్@@
కాలక్రమేణా
గంధం
రాజైన
డైరీ
తృష్ణ@@
సెలబ్రెటీ@@
పోగొట్టుకున్న@@
ందుకే@@
రోజైన
వదు@@
పిలిపించు@@
టిక్స్@@
బిరుదు
యూఏఈ@@
లీటరు@@
మానం@@
పూజారుల@@
పరుల
పదోన్నతుల@@
సచిన్@@
ఇన్వెస్టిగేషన్
భగవన్@@
వృత్తాంతము
మార్గంలో@@
పరిచయమై@@
యంత్రం@@
గర్భిణీ@@
దీపిక@@
యుక్తి
తామ్@@
ఎటూ
హారిక@@
యమ్మ
భావించే@@
సిద్ది
ఆశిష్
వృశ్చిక@@
వేసుకునే
మస్
అంతరంగ@@
శ్వాసకోశ
డిన్నర్
ోపాసన@@
వటం
అందమైన@@
భారము
బుగ
లేవన్న@@
హక్@@
కృప
ఫారిన్
నైతిక@@
యాడ్@@
మేష
ఆంధ్రజ్యోతి
నిఖిల@@
దుష్యంత@@
యోధుడు
స్వీప్
ఆమోదం@@
పరిషత్తు@@
అసౌకర్యం@@
వదలు@@
భవిత@@
నఁగ
బరి
పట్టభద్రుల
గ్లై@@
అస్తవ్యస్త@@
చాంద్@@
బిక్@@
సెల్వం
రమ్యకృష్ణ
గానము
మవుతాయని
రాహిత్య@@
ప్రబంధ
వెంకట్రావు
బాలుర
ట్రాక్షన్
గావించె@@
వేణుగోపాల్@@
స్పోర్ట్స్@@
యేమో
వాసం
ఓంకార@@
త్పత్తి@@
చేసుకొన్న
పరత్వ@@
మ్యానేజ్
పేరా@@
మంటారు@@
బండ్
బ్రహ్మాస్త్ర@@
పడేసి@@
పాల్పడి
తస్మి@@
మోజు@@
ఖీ
ఆకాంక్ష
వరల్డ్కప్
మహమ్మ@@
శ్రేయస్
కారుల
వైకల్యం
ఫ్రెంచి
శోచనీయ@@
ప్రవాస
వాడని@@
పాతబస్తీ@@
బ్యాట్స్మన్
కష్ణ@@
ప్రతిభా
టాక్సీ@@
సంజయ@@
మాయమై@@
గాఁగ
నాలుగో@@
పియా@@
సిహెచ్
ఆకాశవాణి
నిర్వర్త@@
భట్టు@@
కున్నది
రిఫ్రిజిరేటర్
శవం
పాట్నా@@
దుల్కర్
డీఓ
బ్రేకు@@
వాడైన
రామానాయుడు
వాలంటీర్
పంపా@@
ఉన్మాద@@
శశాంక@@
లిఫ్ట్@@
స్థలము
హయ@@
ితం@@
మందిర
లేడని
చక్కఁ@@
అధీనం@@
్ర
బుల్లి
పాయ
బలవ@@
చ్చింది
కేడర్
ఎందరి@@
ఈషా
ఘట్టం
ఐడెంటి@@
సున్నితత్వం
పదవీ@@
ఇదం
ఎమోషన్
వారణాసి
సెక్సీ
ింతును@@
అపాయ@@
పొన్ని@@
దేవేందర్
బొంబాయి@@
టెస్టుల@@
ంచుటకు@@
అయ్యా
బాజ్
నడువ@@
మేధా@@
జొన్న
విబేధాల@@
చిన్నతనం
ఫ్రాం@@
నెట్ఫ్లిక్స్
చెలువ@@
యెల్ల
ప్లాస్మా
సంపాదిస్తున్న@@
ఆధారం@@
వంతుడు
సారస్వత
భు
నడి
వేదాల@@
ఆకాశ
వర్ధంతి
గీతి@@
స్పీచ్
ఆర్బీఐ@@
ఐసోలేషన్@@
తుద@@
సీఏ@@
ండ్ర
కర్షణ@@
సోదరుడి@@
డిగి
ఫ్యామిలి
దొడ్డి
టన్నుల@@
వసుధ@@
ప్పుడే@@
సమీకృత
నందము@@
బోతు@@
సాయంత్రం@@
యెక్కువ@@
ర్స్@@
మొనర్చి
రంగారావు
ఐసీయూ@@
అరగంట@@
రంప@@
లవ
మీటరు
వుండటం
ఎంబీ
గాథ
సవిత@@
సప్@@
ఎంఐ
కండక్టర్
మీకే
కొట్టుమిట్టాడు@@
పట్నాయక్
ఆనంది@@
జౌ@@
పిటిషనర్@@
చిన్నా
మల్లన్న@@
తెచ్చిన@@
సభలు@@
కష్టమే
స్కేల్
ఈయ@@
షం
పిచికారీ
మిక
ఫెడ్
నెంబరు
వాచి@@
సంప్రదాయము@@
త్తె
నేతాజీ
ఇద@@
అత్తారింటికి
భృతి
విరగ@@
తిర@@
వికట@@
చూపిస్తున్న
పెట్టుకుని@@
ఆయుధ
రుండు
ట్యాంకర్@@
కాస@@
బడుట
న్నాయని@@
టెండర్ల@@
పరచడం@@
ఆనవాళ్ల@@
ండ్లు@@
సిద్ధూ
ఎల్బీ
మాళవిక
ాల్సిన@@
వేలాడ@@
లందఱు@@
విద్యాలయాల@@
అసోసియేట్
భయంతో@@
అపార
జెర్సీ
తంటా@@
అంబా@@
చూస్తుండగా@@
దుల్@@
ఉంటె
కమలా
సమగ్రత@@
లేపు@@
నెఱు@@
రానున్న@@
ుండై@@
మొదలయ్యి@@
పరుచూరి
ఇట
అవంతి
అనుచు
ఎద
దెచ్చు@@
ఇబ్బందుల
గావున@@
నియమించి
లభించే@@
ద్రా
యనీ@@
చై
ఐఎస్
ముచ్చట
ఉద్యాన
తాళి@@
గాయపడ్డ
నమ్రత
నూర@@
అసహనం@@
వశమున
గన
డీజీ@@
డిగ్రీల@@
అడవుల
తేజస్వి@@
వదంతు@@
అగ్న@@
జంగ@@
పోవడమే@@
యనె@@
ఎంజీ@@
ప్రేమికుల
శ్యామల
ప్పె@@
ఒదిగి@@
బజ్@@
బడుగు
కపు
తీర్థం@@
జీవులు@@
రాకేశ్
ఆలీ
మొక్కజొన్న@@
కరీనా
వనరులు@@
గల్గిన
భక్తా@@
సంకలన@@
ఖం
మితిమీరిన
తయో@@
దోసకాయ@@
డ్రోన్@@
వీలైతే
నిరంకుశ
బెరు@@
వారితో@@
వాణీ
ఆర్భాట@@
ట్రస్
దృగ్విషయం
మధుసూదన@@
యశ్
ద్రవా@@
కలిపే
అధి
తహసీల్దార్@@
తారతమ్య@@
గానం@@
రోగము
అనుసరిస్తున్న@@
ముద్రించి@@
వంటగది@@
స్మార్ట్@@
ఫ్లై@@
ఆర్జేడీ
లెండి@@
తామస@@
ితే@@
విఫలమవు@@
క్లిక్@@
హత
సారైనా
ీర్ణ@@
గాయత్రీ
మహానటి@@
ఇచ్ఛా@@
అమర
నాస్తిక@@
యాశ@@
యువతీ
ద్రౌప@@
కుప్పకూల@@
చేసిందే@@
కండర@@
స్పైడర్
భీమవరం@@
రూల్స్@@
థ్
అమ్మమ్మ@@
ముప్పై
దళారుల@@
యాదవ
సమయమున@@
రూపొందిస్తున్న
ఎగుమతి@@
చేనేత@@
నీకే@@
ప్రొజెక్@@
విభజ@@
గుర్రాల@@
లార్డ్@@
బ్రిటిషు
నన్నాడు@@
వదిన
సనం
పోలవరం@@
పరిస్ధితి
సొంపు@@
డవ
కోసు@@
గుహ
సంచరించు@@
గల్గిన@@
దేదో
స్థలి@@
త్రాగి@@
వేత్తలు@@
యల
కస్తూరి
విల్లు
మార్టం
వలయాల@@
వీలవు@@
ఏంటీ@@
బెట్టారు@@
కేటగిరీ
సాహస
ప్రాప్@@
ప్రతిప@@
నింక
నిచ్చిన@@
వెంటిలేటర్@@
ప్రాచ్య@@
క్యాబేజీ
పేయి
సడలింపు
సనము@@
రచించె@@
సౌకర్యాల
నివసించు@@
కారుణ్య
పల్స్
పంచక@@
బ్రాండ్ల@@
ఉత్తరాది
లాజిక్
రక్తము@@
జ్జ్వల@@
అగ్రనేత
పటు@@
నిర్వా@@
మాదిగ@@
అటాచ్
ానుసారం
తిరస్కరి@@
ఉపసంహరణ@@
కొలువు
కలవా@@
ప్రోగ్రాం@@
శాంతియుత
ఏబీ@@
ప్త
వార్తాపత్రిక@@
బూత్@@
నాగశౌర్య
సెట్ల@@
కిచెన్
విరుద్ధ
టోపీ
సీసా
బీర@@
చూడగల@@
గ్రాఫిక్
వెజి@@
సెమీస్@@
సందేహము
సెకండ్@@
ఆస్థాన@@
నిర్మూలన
పటము@@
సర్వో@@
తామని@@
పాండి@@
బీసీల
శుభప్రద@@
మార్కెటింగ్@@
దయా
దేవే@@
బ్రౌజర్@@
కనబర@@
ంటుందని@@
పుణె@@
సుప్రసిద్ధ@@
ఉద్రేక@@
వుంటాడు@@
స్లిప్@@
ట్లైతే
బెనిఫిట్
తక్కువే
హుజూరాబాద్@@
వక్రీకరించ@@
కడగడం
బయల్దేరి@@
హోమం
హావభావ@@
బ్రౌజర్
కాయలు@@
డ్యామేజ్
త్తా
కాట్
ర్ధము
శ్లోక
వద
మానేసి
ాలయం@@
శ్రేయో@@
హారీ
శారీరక@@
ఫిలిప్@@
కనెక్ట్@@
వడ
ళు
బిర్యానీ@@
బాలకు@@
యేది@@
యవ
తుడుచు@@
ఛందస్సు@@
తాల్@@
ఏడుపు
ోప
తక్క@@
సామి
దిగులు@@
సులభ
రాక్ష@@
మ్యాక్స్
సంగం
అరవింద@@
పనికొ@@
నవ్య
ంపదు@@
భగవంత్
దాక్@@
సంగి@@
ఎన్నారై
బెంగాలీ
టెడ్@@
ఐసీసీ@@
ఛత్తీస్గఢ్
సంఘటిత
ఆర్బీ@@
విత
థింగ్
కొడితే
అంగీకరించిన
ఫేజ్
పాసి@@
పఞ్చ@@
గును
రోహిణి
రంగ్
చలనచిత్ర
వెనుకబడి
నటుడి@@
సమ్మేళనం@@
వర్కర్ల@@
ఆగ్నేయ
కొనక
పోలే@@
బెటర్@@
డేమో@@
హెచ్వో
నరేందర్
నీరంద@@
వెనుదిరిగాడు@@
నగరి@@
కౌన్సిలింగ్
దున్న
ర్షి
బాగ@@
మెట్ట
దండయాత్ర@@
ఛార్జ్@@
పరమపద@@
అభివృద్ది@@
రాద@@
సెలబ్రేషన్@@
లాభ
బిస్@@
ఉధృతం@@
నెల్
ంచాం@@
దినపత్రిక@@
మంతుడు
సంతత@@
కాగ్@@
బాక్సాఫీసు
ెప్పుడో
మసి@@
విగ్రహాల
సంస్క@@
క్షయ
కొలఁది
యూర్@@
నిరుద్యోగుల
అరవ@@
నడ్డా@@
లిక
సైంధవ@@
ఇం
ఫీట్@@
స్కీం
పురుషుడు@@
అవధాన@@
చివరిసారి@@
నిలబెడ@@
గురూ
బికినీ@@
రోహణ@@
పచ్చదనం
క్రాష్
రేటర్
గడియారం
ప్రతిపాదిత
పొడుగు@@
హరించి
నల్లా@@
పాలవు@@
వన్య@@
విశేషము
ఖలు
అంబాసిడర్@@
సాల్వ@@
శాసనం@@
ఆధీనంలో
యక్షగాన@@
డౌట్
పొడిచి@@
తయారుచేసి
హుజూర్
కీళ్ల
రంగురంగుల
నేర్చుకున్న
దిగడం
ధము
శుభకార్యాల@@
వేణుగోపాల@@
వాలనుకునే
స్ట్రిక్ట్
తారక్@@
లీకేజీ@@
వీర్రాజు@@
అర్థమయ్యే@@
ప్రయాణిస్తున్న@@
జన్య
పెక్ట్
ప్రక్కల
ఎయిర్పోర్ట్
టక్@@
గజపతి
క్వార్టర్స్@@
వెలయు@@
పరుస్తూ
వివాహాల@@
ముహమ్మద్
దభి@@
ంచడానికి@@
పెట్రో
ద్యం@@
తేలికైన
కేక్@@
జీడి@@
దురాచార@@
ిష్ట@@
యిల్లు
అరచేతి@@
బెడ@@
పుట్@@
కోశాధికారి
ష్య
గుర్తుకొ@@
గ్యా
తరచు
భవేత్
ప్రయోగశాల@@
శారదా@@
విశాల్@@
ఆకర్ష@@
మాయావతి
రామోజీ@@
పణం@@
సిప్
అమ్మకం@@
జీవాత్మ@@
సాదర@@
ధన్యవాద@@
శబ్దమునకు
డైయ
కుండుట
మొత్తము@@
భం
సేవించు@@
భీష్మ
యార్డ్
చందమామ@@
మొదలయ్యే
చేసు
మన్యం
నప్పు
నభ@@
తథ్య@@
యాంటీఆక్సిడెంట్@@
పడిపోవడం@@
టెర్మినల్
బిందువు
రంత@@
వారసత్వం
తతి@@
వర్ణము
అదృష్ట
క్వచి@@
గీతాల@@
ఇండోనేషియా@@
బహూక@@
చానల్
లీకై@@
డిక్
ఫైల్స్
వెరిఫికేషన్
యిర్
సెకెం@@
వ్యాసాల@@
ప్రింటింగ్
కలపడం
వయా@@
ఉంటుందో@@
మేట్స్
కన్నేసి@@
వాఁడ
ంపక@@
నోడి@@
మూర్తులు
రావాలని@@
కడిగే@@
ఇవ్@@
ానంతర@@
బయ్యర్@@
మిథున@@
తన్
కోలీవుడ్@@
దుర్బల@@
సూర్యుడి
నక్కరలేదు@@
ఆధీనంలో@@
ఏడ్చి@@
రేస్@@
కిడ్నాప్@@
చవలెను@@
బిశ్వ@@
బైబిల్
పేసర్@@
ఐపీవో@@
కేప్
యింట@@
గింపు@@
ఏసు@@
పార్వతీపురం
హిప్@@
శతకం@@
దులుపు@@
హనుమకొండ
కమ్యూనికేట్
అన్వేషణ@@
తెల్పు@@
అరేబియా@@
మలచ@@
క్త్వా
కారణాలే@@
మచిలీపట్నం
ములుగు@@
సోమరి@@
బగ్@@
అణగ@@
గోచరించు@@
వెరైటీ
దూత
సహాయక@@
నవాబు@@
అబ్బుర@@
ప్రభవ@@
ఇచ్చేసి@@
బెదర@@
సునామీ
బహుజన
ఊరేగింపు
త్రము
కరు
నృత్త@@
స్మగ్లర్@@
నరస@@
అగ్నిహో@@
గాయని
చలించి@@
చాకచక్యం@@
యాంగ్@@
త్యాగరాజ@@
శిరీష
అంతస్తు
౧౬@@
సహి@@
బ్రహ్మం@@
మూయ@@
నేరస్థుల@@
దల్చు@@
లనియు
కీచక@@
దోమల
స్థానమున
గోర్
విచక్షణ
ఊ
శ్రీమన్నారాయణ@@
సంకట@@
సిండ్రోమ్
పంజ@@
రేటెడ్
ఓటింగ్@@
పుష్కరాల@@
రాథోడ్@@
జాలరు@@
ఉత్సవం
మైత్రి@@
మల్లె
ఆంక్షల
స్వాభావిక@@
పదహారు
క్షిపణుల@@
గుడివాడ@@
ఎవరెవరి@@
మగును
కేకేఆర్
నిజాల@@
మూడి
వలి
గవాస్కర్
కారులు@@
ందన్నారు
నదులు@@
ుకొని@@
సొంతింటి
డాక్యుమెంట్
ముఖ్యపాత్ర@@
అవకాశమి@@
దైవము@@
భారతము@@
అమో@@
పోశారు@@
ఘనవిజయం
రాష్@@
ట్రక్
సద్దు@@
దలంచి
గూడిన@@
తలకింద@@
కూరుకుపోయి@@
త్రం@@
ఐడి@@
రుద్రు@@
ఉత్పాదక
శీఘ్ర
బిగు@@
వెతికి
రెట్
రాడ్
జాత్@@
చైత్ర@@
టికిని
పిప్@@
హనీ@@
అప్పట్లో@@
బొత్తిగ@@
ఆర్ట్స్@@
అందుకోలేక@@
తోఁచు@@
అనేది@@
దృక్పధ@@
ఎలాంటి@@
జైన్@@
సుభద్ర@@
సామాగ్రి@@
పెద్దపల్లి@@
సైన@@
టీపీ@@
సాధిస్తున్న@@
మాజ్
కోనేరు
ీయుల@@
గ్రామపంచాయతీ@@
చానెల్@@
చండీ@@
ప్రహ@@
ఘృత@@
అమానుష@@
శర
ఏటి@@
బెద్ద@@
బస్తా@@
వేషన్
జిత్తు@@
మీది@@
జగన్నాథ్@@
ఇంటీరియర్
చంద్రుడి
డబ్
తెరమీద@@
బన్
దురుసు@@
పాండ@@
వాంఛ
సిమెంట్@@
ఏనుగుల
దోచుకున్న@@
హమ్
అంకారా@@
పిరికి@@
సంరక్షక@@
తప్పదు
పిల్లాడి@@
జెప్పఁ@@
మొదట్లో@@
సీడ్@@
కఱ@@
ఎంఎల్ఎ
ఉధృతం
ంటున్నాయి@@
నూరి@@
కొలను
గనుల@@
తరుణ్@@
రోశయ్య@@
లైగర్@@
ర్థము@@
ాంశం
సెహ్వాగ్
మాంసము@@
చిహ్నము@@
ఆశించిన@@
విషయమున@@
తొమ్మిదవ
వహ్ని@@
ఏట
ఆలోచనల
గ్రీకు@@
కథే@@
జాకెట్
వలెనని@@
ఇంద్ర
తరతరాల@@
పరేడ్
రావ్@@
పీఆర్
పీకే@@
ఉపమాన@@
అనువాద
విశ్వాసము
బ్బా
ట్టియు
ఋషుల@@
కటక@@
రాజేశ్వర్@@
జంత@@
హయా@@
సమీర@@
వాస్తవికత@@
రాజవంశ@@
ఖండిస్తున్నా@@
అల్లాడి@@
ఇహ
భాగవతము@@
తన్య@@
శానిటైజర్@@
రైతుబంధు@@
సంఖ్యా
ముగ్గురు@@
ఆయుధం
యాచార@@
డూపర్
గ్రాడ్యుయేట్@@
స్వీకార@@
ప్రోక్త@@
కొందురు@@
లైన్ల@@
చేస్తాడు
ఎనిమిదవ
మౌం@@
జడి@@
కోస్తా@@
ఆచార
అంజన@@
షై@@
పారామితులు
వీలర్
తండాల@@
వైఎస్@@
జమ్మూ@@
ఆజ్ఞ
ుడ
జయం@@
విధేయత@@
రణి@@
పఠాన్@@
తప్పిదాల@@
ఉత్త@@
టాక్సీ
స్క్వేర్
పుట్టుక
రముల
దెవరు@@
పుష్య@@
పోతోందని
నిర్వాణ
సంగ్రామ
భీకర
తారాగణం@@
పీరియడ్
మైళ్ల
పరోక్ష@@
సోదర
క్లియరెన్స్
గదు@@
పీయూష్
ఇబ్రహీం
రహానే
కొంద
స్టోరేజ్@@
సన్యాసి
విలువల
అంగుళాల@@
దైన్య@@
వాండ్ర@@
నిటారుగా
ఆకర్షించే@@
దీప్తి@@
యాప్స్@@
భగవంతుడి@@
జరిగె@@
దత్తాత్రేయ
మోడి
ఇటుక
నిర్మాణాల
కూరుకు@@
జీలకర్ర
శ్రుతుల@@
కళాకారుల
ఆవశ్యకత@@
మీయ@@
దక్కే@@
నటించా@@
బ్బా@@
కరాటే
ఙ్గ
ష్ఠి
ందర్@@
బర్గ్@@
అశ్లీల
కనబరిచి@@
పడేసి
దీక్షా
పౌడర్@@
ర్తు
ాడా
బొనరి@@
రామ్మోహన్@@
సంస్ధ
చేధించ@@
చాము@@
ోచిత@@
యెఱుఁగ@@
సబ్బు
సోషల్మీడియా@@
రేణ్య@@
చూసింది
వచనము
స్కాం
గంజ్
ఎడిట్
అమోఘ@@
మహాదేవ@@
భువ@@
పాదము
జఠ@@
అడవిలో@@
దశలవారీ@@
పాడే
నచ్చే
ఇంచార్జ్
కోడలు@@
తేజస్వి
రైజ్
మైన్@@
స్వర్గ
ఊపి@@
నరేందర్@@
కేన్సర్
యెల్@@
ఇమే@@
టిప్స్
ఉదయ్@@
అంబాసిడర్
లేఅవుట్@@
చెర్రీ@@
కాంక్రీటు
ఒక్కటి@@
నూక@@
స్క్రిప్టు
రాజ్పుత్
వనము
స్టంట్@@
సుధా
గంజి
చేయించే@@
అన్నిరకాల
పరబ్రహ్మ
రాళ్లు@@
ఫ
స్తుంటారు
ప్రతిఘటన
వోలె
ఆయకట్టు@@
భవానీ
యక్క@@
క్యాలెండర్@@
కోరే
దక@@
జ్వరాల@@
జేయుచు
అనూప్
విధమున@@
ఇదీ@@
గోవర్ధన్
వరల్డ్కప్@@
నాగిరెడ్డి@@
స్టిక్కర్@@
గరం
విప్పు@@
స్టాల్@@
గణన@@
మాచర్ల
తాల@@
వ్యవహరించి
హెరిటేజ్
రేవు
విశ్వనాధ@@
క్లయింట్@@
వెంకట్రావు@@
పోయారని@@
చయ@@
సంఖ్యాక@@
ఎర్రచందనం
బట్లర్
వినియోగించి@@
నచో@@
ఛాంబర్@@
అయస్కాంత
తలెత్తుతున్న@@
గిన్నిస్
షరతు
పలువురి
రష్యన్@@
ష్టా
వెట్@@
ఉండాల్సి
నకిలీ@@
సాంబశివరావు
ఉందో@@
ట్యూషన్
మేడ్చల్@@
పంబు@@
జాతులు@@
బతు@@
స్వాగతం@@
జ్యో@@
ాంశాలు
భాగవతము
నివ్వాలి@@
రొట్టె
ఆంతర@@
బ్రో
ఎన్సీపీ@@
చనిపోయే
ఒక్కరోజు
చంటి@@
అడ్వకేట్
ఆజ్య@@
థీమ్@@
గలది
చేత్@@
పరిస్ధితుల@@
ఉం@@
యాల్@@
స్పోర్టీ
సూక్ష్మజీవుల@@
మెంత
చందా
వ్యాకుల@@
అపురూప@@
యుధిష్ఠి@@
గమనం@@
వెంచర్
లాల
స్తం@@
ుల్@@
మిల్
పొయ్యి@@
యుటిఎఫ్
డిజైన్ల@@
ఊర్ధ్వ@@
దెయ్యా@@
పాక్ట్
ఛాతీ@@
బంకు@@
దానికీ
డ్రాయింగ్
ెవరైనా
లేకపోవటం@@
వర్షన్
నలభై
అభ్యున్నతి@@
కాలమందు
ఏమయి@@
ఎంగేజ్మెంట్
కిల్లర్@@
భారతం
ప్రసూతి
సర్పంచి
ఎస్బీఐ@@
అల్లరి@@
డెంద@@
ఓవెన్@@
నడపడం
స్లామ్
సీతమ్మ@@
ంచలేదని
భోగముల@@
కన్నే@@
నిర్ణయాల
చందు
యతు@@
జ్ఞప్తి@@
యవ్వనం@@
జమీం@@
నివ్వడం
కౌంట్@@
అప్పీ@@
వివర@@
టాకీ@@
ములాయం
అపజయ@@
నిష్ప@@
గ్రానైట్
ర్యాం@@
తురు
సమక్షంలో@@
సుదర్శన్@@
గూండా@@
భోగ్య@@
అదితి
టయోటా
పోరాడి@@
పోన్
హుతి
కాపలా
గంగూలీ@@
సన్నిహితుల
పిట్@@
ఆగిపోయిన
జీవనం@@
జోషి@@
ఎల్వీ
బిగించి
జోడించడం
వల్లే@@
ోక్తు@@
జస్ప్రీత్
ార్ధం@@
వేయించుకున్న@@
బాణముల@@
డాట్
సారధి
డైయ@@
సీజేఐ
డాక్యుమెంటరీ
తాయా
ధనుస్సు@@
సంతోషిస్తున్నా@@
ట్యాబ్@@
అతిథి@@
వస్త్రం@@
దండు
క్కర్
చేసుకోవాలి
ర్తన@@
టింగు@@
ఖర్జూర@@
మంజుల@@
తర్వ@@
సారంగ@@
ధనిక@@
సెక్రటేరియట్
అర్బన్@@
దుర్ఘటన@@
సీటీ@@
కైలా@@
ఆసక్@@
రిలేషన్@@
కప్పిపుచ్@@
లేన్@@
బూతు
సహితము
నార్మల్
సేతుపతి@@
కంచె@@
వెర్రి@@
ఫ్రూట్
ద్రొక్@@
ఫీలింగ్@@
పాయస@@
గుమ్మడికాయ
నిస్పృహ@@
పనీ
కొడుకుల
యిక్కడ@@
గొడ్డు
సగుణ@@
సంక్షిప్త
భోగి@@
అరియానా
అవతారం@@
ఏర్పరుచు@@
వివాహిత@@
విన్నవించు@@
కన్నీటి@@
గుండెల@@
బర్డ్
బలగాల
జీడీపీ
ట్రో
ఎన్ఎమ్
ఫొ@@
టిఆర్ఎస్@@
లాగ్@@
మపి@@
కండువా@@
మూఢ
థెరపీ@@
డ్యాం
ఔన్నత్@@
రింగు@@
బామ్మ@@
హతమార్చి@@
క్షీణత
ాపన@@
అనుభవము@@
వేళా@@
నుండో
కాళిదాసు
ణములు
డైరక్ట@@
సిలబస్
తెగల
స్పష్టంగా@@
మేధావి
పడం
అర్చి@@
ఎవరన్న@@
మక్కువ@@
నిదుర@@
రాజేశ్
భీతి
డియన్
పేడ@@
సమాజము@@
మూన్
చట్టవిరుద్ధ@@
శీర్ష@@
సహదేవ@@
రసాయనిక
వితంతువు@@
తుమ్మెద@@
నాయకుని@@
కుంటారా@@
కారుణ్య@@
బద్దం@@
కిల్లర్
ఉమెన్
ఇఁక
పనే
సీతారామ
డయాలసిస్
అందడం@@
హెచ్ఆర్@@
ృతి@@
్రయ@@
చూపడం@@
గర
జీవనోపాధి
పరపతి
కంచె
బుష్@@
జూబ్లీహిల్స్@@
ఆదుకున్న@@
పుట్టా@@
కాదంటూ
నిశ్చ@@
భవానీ@@
హర్ట్
జర్నలిస్టుల
ఆక్స్@@
పాండవుల
ఫ్లిప్
యెద@@
లూయిస్
ఉద్రిక్త@@
ఎడారి
ద్రావిడ
సమావేశమై@@
ర్యం
ఒరు@@
ప్రయుక్త@@
అంతస్థు@@
గణం@@
నేరస్తుల@@
మల్లు@@
ామి@@
ప్రతాపరుద్ర@@
రప్ప
ణ్య
కూడలి@@
బట్టల
భవం@@
స్పా
పిల్లవాడి@@
వెనకాడ@@
మరియొక@@
మదీయ@@
అట్లాంటి@@
సంజీవ్
లేపనం
బ్బ
సుదీప్
సమి@@
వీరసింహా@@
భవం
ర్నీ
రిలాక్స్
మూడి@@
యనుచు
కాంక్రీట్
లయ్య
ఓర్పు@@
దీన్ని@@
నంట@@
శతక@@
రక్తహీనత
వైఫల్యం@@
తగ్గుదల
అప్సర@@
పంచ్@@
స్టీఫెన్
గేట్ల@@
నయ
కూడుకున్న
మఠం
కుంభకర్ణ@@
స్మిక్
వయో
జేబు
పివి@@
వెళుతూ
యుడు@@
కౌశల@@
సీఆర్
వాచ
కష్టాల
తిథి@@
హరా@@
దిష్టిబొమ్మ@@
గేట్స్
స్తున్నాడు
గల్గు
దీసు@@
మింగే@@
పదజాలం@@
తెరిచిన
పంగ@@
ఫోల్@@
సింహం@@
సింపుల్@@
కుంటాడు
క్యాబిన్
పాళ్ల@@
పంచాంగ@@
ిస్
తొందర
చానెల్
తాళ
జిజ్ఞాస@@
కెందుకు
గర్జన
కుటీర@@
కల్మష@@
ావ్
సెల్సియస్
ప్రజాపతి@@
సోఫా@@
ేశ్వర్@@
భరిత
అరకు
ఖన్నా@@
ఆపరేటర్
కొమ్ము
మురుగ@@
ఓట్@@
అమిత్షా
సమాసము@@
వేశము@@
భ్రష్టు@@
జింత@@
పాతక@@
నీటిలో@@
సంపత్తి@@
మోకాలి
కోణంలో@@
వ్యావహారిక
ఫాక్స్
కొచ్చింది
యట్
బ్యాచిలర్
అర్వింద్
నియోజ@@
ఆయాస@@
శాన్
పట్టుకొని@@
వెలుతురు
ఫైనాన్స్@@
సాగిన@@
తరుగు@@
సనత్@@
కార్న్
పీచు
మంత్రం@@
మిత్రపక్ష@@
సవ్యం@@
సభ్యుని@@
దూకి@@
కాళీ
నాగభూషణ@@
కేశవ్
తస్మా
ఐపీసీ
ధాన్యాలు@@
కెవ్వరు
పాన
బొప్పాయి
నొం@@
హేతువు
వంశం@@
దయనీయ@@
ఆర్ట్@@
నిలవడం
ప్తం
నీట@@
రన్నింగ్
మిక@@
పాసన@@
కాసుల
ర్యం@@
వరల్డ్@@
పర్సన్@@
ాస్త్రాలు
బిక్కు@@
తదితరాల@@
చితక@@
నక్
శారదా
మనసా
టీకాల@@
ీం
తతంగ@@
కోవటానికి@@
మధుసూదన్
ఎంతమంది@@
యాజ్ఞ
రామన్న
మ్యాగజైన్
పాం
అగ్రిమెంట్
యశ్వ@@
ఏండ్లు@@
ర్ప
సందేహము@@
ఘాతుక@@
సాగనంప@@
పర్వతాల@@
కథానాయిక
ఉత్తమమైన@@
నియమము
సనన్
పెట్టుకొని@@
సౌమ్య
సామెత@@
్రా@@
రాయబార
భద్రతా@@
కర్కాటక
గ్గా@@
డోసుల
శివరాజ్
పోయాం@@
ఈవో@@
డిక్లరేషన్
భర్@@
బ్లాకు@@
దేవు
యేతి
అమలాపురం
ఖుషి
వాంగ్
ఇంచుమించు
వెక్కి
సిరు@@
మున్సి@@
అసోం
భీత@@
సిసోడియా
పట్టుకొ@@
లభ@@
దక
నాభి
హరికథ@@
ఓవరాల్
రేపే
బిస్కెట్@@
వినాశన@@
అమ్మి
కశ్యప@@
హారము
బ్రయత్న@@
నయం@@
బరు
అభ్యుదయ@@
ఛేదించి@@
నెప్ప@@
దీపం@@
నాటకము
టెలీ@@
బలపడి@@
రవ
స్టోరేజీ
ట్రేడ్@@
పనీ@@
అవర్
శీతాకాల
పాండ్య
ఆమ్ల@@
బాసి
మహావిష్ణువు
పత్రికల
యాపిల్@@
తిరస్క@@
ఘట్టం@@
డెల్టా@@
అనఁగా@@
ాలనుకునే@@
రమ్మ
రొ
త్తే
జన్మా@@
కనబడుతున్న@@
చైతూ
దంతయు
లాంగ్@@
మెల్@@
ధించి@@
స్తాము
గొడుగు
ఫోను
వ్యవ
ఆలోచింప@@
సిద్ధమైన@@
నిమ్స్
నాశ్రయ@@
ఎన్ఎస్
పురుగుల@@
రూల్@@
శ్రియ
పరాజయాల@@
శబరిమల
టిసి
బ్రవేశిం@@
ఎడారి@@
బంజారాహిల్స్@@
వర్ణించి
అయో@@
ప్రాణాపాయ@@
౧౮@@
ద్రోహుల@@
తూటాల@@
వేదికపై@@
నన్నే
గర్భం@@
పసి
దల్
తట్టి@@
ఎప్పుడూ@@
దత్తాత్రేయ@@
సహచర
రాజో@@
పేలుడు@@
బోతోంది
జోరందు@@
క్షత్రియ
రహ
విడిపోవ@@
అజేయ@@
విధముగా@@
యధిక@@
క్రాఫ్ట్
రసిక@@
అనుచిత@@
వాఁడై
సౌతాఫ్రికా@@
కమింగ్
సృష్టిస్తున్న@@
దానవ@@
స్టాపబుల్
యిబ్బం@@
వరప్రసాద్
ఫన్నీ@@
నయ్యె@@
యధి@@
సున్నా@@
హైలెట్@@
సంస్థాపన@@
సీన్స్@@
ఇవాళ@@
యెక్కడ@@
ఎన్నారై@@
ప్లాట్ఫామ్
మేఘా
మాదక
ించామని
దాయి@@
బిల్డర్@@
ఉంటుందన్న
రైస్@@
నాయనా
సీడీ@@
జరుగుచున్న@@
తుషార@@
చిక్కు
బలవంతు@@
భారతీ@@
అవివేక@@
వింటే@@
దామె@@
రుణం@@
శాలువా@@
ఆల్బమ్
ఎయిడెడ్
ఉగ్ర
రాష్ర్టాల
ఆక్సి@@
అపస్మారక
యందున్న
స్పష్ట
సుభ@@
దేశస్థు@@
కాశము
కర్ఫ్యూ@@
కండిషన్@@
కెళ్ళి
రక్@@
వెడలు@@
చేర్చడం
యుగం@@
ననేక@@
యాద@@
ఈశ్వర్@@
నాయర్
వారిపై@@
స్వగృహ@@
నిఖిల్@@
వెండితెర
దాన్
డిమి@@
ఒత్తి@@
దానవు@@
క్లస్టర్
త్వరిత@@
రక్షక
వంతుల
కన్వెన్షన్
బంధాల@@
గాంచిన@@
అబ్ర@@
త్వరగా@@
హెలి@@
హూ
కాశం
స్కానింగ్
జడ్జీ@@
తరుణంలో@@
షేక@@
డగ@@
వార్ధ@@
ఫైటర్
సింధూ@@
కిందపడి@@
మొసలి
కాలేజీల
ఆధార
గంధ
తెన్@@
గతము@@
పక్షులు@@
జీలకర్ర@@
తాజా@@
అమ్మో@@
తీసు
ప్రమోషన్స్@@
పథ్య@@
స్టాన్@@
పల్లెటూరి
క్రయ@@
తాడా@@
అమె
ఫౌ@@
వచి@@
శ్రమించి
నైజాం@@
ిరి
రేణు@@
హాలిడే
గతవారం
గలుగ
నియమం@@
మంటప@@
పేల్చి@@
పిదప@@
నాటో
వినికిడి
వీణ
జివి@@
కవిత్వము
సువ@@
ఒంటె@@
ఎలెక్ట్@@
ఐర్లాండ్
గావ్
మనస్తాపానికి
యావత్తు
పరుష@@
సాల
యగుచున్న@@
పార్థివ@@
లిరికల్
విరామ
జ్వరము@@
బుచ్చి@@
క్లియర్@@
నరేశ్
దగ్గర్లో@@
జలాల్@@
ఆపద
ష్క@@
టల్@@
వాళ
బుస@@
భయపడే
ఇన@@
అఫిడవిట్@@
గ్లామరస్
మొదలి@@
రనియు@@
భిన్నము@@
నర్థము@@
ంటాం@@
రామరాజు@@
రౌండర్
జపం
రైన్
వికారాబాద్@@
పెనాల్టీ
మయ్యె
విపక్ష@@
బడుచున్న
చిఱు@@
అథ్లెటిక్@@
దగ
ఎయిడ్స్
ఉందంటే
టెలిఫోన్
రిపబ్లిక్@@
వ్యాన్
న్నాయా@@
పశువు@@
తలా@@
ఫ్రిజ్@@
కమిట్@@
వేయ
సఖ్య@@
జూపి
రకుల్@@
పార్ధ@@
వాపి
జోహార్@@
గుడు
నటీమణుల@@
సస్పెన్షన్@@
ప్రియదర్శి@@
ఇష్@@
పాస్వర్డ్
త్యాగ
అణచివేత@@
ఇంద్రియాల@@
దారిలో@@
నిహారిక@@
ల్డ్@@
తీత
మింక@@
దొ
క్రాక్
స్వగ్రామం
పిహెచ్@@
ఆభరణ@@
ఫ్లాపు@@
ఆంజనేయ
ప్రయివేట్
పేకాట
లేదన@@
ఆగ్@@
చతుష్@@
సంక్షోభ
చుట్టా@@
రాఫెల్
సాఫ్ట్@@
ఇర్ఫాన్
చౌక్
డాక్టరే@@
యువక@@
ఫైడ్
పలికే@@
అవమానించి@@
ముత్తా@@
ఔటర్
పుష్కర
గ్రామము
బగ@@
చిప్ప@@
ట్వీట్ల@@
రేడియేషన్
గరిక@@
బంధము
అస్తమ@@
జాము@@
కస్య
ఉత్త
సుమంత్@@
బిగించి@@
సిక్కు
తెనాలి@@
హరణ
కట్టడం@@
ప్రణయ్
మలుచు@@
క్షీ
జడ
మైథ@@
వ్యాక్సినేషన్@@
చీలిక
లెక్కింపు@@
ఎలాగో@@
బిహెచ్పి
బ్రతికి
ళ్వారు@@
క్వాలిటీ@@
బేగం
పత్ని@@
గిడి
దన్య@@
ఛార్జీల
టీచర్ల
బాస@@
ఆయుష్మాన్
తాడిపత్రి
ర్చిన@@
ప్రమ@@
జమ్ము@@
ఆసిఫాబాద్
అవుట@@
వచ్చెద@@
డివైజ్@@
తొడుగు@@
జానీ@@
కాంతార@@
మూలాల
మెక్సికో@@
మిచ్చారు@@
కనిపి@@
చేకూరి@@
చనిపోయి
జూచిన
పిట్ట
విపణి@@
టచ్లో
చాటిన
ప్రమేయ@@
నూట@@
ఎనిమిదేళ్ల
ప్రీమియం@@
భీం@@
సవతి
టీస్పూన్
మెనూ
తెగించి
ప్రేక్షకుడి@@
అధ్యయనాల
గడించి@@
గాయపడిన@@
సహనం@@
నీలం@@
చందన
మస్క్@@
స్మారక@@
యూజ్
తలంచి@@
ట్టయితే
ధృతి@@
కోసి@@
వాఙ్మయ
ఖాతాల్లో@@
వైబ్@@
అధ్వాన్న@@
చాంబర్
కాలిఫోర్నియా
స్కెచ్@@
మాధవ్@@
కిటకిట@@
భించెను@@
రామస్వామి
మిరపకాయ@@
చిన్ని@@
ఉంటాయన్న@@
ఏమవు@@
పామర@@
బుజ్జి@@
డమా@@
స్ఫురి@@
నుండియు@@
నంతయు
కచ్చి@@
తరుచూ
కోవాలంటే@@
రెసిస్@@
దరఖాస్తుదారు@@
తలి@@
తగ్గుతున్న@@
క్టర్@@
పేరే@@
బఠ@@
దంచి@@
క్రీ
సోకి
హాజరై@@
పర్వతం@@
కిచ్చి@@
ఉషా@@
కార్టూన్@@
నాల్గవ@@
అదరగొడు@@
స్థా
ప్రగల్భ@@
మాడి
[...]
